{"vocab_size": 16384, "stoi": {"<|padding|>": 0, "<|unknown|>": 1, "<|bos|>": 2, "<|eos|>": 3, "<|instruct_mark|>": 4, "<|response_mark|>": 5, "<|BD4SUR|>": 6, "\u0000": 7, "\u0001": 8, "\u0002": 9, "\u0003": 10, "\u0004": 11, "\u0005": 12, "\u0006": 13, "\u0007": 14, "\b": 15, "\t": 16, "\n": 17, "\u000b": 18, "\f": 19, "\r": 20, "\u000e": 21, "\u000f": 22, "\u0010": 23, "\u0011": 24, "\u0012": 25, "\u0013": 26, "\u0014": 27, "\u0015": 28, "\u0016": 29, "\u0017": 30, "\u0018": 31, "\u0019": 32, "\u001a": 33, "\u001b": 34, "\u001c": 35, "\u001d": 36, "\u001e": 37, "\u001f": 38, " ": 39, "!": 40, "\"": 41, "#": 42, "$": 43, "%": 44, "&": 45, "'": 46, "(": 47, ")": 48, "*": 49, "+": 50, ",": 51, "-": 52, "-d": 53, "-o": 54, "-r": 55, "-ra": 56, "-ro": 57, ".": 58, "/": 59, "0": 60, "1": 61, "2": 62, "3": 63, "4": 64, "5": 65, "6": 66, "7": 67, "8": 68, "9": 69, ":": 70, ";": 71, "<": 72, "=": 73, ">": 74, "?": 75, "@": 76, "A": 77, "B": 78, "C": 79, "D": 80, "E": 81, "F": 82, "G": 83, "H": 84, "I": 85, "J": 86, "K": 87, "L": 88, "M": 89, "N": 90, "O": 91, "P": 92, "Q": 93, "R": 94, "S": 95, "T": 96, "U": 97, "V": 98, "W": 99, "X": 100, "Y": 101, "Z": 102, "[": 103, "\\": 104, "]": 105, "^": 106, "_": 107, "`": 108, "a": 109, "ab": 110, "abb": 111, "abi": 112, "abil": 113, "abili": 114, "abilit": 115, "abiliti": 116, "abilitie": 117, "abilities": 118, "ability": 119, "abl": 120, "able": 121, "abli": 122, "abo": 123, "abu": 124, "abul": 125, "abula": 126, "ac": 127, "acc": 128, "acce": 129, "accep": 130, "accept": 131, "acco": 132, "ace": 133, "ach": 134, "ache": 135, "achi": 136, "achin": 137, "achine": 138, "aci": 139, "acie": 140, "acies": 141, "acing": 142, "ack": 143, "acket": 144, "act": 145, "acti": 146, "actic": 147, "actio": 148, "action": 149, "activ": 150, "activi": 151, "activit": 152, "acto": 153, "actor": 154, "acy": 155, "ad": 156, "ada": 157, "ade": 158, "ader": 159, "adi": 160, "adia": 161, "adie": 162, "adies": 163, "adin": 164, "ading": 165, "adio": 166, "adioa": 167, "adioac": 168, "adioact": 169, "adioacti": 170, "adioactiv": 171, "adl": 172, "adli": 173, "adlin": 174, "ado": 175, "adow": 176, "adu": 177, "adua": 178, "aduat": 179, "adv": 180, "adva": 181, "advan": 182, "advant": 183, "advanta": 184, "advantag": 185, "advantage": 186, "adve": 187, "adver": 188, "advert": 189, "adverti": 190, "advertis": 191, "ady": 192, "ae": 193, "af": 194, "afe": 195, "afr": 196, "afric": 197, "africa": 198, "after": 199, "ag": 200, "aga": 201, "age": 202, "ageme": 203, "agemen": 204, "agement": 205, "ager": 206, "ages": 207, "agi": 208, "agin": 209, "aging": 210, "ago": 211, "agr": 212, "agre": 213, "agree": 214, "ai": 215, "aid": 216, "ail": 217, "ain": 218, "ainl": 219, "aint": 220, "air": 221, "airs": 222, "ais": 223, "ait": 224, "ak": 225, "ake": 226, "aker": 227, "aki": 228, "akin": 229, "aking": 230, "al": 231, "ala": 232, "alc": 233, "alco": 234, "ale": 235, "ales": 236, "ali": 237, "alia": 238, "alian": 239, "alis": 240, "alism": 241, "alist": 242, "alit": 243, "aliti": 244, "alitie": 245, "alities": 246, "ality": 247, "aliz": 248, "alize": 249, "alizi": 250, "alizin": 251, "alizing": 252, "alk": 253, "all": 254, "alle": 255, "ally": 256, "alo": 257, "alog": 258, "alogu": 259, "als": 260, "alt": 261, "alth": 262, "althi": 263, "althie": 264, "althy": 265, "alu": 266, "alv": 267, "aly": 268, "alys": 269, "am": 270, "ama": 271, "amb": 272, "ame": 273, "amen": 274, "ament": 275, "amer": 276, "ameri": 277, "americ": 278, "america": 279, "ami": 280, "amin": 281, "amina": 282, "aming": 283, "amm": 284, "amo": 285, "amp": 286, "ams": 287, "an": 288, "ana": 289, "anag": 290, "anage": 291, "anal": 292, "analy": 293, "analys": 294, "anc": 295, "ance": 296, "anci": 297, "ancie": 298, "ancies": 299, "ancy": 300, "and": 301, "anda": 302, "andi": 303, "andie": 304, "andl": 305, "andle": 306, "andpa": 307, "ands": 308, "ane": 309, "ang": 310, "ange": 311, "anger": 312, "angh": 313, "angha": 314, "anghai": 315, "ani": 316, "aning": 317, "anis": 318, "aniz": 319, "ank": 320, "anl": 321, "ann": 322, "anne": 323, "anner": 324, "anni": 325, "ans": 326, "ansla": 327, "anslat": 328, "ant": 329, "anta": 330, "antag": 331, "antage": 332, "anti": 333, "antif": 334, "ants": 335, "anu": 336, "any": 337, "ap": 338, "apa": 339, "apan": 340, "ape": 341, "aper": 342, "aph": 343, "apher": 344, "aphi": 345, "aphic": 346, "api": 347, "aping": 348, "apo": 349, "apolo": 350, "apolog": 351, "app": 352, "appe": 353, "appea": 354, "appear": 355, "appen": 356, "appi": 357, "appie": 358, "appr": 359, "appro": 360, "apt": 361, "ar": 362, "ara": 363, "arab": 364, "arabi": 365, "aranc": 366, "arance": 367, "arb": 368, "arc": 369, "arch": 370, "ard": 371, "arde": 372, "arden": 373, "ardi": 374, "ards": 375, "are": 376, "aren": 377, "arent": 378, "arg": 379, "arge": 380, "ari": 381, "arie": 382, "aries": 383, "aril": 384, "arily": 385, "arin": 386, "aring": 387, "arit": 388, "ariti": 389, "aritie": 390, "arities": 391, "arity": 392, "ark": 393, "arket": 394, "arl": 395, "arli": 396, "arly": 397, "arm": 398, "armi": 399, "armin": 400, "arming": 401, "arn": 402, "arnin": 403, "arning": 404, "arr": 405, "arri": 406, "arrie": 407, "arried": 408, "arriv": 409, "art": 410, "arte": 411, "arter": 412, "arti": 413, "artic": 414, "artie": 415, "arties": 416, "artme": 417, "artmen": 418, "artment": 419, "arx": 420, "arxi": 421, "arxis": 422, "ary": 423, "as": 424, "asa": 425, "asan": 426, "asant": 427, "ascul": 428, "asculi": 429, "asculin": 430, "ase": 431, "ash": 432, "asi": 433, "asia": 434, "asin": 435, "asing": 436, "ask": 437, "aso": 438, "ason": 439, "ass": 440, "assi": 441, "assie": 442, "assies": 443, "ast": 444, "aste": 445, "aster": 446, "asti": 447, "astic": 448, "astie": 449, "asties": 450, "asu": 451, "asur": 452, "asure": 453, "at": 454, "ata": 455, "atc": 456, "atch": 457, "ate": 458, "ated": 459, "ately": 460, "ater": 461, "ater-": 462, "ateri": 463, "ateria": 464, "aterial": 465, "atern": 466, "aterni": 467, "aternit": 468, "ates": 469, "ath": 470, "athe": 471, "ather": 472, "athi": 473, "ati": 474, "atic": 475, "atica": 476, "atical": 477, "atin": 478, "ating": 479, "atio": 480, "ation": 481, "ationa": 482, "ational": 483, "ations": 484, "atis": 485, "atisf": 486, "atisfi": 487, "atisfie": 488, "ativ": 489, "ative": 490, "ato": 491, "ator": 492, "atr": 493, "atri": 494, "atric": 495, "atry": 496, "ats": 497, "att": 498, "atte": 499, "atten": 500, "attent": 501, "atter": 502, "atu": 503, "atur": 504, "atura": 505, "ature": 506, "au": 507, "aug": 508, "augh": 509, "aught": 510, "aughte": 511, "aughter": 512, "aur": 513, "aus": 514, "ause": 515, "austr": 516, "austra": 517, "austral": 518, "australi": 519, "australia": 520, "aut": 521, "auti": 522, "auto": 523, "autom": 524, "automa": 525, "automat": 526, "av": 527, "ava": 528, "avail": 529, "ave": 530, "avel": 531, "avele": 532, "avi": 533, "avie": 534, "avies": 535, "avin": 536, "aving": 537, "avo": 538, "avour": 539, "aw": 540, "awa": 541, "ax": 542, "axi": 543, "ay": 544, "ays": 545, "az": 546, "azi": 547, "b": 548, "ba": 549, "bab": 550, "babi": 551, "bac": 552, "bag": 553, "bak": 554, "bal": 555, "ball": 556, "ban": 557, "bas": 558, "bat": 559, "bath": 560, "bb": 561, "bbe": 562, "bber": 563, "be": 564, "bea": 565, "beaut": 566, "bec": 567, "bed": 568, "bee": 569, "beg": 570, "begi": 571, "begin": 572, "beginn": 573, "bel": 574, "belie": 575, "believ": 576, "bell": 577, "ber": 578, "berr": 579, "berri": 580, "berrie": 581, "bet": 582, "bi": 583, "bia": 584, "bic": 585, "bicyc": 586, "bicycl": 587, "bie": 588, "bik": 589, "bil": 590, "bili": 591, "bilit": 592, "biliti": 593, "bilitie": 594, "bilities": 595, "bility": 596, "bin": 597, "bio": 598, "biolo": 599, "biolog": 600, "biot": 601, "bioti": 602, "biotic": 603, "bir": 604, "birth": 605, "bit": 606, "bj": 607, "bje": 608, "bjec": 609, "bject": 610, "bl": 611, "bla": 612, "ble": 613, "bli": 614, "blin": 615, "bling": 616, "blish": 617, "blo": 618, "bloo": 619, "blood": 620, "bloodi": 621, "bloodie": 622, "bly": 623, "bo": 624, "boa": 625, "bod": 626, "bodie": 627, "body": 628, "bon": 629, "boo": 630, "book": 631, "books": 632, "bor": 633, "bot": 634, "bou": 635, "bour": 636, "bow": 637, "box": 638, "br": 639, "bra": 640, "bre": 641, "brea": 642, "break": 643, "bri": 644, "brid": 645, "bridg": 646, "bro": 647, "broth": 648, "brothe": 649, "brother": 650, "bru": 651, "bs": 652, "bt": 653, "btitl": 654, "bu": 655, "buddh": 656, "buddhi": 657, "buddhis": 658, "bui": 659, "buil": 660, "build": 661, "buildi": 662, "buildin": 663, "building": 664, "bul": 665, "bula": 666, "bur": 667, "bus": 668, "busi": 669, "busie": 670, "busin": 671, "busine": 672, "busines": 673, "business": 674, "but": 675, "by": 676, "c": 677, "ca": 678, "cab": 679, "cag": 680, "cal": 681, "call": 682, "cally": 683, "cam": 684, "can": 685, "canad": 686, "canc": 687, "cand": 688, "candl": 689, "cap": 690, "car": 691, "card": 692, "carr": 693, "carri": 694, "carrie": 695, "cas": 696, "case": 697, "cat": 698, "cate": 699, "cati": 700, "catin": 701, "cating": 702, "catio": 703, "cation": 704, "cau": 705, "cause": 706, "cc": 707, "cce": 708, "ccept": 709, "cces": 710, "ccess": 711, "cco": 712, "ccu": 713, "ccupa": 714, "cd": 715, "ce": 716, "cei": 717, "ceiv": 718, "cel": 719, "cem": 720, "cemen": 721, "cen": 722, "cenc": 723, "cence": 724, "cent": 725, "cente": 726, "centr": 727, "centra": 728, "central": 729, "centrat": 730, "cep": 731, "cept": 732, "cer": 733, "cert": 734, "certa": 735, "certai": 736, "certain": 737, "certi": 738, "certif": 739, "certifi": 740, "certific": 741, "certifica": 742, "certificat": 743, "ces": 744, "cess": 745, "cessa": 746, "cessar": 747, "cessary": 748, "cessi": 749, "cessio": 750, "cession": 751, "ch": 752, "cha": 753, "chai": 754, "chair": 755, "chan": 756, "chang": 757, "char": 758, "che": 759, "chee": 760, "cheer": 761, "chemi": 762, "cher": 763, "chi": 764, "chick": 765, "chil": 766, "child": 767, "chin": 768, "chine": 769, "chn": 770, "cho": 771, "chr": 772, "ci": 773, "cia": 774, "cial": 775, "ciali": 776, "cialis": 777, "cian": 778, "cid": 779, "cide": 780, "cie": 781, "cien": 782, "cient": 783, "cienti": 784, "cies": 785, "cific": 786, "cigar": 787, "cin": 788, "cing": 789, "cip": 790, "cis": 791, "cit": 792, "ck": 793, "cke": 794, "cket": 795, "cki": 796, "ckie": 797, "ckl": 798, "cks": 799, "cl": 800, "cla": 801, "clas": 802, "class": 803, "cle": 804, "clea": 805, "clean": 806, "clear": 807, "cli": 808, "clin": 809, "cling": 810, "clo": 811, "clot": 812, "cloth": 813, "clothe": 814, "cloud": 815, "clu": 816, "co": 817, "coa": 818, "coc": 819, "col": 820, "coll": 821, "colle": 822, "colo": 823, "com": 824, "come": 825, "comfo": 826, "comfor": 827, "comfort": 828, "comi": 829, "comin": 830, "coming": 831, "comm": 832, "commo": 833, "comp": 834, "compa": 835, "compl": 836, "comple": 837, "complet": 838, "compu": 839, "comput": 840, "compute": 841, "computer": 842, "con": 843, "conc": 844, "conce": 845, "concen": 846, "concent": 847, "concentr": 848, "concentra": 849, "concentrat": 850, "cond": 851, "condi": 852, "condit": 853, "conditi": 854, "conditio": 855, "condition": 856, "conom": 857, "cont": 858, "conta": 859, "conti": 860, "contin": 861, "contr": 862, "contra": 863, "coo": 864, "cook": 865, "cop": 866, "cor": 867, "cord": 868, "corr": 869, "corre": 870, "correc": 871, "correct": 872, "cos": 873, "cosi": 874, "cosie": 875, "cost": 876, "costl": 877, "cot": 878, "cou": 879, "coun": 880, "count": 881, "countr": 882, "cour": 883, "coura": 884, "courag": 885, "courage": 886, "cours": 887, "court": 888, "cov": 889, "cove": 890, "cover": 891, "cr": 892, "cra": 893, "crat": 894, "crati": 895, "cratic": 896, "cre": 897, "crea": 898, "cream": 899, "creas": 900, "creat": 901, "creati": 902, "cri": 903, "cript": 904, "cris": 905, "criti": 906, "critic": 907, "critici": 908, "cro": 909, "crop": 910, "cru": 911, "cs": 912, "ct": 913, "cta": 914, "ctanc": 915, "cti": 916, "ctio": 917, "ction": 918, "ctiv": 919, "ctive": 920, "ctivi": 921, "ctivit": 922, "ctl": 923, "ctly": 924, "cto": 925, "ctor": 926, "ctori": 927, "ctors": 928, "ctr": 929, "ctri": 930, "ctric": 931, "cts": 932, "ctu": 933, "ctua": 934, "ctuat": 935, "ctur": 936, "cture": 937, "cturi": 938, "cturin": 939, "cturing": 940, "cu": 941, "cul": 942, "cular": 943, "culin": 944, "cult": 945, "cum": 946, "cup": 947, "cur": 948, "curl": 949, "curli": 950, "curlie": 951, "cus": 952, "cut": 953, "cy": 954, "cyc": 955, "cycl": 956, "cycle": 957, "cycli": 958, "cyclin": 959, "cycling": 960, "d": 961, "d-": 962, "d-r": 963, "da": 964, "dam": 965, "damag": 966, "dan": 967, "danc": 968, "dance": 969, "dar": 970, "dat": 971, "dati": 972, "datio": 973, "dation": 974, "day": 975, "days": 976, "db": 977, "dc": 978, "dd": 979, "dde": 980, "dden": 981, "ddhis": 982, "ddl": 983, "de": 984, "dea": 985, "dec": 986, "ded": 987, "dee": 988, "def": 989, "del": 990, "deli": 991, "deliv": 992, "delive": 993, "deliver": 994, "den": 995, "dent": 996, "dents": 997, "deo": 998, "dep": 999, "depen": 1000, "depend": 1001, "der": 1002, "ders": 1003, "derst": 1004, "dersta": 1005, "derstan": 1006, "derstand": 1007, "des": 1008, "descr": 1009, "descri": 1010, "det": 1011, "detai": 1012, "detail": 1013, "dg": 1014, "dge": 1015, "dging": 1016, "dh": 1017, "di": 1018, "dia": 1019, "dian": 1020, "dic": 1021, "dica": 1022, "dicat": 1023, "dicate": 1024, "dict": 1025, "dicti": 1026, "dictio": 1027, "diction": 1028, "die": 1029, "died": 1030, "dies": 1031, "dif": 1032, "diff": 1033, "diffe": 1034, "differ": 1035, "diffi": 1036, "diffic": 1037, "difficu": 1038, "difficul": 1039, "difficult": 1040, "din": 1041, "dina": 1042, "dinar": 1043, "dinari": 1044, "ding": 1045, "dings": 1046, "dio": 1047, "dioac": 1048, "dioact": 1049, "dioacti": 1050, "dioactiv": 1051, "dip": 1052, "diplo": 1053, "diplom": 1054, "diploma": 1055, "dir": 1056, "dire": 1057, "direc": 1058, "direct": 1059, "directo": 1060, "director": 1061, "dirt": 1062, "dirti": 1063, "dirtie": 1064, "dis": 1065, "disa": 1066, "disab": 1067, "disabl": 1068, "disap": 1069, "disapp": 1070, "disc": 1071, "disco": 1072, "discov": 1073, "discove": 1074, "discover": 1075, "dish": 1076, "diso": 1077, "disp": 1078, "diss": 1079, "dissa": 1080, "dissat": 1081, "dissati": 1082, "dissatis": 1083, "dissatisf": 1084, "dissatisfi": 1085, "dissatisfie": 1086, "dist": 1087, "dit": 1088, "diti": 1089, "ditio": 1090, "dition": 1091, "diu": 1092, "dium": 1093, "dl": 1094, "dle": 1095, "dli": 1096, "dlin": 1097, "dling": 1098, "dly": 1099, "dm": 1100, "dn": 1101, "dne": 1102, "dnes": 1103, "dness": 1104, "do": 1105, "doc": 1106, "docto": 1107, "doctor": 1108, "dol": 1109, "dom": 1110, "don": 1111, "doo": 1112, "door": 1113, "dou": 1114, "dow": 1115, "down": 1116, "dp": 1117, "dr": 1118, "dra": 1119, "dre": 1120, "dri": 1121, "drie": 1122, "drin": 1123, "drink": 1124, "dro": 1125, "drop": 1126, "drow": 1127, "drows": 1128, "dru": 1129, "ds": 1130, "du": 1131, "dua": 1132, "duc": 1133, "duca": 1134, "ducat": 1135, "ducati": 1136, "duct": 1137, "dul": 1138, "dus": 1139, "dust": 1140, "dustr": 1141, "dustri": 1142, "dv": 1143, "dva": 1144, "dvan": 1145, "dvant": 1146, "dvanta": 1147, "dvantag": 1148, "dvantage": 1149, "dve": 1150, "dver": 1151, "dvert": 1152, "dverti": 1153, "dvertis": 1154, "dy": 1155, "dyn": 1156, "e": 1157, "ea": 1158, "eable": 1159, "eac": 1160, "each": 1161, "ead": 1162, "eader": 1163, "eadli": 1164, "eadlin": 1165, "eaf": 1166, "eag": 1167, "eak": 1168, "eake": 1169, "eaker": 1170, "eal": 1171, "eali": 1172, "ealis": 1173, "ealt": 1174, "ealth": 1175, "ealthi": 1176, "ealthie": 1177, "ealthy": 1178, "eam": 1179, "ean": 1180, "ear": 1181, "earan": 1182, "earanc": 1183, "earance": 1184, "earl": 1185, "early": 1186, "earn": 1187, "eart": 1188, "earti": 1189, "eartie": 1190, "eas": 1191, "easa": 1192, "easan": 1193, "easant": 1194, "ease": 1195, "easi": 1196, "easin": 1197, "easing": 1198, "easo": 1199, "eason": 1200, "east": 1201, "easte": 1202, "easter": 1203, "easu": 1204, "easur": 1205, "easure": 1206, "eat": 1207, "eate": 1208, "eath": 1209, "eathe": 1210, "eather": 1211, "eati": 1212, "eatur": 1213, "eature": 1214, "eau": 1215, "eav": 1216, "eavi": 1217, "eavie": 1218, "eb": 1219, "ebr": 1220, "ec": 1221, "eca": 1222, "ece": 1223, "eces": 1224, "ecess": 1225, "ecessa": 1226, "ecessar": 1227, "ech": 1228, "echn": 1229, "echni": 1230, "eci": 1231, "ecia": 1232, "ecial": 1233, "eciali": 1234, "eck": 1235, "eco": 1236, "econ": 1237, "econd": 1238, "econo": 1239, "econom": 1240, "ecor": 1241, "ecord": 1242, "ect": 1243, "ecta": 1244, "ectan": 1245, "ectanc": 1246, "ecti": 1247, "ectio": 1248, "ection": 1249, "ectiv": 1250, "ective": 1251, "ectly": 1252, "ecto": 1253, "ector": 1254, "ectr": 1255, "ectri": 1256, "ectric": 1257, "ectro": 1258, "ectu": 1259, "ecycl": 1260, "ed": 1261, "edi": 1262, "edica": 1263, "edit": 1264, "edl": 1265, "edu": 1266, "educ": 1267, "educa": 1268, "educat": 1269, "educati": 1270, "ee": 1271, "eed": 1272, "eek": 1273, "eel": 1274, "een": 1275, "eep": 1276, "eepe": 1277, "eeper": 1278, "eepi": 1279, "eer": 1280, "ees": 1281, "eet": 1282, "eez": 1283, "ef": 1284, "efe": 1285, "efer": 1286, "efere": 1287, "eferen": 1288, "eff": 1289, "effec": 1290, "effect": 1291, "efi": 1292, "efl": 1293, "efu": 1294, "eful": 1295, "eg": 1296, "ega": 1297, "egard": 1298, "egi": 1299, "egin": 1300, "eginn": 1301, "egr": 1302, "egu": 1303, "egul": 1304, "egula": 1305, "egular": 1306, "egulari": 1307, "egularit": 1308, "eh": 1309, "eho": 1310, "ei": 1311, "eig": 1312, "eigh": 1313, "eighb": 1314, "eighbo": 1315, "eighbor": 1316, "eighbou": 1317, "eighbour": 1318, "eight": 1319, "ein": 1320, "eiv": 1321, "ek": 1322, "eke": 1323, "el": 1324, "ela": 1325, "elan": 1326, "eland": 1327, "elat": 1328, "elati": 1329, "elatio": 1330, "elation": 1331, "elativ": 1332, "eld": 1333, "ele": 1334, "elec": 1335, "elect": 1336, "electr": 1337, "electri": 1338, "electric": 1339, "electro": 1340, "eleme": 1341, "elemen": 1342, "element": 1343, "eleph": 1344, "eles": 1345, "eless": 1346, "elf": 1347, "eli": 1348, "elie": 1349, "elies": 1350, "eliest": 1351, "eliev": 1352, "elin": 1353, "elive": 1354, "eliver": 1355, "ell": 1356, "elli": 1357, "ellie": 1358, "ellies": 1359, "ello": 1360, "ellow": 1361, "elo": 1362, "elp": 1363, "els": 1364, "elt": 1365, "elv": 1366, "elve": 1367, "elves": 1368, "ely": 1369, "em": 1370, "ema": 1371, "emat": 1372, "emati": 1373, "ematic": 1374, "ematica": 1375, "ematical": 1376, "emb": 1377, "embe": 1378, "ember": 1379, "eme": 1380, "emen": 1381, "ement": 1382, "ements": 1383, "emi": 1384, "emo": 1385, "emp": 1386, "empl": 1387, "emplo": 1388, "employ": 1389, "ems": 1390, "en": 1391, "ena": 1392, "enc": 1393, "ence": 1394, "enci": 1395, "encie": 1396, "encies": 1397, "encin": 1398, "encing": 1399, "ency": 1400, "end": 1401, "endi": 1402, "endl": 1403, "endli": 1404, "endlie": 1405, "ends": 1406, "ene": 1407, "ener": 1408, "eng": 1409, "enge": 1410, "enger": 1411, "engi": 1412, "engin": 1413, "engine": 1414, "enginee": 1415, "engineer": 1416, "engl": 1417, "engli": 1418, "englis": 1419, "english": 1420, "eni": 1421, "ening": 1422, "enq": 1423, "enqu": 1424, "enqui": 1425, "enquir": 1426, "ens": 1427, "ense": 1428, "ensi": 1429, "ent": 1430, "enta": 1431, "ental": 1432, "ente": 1433, "enten": 1434, "enth": 1435, "enti": 1436, "entl": 1437, "ently": 1438, "entr": 1439, "entra": 1440, "entral": 1441, "entrat": 1442, "ents": 1443, "env": 1444, "envi": 1445, "eo": 1446, "eogra": 1447, "eograp": 1448, "eograph": 1449, "eolog": 1450, "ep": 1451, "epa": 1452, "epar": 1453, "epe": 1454, "epen": 1455, "epend": 1456, "eph": 1457, "epi": 1458, "epl": 1459, "eport": 1460, "ept": 1461, "eq": 1462, "equ": 1463, "er": 1464, "er-": 1465, "era": 1466, "erat": 1467, "erati": 1468, "eratio": 1469, "eration": 1470, "erb": 1471, "erc": 1472, "erci": 1473, "ere": 1474, "erely": 1475, "eren": 1476, "erenc": 1477, "erence": 1478, "erf": 1479, "erful": 1480, "erg": 1481, "erh": 1482, "eri": 1483, "eria": 1484, "erial": 1485, "eric": 1486, "erica": 1487, "erie": 1488, "eries": 1489, "erim": 1490, "erime": 1491, "erimen": 1492, "eriment": 1493, "erimenta": 1494, "erin": 1495, "ering": 1496, "erl": 1497, "erli": 1498, "erlin": 1499, "erm": 1500, "erma": 1501, "erman": 1502, "erme": 1503, "ermen": 1504, "ern": 1505, "erna": 1506, "erni": 1507, "ernit": 1508, "ero": 1509, "erous": 1510, "erp": 1511, "err": 1512, "erri": 1513, "errie": 1514, "erries": 1515, "erry": 1516, "ers": 1517, "erse": 1518, "ersel": 1519, "erso": 1520, "erson": 1521, "erst": 1522, "ersta": 1523, "erstan": 1524, "erstand": 1525, "ert": 1526, "erta": 1527, "ertai": 1528, "ertain": 1529, "erti": 1530, "ertif": 1531, "ertifi": 1532, "ertific": 1533, "ertifica": 1534, "ertificat": 1535, "ertis": 1536, "erv": 1537, "ervi": 1538, "ervic": 1539, "ervie": 1540, "erview": 1541, "erw": 1542, "ery": 1543, "es": 1544, "esc": 1545, "escen": 1546, "escri": 1547, "esd": 1548, "esda": 1549, "esday": 1550, "ese": 1551, "esh": 1552, "esi": 1553, "esid": 1554, "eside": 1555, "esiden": 1556, "esident": 1557, "esis": 1558, "esm": 1559, "esma": 1560, "esman": 1561, "esme": 1562, "esmen": 1563, "eso": 1564, "esp": 1565, "espe": 1566, "espec": 1567, "espect": 1568, "ess": 1569, "essa": 1570, "essar": 1571, "essary": 1572, "essfu": 1573, "essful": 1574, "essi": 1575, "essio": 1576, "ession": 1577, "esso": 1578, "essor": 1579, "est": 1580, "esta": 1581, "ester": 1582, "esti": 1583, "estio": 1584, "estion": 1585, "esu": 1586, "esult": 1587, "et": 1588, "eta": 1589, "etai": 1590, "etail": 1591, "ete": 1592, "eter": 1593, "eth": 1594, "ether": 1595, "eti": 1596, "etic": 1597, "etime": 1598, "etin": 1599, "eting": 1600, "etr": 1601, "etre": 1602, "etric": 1603, "ets": 1604, "ett": 1605, "ette": 1606, "ety": 1607, "eu": 1608, "eur": 1609, "euro": 1610, "europ": 1611, "europe": 1612, "ev": 1613, "eve": 1614, "even": 1615, "event": 1616, "ever": 1617, "evera": 1618, "every": 1619, "evi": 1620, "ew": 1621, "ewa": 1622, "ewar": 1623, "ewe": 1624, "ewer": 1625, "ewi": 1626, "ewo": 1627, "ewor": 1628, "ework": 1629, "ewr": 1630, "ewri": 1631, "ewrit": 1632, "ews": 1633, "ex": 1634, "exa": 1635, "exam": 1636, "exami": 1637, "examin": 1638, "exc": 1639, "exi": 1640, "exis": 1641, "exist": 1642, "exp": 1643, "expe": 1644, "expec": 1645, "expect": 1646, "expecta": 1647, "expen": 1648, "expens": 1649, "exper": 1650, "experi": 1651, "experim": 1652, "experime": 1653, "experimen": 1654, "experiment": 1655, "experimenta": 1656, "ext": 1657, "extr": 1658, "extra": 1659, "ey": 1660, "ez": 1661, "f": 1662, "fa": 1663, "fac": 1664, "fact": 1665, "facti": 1666, "facto": 1667, "factor": 1668, "fai": 1669, "fair": 1670, "fal": 1671, "fam": 1672, "famil": 1673, "far": 1674, "farm": 1675, "fat": 1676, "fathe": 1677, "father": 1678, "fav": 1679, "favo": 1680, "favou": 1681, "favour": 1682, "fax": 1683, "fe": 1684, "fea": 1685, "fec": 1686, "fect": 1687, "fee": 1688, "fel": 1689, "fen": 1690, "fenc": 1691, "fence": 1692, "fer": 1693, "fere": 1694, "feren": 1695, "ferenc": 1696, "ference": 1697, "fes": 1698, "fet": 1699, "ff": 1700, "ffe": 1701, "ffect": 1702, "ffer": 1703, "ffi": 1704, "ffic": 1705, "ffici": 1706, "fficie": 1707, "fficien": 1708, "fficient": 1709, "fficu": 1710, "fficul": 1711, "fficult": 1712, "fi": 1713, "fic": 1714, "fica": 1715, "ficat": 1716, "ficati": 1717, "ficatio": 1718, "fication": 1719, "fici": 1720, "ficie": 1721, "ficien": 1722, "ficient": 1723, "ficul": 1724, "ficult": 1725, "fie": 1726, "fied": 1727, "fies": 1728, "fig": 1729, "fight": 1730, "fil": 1731, "fin": 1732, "fing": 1733, "finge": 1734, "finger": 1735, "fir": 1736, "fire": 1737, "firm": 1738, "first": 1739, "fis": 1740, "fish": 1741, "fit": 1742, "fl": 1743, "fla": 1744, "flat": 1745, "fle": 1746, "flo": 1747, "flow": 1748, "flu": 1749, "fluen": 1750, "fluenc": 1751, "fo": 1752, "fol": 1753, "follo": 1754, "follow": 1755, "foo": 1756, "for": 1757, "forc": 1758, "force": 1759, "fore": 1760, "fores": 1761, "forg": 1762, "form": 1763, "fort": 1764, "fou": 1765, "found": 1766, "fr": 1767, "fra": 1768, "fre": 1769, "free": 1770, "frenc": 1771, "french": 1772, "fres": 1773, "fresh": 1774, "fri": 1775, "frica": 1776, "frie": 1777, "frien": 1778, "friend": 1779, "friendl": 1780, "friendli": 1781, "friendlie": 1782, "fro": 1783, "ft": 1784, "fte": 1785, "fu": 1786, "ful": 1787, "full": 1788, "fully": 1789, "fun": 1790, "funn": 1791, "funni": 1792, "funnie": 1793, "fur": 1794, "furth": 1795, "furthe": 1796, "fy": 1797, "g": 1798, "ga": 1799, "gai": 1800, "gam": 1801, "gan": 1802, "gani": 1803, "ganis": 1804, "ganiz": 1805, "gar": 1806, "gard": 1807, "garde": 1808, "garden": 1809, "gat": 1810, "ge": 1811, "gemen": 1812, "gement": 1813, "gen": 1814, "genc": 1815, "genci": 1816, "gencie": 1817, "gencies": 1818, "gency": 1819, "gentl": 1820, "geo": 1821, "geogr": 1822, "geogra": 1823, "geograp": 1824, "geograph": 1825, "ger": 1826, "germa": 1827, "german": 1828, "ges": 1829, "get": 1830, "gg": 1831, "gh": 1832, "gha": 1833, "ghai": 1834, "ghb": 1835, "ghbo": 1836, "ghbor": 1837, "ghbou": 1838, "ghbour": 1839, "ght": 1840, "ghte": 1841, "ghten": 1842, "ghter": 1843, "gi": 1844, "gia": 1845, "gic": 1846, "gica": 1847, "gical": 1848, "gie": 1849, "gies": 1850, "gin": 1851, "gine": 1852, "ginee": 1853, "gineer": 1854, "ging": 1855, "gir": 1856, "gis": 1857, "gist": 1858, "gistr": 1859, "gistra": 1860, "giv": 1861, "givin": 1862, "giving": 1863, "gl": 1864, "gla": 1865, "gle": 1866, "gli": 1867, "glin": 1868, "gling": 1869, "glish": 1870, "glo": 1871, "gly": 1872, "gn": 1873, "gne": 1874, "go": 1875, "gol": 1876, "gon": 1877, "goo": 1878, "good": 1879, "gou": 1880, "gr": 1881, "gra": 1882, "grad": 1883, "gradu": 1884, "gradua": 1885, "graduat": 1886, "gram": 1887, "gramm": 1888, "gran": 1889, "grand": 1890, "grandp": 1891, "grandpa": 1892, "grap": 1893, "graph": 1894, "graphi": 1895, "graphic": 1896, "graphy": 1897, "gras": 1898, "grass": 1899, "grassi": 1900, "grassie": 1901, "gre": 1902, "gree": 1903, "gri": 1904, "grind": 1905, "gro": 1906, "groc": 1907, "groce": 1908, "grocer": 1909, "grou": 1910, "groun": 1911, "ground": 1912, "gs": 1913, "gu": 1914, "gue": 1915, "gues": 1916, "gui": 1917, "guid": 1918, "gul": 1919, "gula": 1920, "gular": 1921, "gulari": 1922, "gularit": 1923, "gy": 1924, "h": 1925, "ha": 1926, "hab": 1927, "habit": 1928, "had": 1929, "hadow": 1930, "hai": 1931, "hair": 1932, "hal": 1933, "ham": 1934, "han": 1935, "hand": 1936, "handb": 1937, "hang": 1938, "hangh": 1939, "hangha": 1940, "hanghai": 1941, "hap": 1942, "happ": 1943, "happi": 1944, "happie": 1945, "har": 1946, "hard": 1947, "harm": 1948, "hat": 1949, "hav": 1950, "hb": 1951, "hbo": 1952, "hbour": 1953, "he": 1954, "hea": 1955, "head": 1956, "heal": 1957, "healt": 1958, "health": 1959, "hear": 1960, "heart": 1961, "hearti": 1962, "heartie": 1963, "heat": 1964, "heav": 1965, "heavi": 1966, "heavie": 1967, "hee": 1968, "hel": 1969, "hem": 1970, "hen": 1971, "heo": 1972, "her": 1973, "here": 1974, "herm": 1975, "hero": 1976, "heroi": 1977, "hes": 1978, "hi": 1979, "hic": 1980, "hical": 1981, "hick": 1982, "hie": 1983, "hig": 1984, "high": 1985, "hil": 1986, "hild": 1987, "hile": 1988, "hili": 1989, "hin": 1990, "hine": 1991, "hing": 1992, "hip": 1993, "hir": 1994, "hirs": 1995, "hirst": 1996, "hirt": 1997, "his": 1998, "hist": 1999, "histo": 2000, "histor": 2001, "histori": 2002, "hit": 2003, "hiv": 2004, "hive": 2005, "hl": 2006, "hm": 2007, "hme": 2008, "hmen": 2009, "hment": 2010, "hn": 2011, "ho": 2012, "hob": 2013, "hod": 2014, "hoe": 2015, "hol": 2016, "hold": 2017, "holi": 2018, "holic": 2019, "holie": 2020, "holin": 2021, "holing": 2022, "hom": 2023, "home": 2024, "hon": 2025, "hone": 2026, "honi": 2027, "hono": 2028, "honou": 2029, "honour": 2030, "hoo": 2031, "hood": 2032, "hop": 2033, "hor": 2034, "hort": 2035, "hos": 2036, "hospi": 2037, "hospit": 2038, "hospita": 2039, "hospital": 2040, "host": 2041, "hot": 2042, "hoto": 2043, "hotoc": 2044, "hotoco": 2045, "hotocop": 2046, "hotog": 2047, "hotogr": 2048, "hotogra": 2049, "hotograp": 2050, "hotograph": 2051, "hou": 2052, "houg": 2053, "hough": 2054, "hought": 2055, "hous": 2056, "house": 2057, "housew": 2058, "how": 2059, "hr": 2060, "hre": 2061, "hri": 2062, "hrill": 2063, "hro": 2064, "hroug": 2065, "hrough": 2066, "ht": 2067, "hte": 2068, "hten": 2069, "hter": 2070, "hu": 2071, "hum": 2072, "hun": 2073, "hung": 2074, "hungr": 2075, "hur": 2076, "hurr": 2077, "hw": 2078, "hwa": 2079, "hward": 2080, "hy": 2081, "hyp": 2082, "hypo": 2083, "hys": 2084, "hysi": 2085, "hysic": 2086, "i": 2087, "ia": 2088, "ial": 2089, "iali": 2090, "ialis": 2091, "ian": 2092, "ians": 2093, "iar": 2094, "ias": 2095, "iat": 2096, "iatr": 2097, "iatri": 2098, "iatric": 2099, "ib": 2100, "ibi": 2101, "ibil": 2102, "ibili": 2103, "ibilit": 2104, "ibility": 2105, "ibl": 2106, "ible": 2107, "ibu": 2108, "ic": 2109, "ica": 2110, "ical": 2111, "icall": 2112, "ically": 2113, "ican": 2114, "icans": 2115, "icat": 2116, "icate": 2117, "icati": 2118, "icatin": 2119, "icating": 2120, "icatio": 2121, "ication": 2122, "ice": 2123, "ich": 2124, "ici": 2125, "icia": 2126, "ician": 2127, "icie": 2128, "icien": 2129, "icient": 2130, "icin": 2131, "icing": 2132, "ick": 2133, "icke": 2134, "icken": 2135, "icket": 2136, "ickl": 2137, "icl": 2138, "ico": 2139, "icr": 2140, "icro": 2141, "ics": 2142, "ict": 2143, "icti": 2144, "ictio": 2145, "iction": 2146, "ictur": 2147, "icu": 2148, "icul": 2149, "icult": 2150, "icy": 2151, "icycl": 2152, "id": 2153, "ida": 2154, "idd": 2155, "ide": 2156, "idea": 2157, "iden": 2158, "ident": 2159, "ideo": 2160, "idg": 2161, "idge": 2162, "idi": 2163, "iding": 2164, "ids": 2165, "ie": 2166, "iec": 2167, "ied": 2168, "ief": 2169, "ien": 2170, "ienc": 2171, "ience": 2172, "iend": 2173, "iendl": 2174, "iendli": 2175, "iendlie": 2176, "ient": 2177, "ienti": 2178, "ier": 2179, "ies": 2180, "iest": 2181, "iet": 2182, "iev": 2183, "iew": 2184, "iewe": 2185, "iewer": 2186, "if": 2187, "ife": 2188, "iff": 2189, "iffer": 2190, "iffic": 2191, "ifficu": 2192, "ifficul": 2193, "ifficult": 2194, "ifi": 2195, "ific": 2196, "ifica": 2197, "ificat": 2198, "ificati": 2199, "ificatio": 2200, "ification": 2201, "ifie": 2202, "ified": 2203, "ifies": 2204, "ift": 2205, "ify": 2206, "ig": 2207, "iga": 2208, "igh": 2209, "ighb": 2210, "ighbo": 2211, "ighbor": 2212, "ighbou": 2213, "ighbour": 2214, "ight": 2215, "ighte": 2216, "ighten": 2217, "ighter": 2218, "ign": 2219, "igu": 2220, "ik": 2221, "ike": 2222, "iki": 2223, "ikin": 2224, "iking": 2225, "il": 2226, "ila": 2227, "ilar": 2228, "ild": 2229, "ildi": 2230, "ildin": 2231, "ilding": 2232, "ile": 2233, "ili": 2234, "ilia": 2235, "ilies": 2236, "ilit": 2237, "iliti": 2238, "ilitie": 2239, "ilities": 2240, "ility": 2241, "iliz": 2242, "ill": 2243, "ille": 2244, "illi": 2245, "illin": 2246, "illing": 2247, "ills": 2248, "ilo": 2249, "ils": 2250, "ily": 2251, "im": 2252, "ima": 2253, "ime": 2254, "imen": 2255, "iment": 2256, "imenta": 2257, "imet": 2258, "imi": 2259, "imil": 2260, "imila": 2261, "imilar": 2262, "imp": 2263, "impl": 2264, "impli": 2265, "implif": 2266, "impo": 2267, "impor": 2268, "import": 2269, "importa": 2270, "importan": 2271, "impr": 2272, "impro": 2273, "improv": 2274, "in": 2275, "ina": 2276, "inar": 2277, "inari": 2278, "inat": 2279, "inati": 2280, "inatio": 2281, "ination": 2282, "inc": 2283, "ince": 2284, "incer": 2285, "incl": 2286, "inco": 2287, "incom": 2288, "incre": 2289, "increa": 2290, "increas": 2291, "ind": 2292, "inde": 2293, "indi": 2294, "indu": 2295, "indus": 2296, "indust": 2297, "industr": 2298, "industri": 2299, "ine": 2300, "iner": 2301, "ines": 2302, "iness": 2303, "inf": 2304, "info": 2305, "infor": 2306, "ing": 2307, "inge": 2308, "inger": 2309, "ingl": 2310, "ingly": 2311, "ings": 2312, "ini": 2313, "inin": 2314, "ining": 2315, "init": 2316, "ink": 2317, "inkl": 2318, "inl": 2319, "inn": 2320, "inne": 2321, "inner": 2322, "inq": 2323, "inqu": 2324, "inqui": 2325, "inquir": 2326, "ins": 2327, "inst": 2328, "insta": 2329, "instan": 2330, "insti": 2331, "instit": 2332, "institu": 2333, "institut": 2334, "instr": 2335, "instru": 2336, "insu": 2337, "int": 2338, "inte": 2339, "inter": 2340, "interv": 2341, "intervi": 2342, "intervie": 2343, "interview": 2344, "intr": 2345, "introd": 2346, "introdu": 2347, "introduc": 2348, "inv": 2349, "inve": 2350, "invent": 2351, "inves": 2352, "invest": 2353, "invi": 2354, "io": 2355, "ioacti": 2356, "ioactiv": 2357, "iol": 2358, "iolo": 2359, "iolog": 2360, "iology": 2361, "ion": 2362, "iona": 2363, "ional": 2364, "ionar": 2365, "ions": 2366, "ior": 2367, "iot": 2368, "iou": 2369, "ious": 2370, "ip": 2371, "ipe": 2372, "ipl": 2373, "iploma": 2374, "iq": 2375, "iqu": 2376, "ir": 2377, "ird": 2378, "ire": 2379, "irec": 2380, "irect": 2381, "irecto": 2382, "irector": 2383, "iri": 2384, "irin": 2385, "iring": 2386, "irl": 2387, "irm": 2388, "iro": 2389, "iron": 2390, "irr": 2391, "irs": 2392, "irst": 2393, "irt": 2394, "irti": 2395, "irtie": 2396, "is": 2397, "isa": 2398, "isab": 2399, "isap": 2400, "isapp": 2401, "isc": 2402, "isco": 2403, "iscove": 2404, "iscover": 2405, "ise": 2406, "isf": 2407, "ish": 2408, "ishe": 2409, "ishm": 2410, "ishme": 2411, "ishmen": 2412, "ishment": 2413, "isi": 2414, "isin": 2415, "ising": 2416, "isk": 2417, "isl": 2418, "ism": 2419, "iso": 2420, "isp": 2421, "iss": 2422, "issa": 2423, "issat": 2424, "issati": 2425, "issatis": 2426, "issatisf": 2427, "issatisfi": 2428, "issatisfie": 2429, "issi": 2430, "ission": 2431, "ist": 2432, "ista": 2433, "iste": 2434, "isten": 2435, "ister": 2436, "isti": 2437, "istic": 2438, "istica": 2439, "isto": 2440, "istor": 2441, "istori": 2442, "istr": 2443, "istra": 2444, "ists": 2445, "isu": 2446, "it": 2447, "ita": 2448, "ital": 2449, "itali": 2450, "itat": 2451, "ite": 2452, "iter": 2453, "ith": 2454, "iti": 2455, "itic": 2456, "itici": 2457, "itie": 2458, "ities": 2459, "itin": 2460, "iting": 2461, "itio": 2462, "ition": 2463, "ito": 2464, "itor": 2465, "its": 2466, "itt": 2467, "itte": 2468, "itu": 2469, "itua": 2470, "itut": 2471, "ity": 2472, "iu": 2473, "ium": 2474, "iv": 2475, "ive": 2476, "ivel": 2477, "ively": 2478, "iver": 2479, "ivers": 2480, "iversa": 2481, "ives": 2482, "ivi": 2483, "ivin": 2484, "iving": 2485, "ivit": 2486, "ivitie": 2487, "ivities": 2488, "ix": 2489, "ixt": 2490, "iz": 2491, "iza": 2492, "izat": 2493, "izati": 2494, "izatio": 2495, "ization": 2496, "ize": 2497, "izi": 2498, "izin": 2499, "izing": 2500, "j": 2501, "ja": 2502, "jap": 2503, "japa": 2504, "japan": 2505, "je": 2506, "jec": 2507, "ject": 2508, "jectiv": 2509, "jective": 2510, "jo": 2511, "joy": 2512, "ju": 2513, "k": 2514, "ka": 2515, "ke": 2516, "kee": 2517, "keep": 2518, "keeper": 2519, "kel": 2520, "ken": 2521, "ker": 2522, "ket": 2523, "key": 2524, "ki": 2525, "kie": 2526, "kies": 2527, "kil": 2528, "kill": 2529, "kilo": 2530, "kin": 2531, "kind": 2532, "king": 2533, "kit": 2534, "kl": 2535, "kle": 2536, "kli": 2537, "klin": 2538, "kling": 2539, "km": 2540, "kma": 2541, "kn": 2542, "kne": 2543, "kni": 2544, "kno": 2545, "know": 2546, "ks": 2547, "ksh": 2548, "ky": 2549, "l": 2550, "la": 2551, "lab": 2552, "lac": 2553, "lace": 2554, "lad": 2555, "lam": 2556, "lan": 2557, "land": 2558, "lane": 2559, "lant": 2560, "lar": 2561, "lari": 2562, "larit": 2563, "lariti": 2564, "laritie": 2565, "larities": 2566, "larity": 2567, "las": 2568, "lass": 2569, "last": 2570, "lat": 2571, "late": 2572, "lati": 2573, "latin": 2574, "lating": 2575, "latio": 2576, "lation": 2577, "lations": 2578, "lativ": 2579, "lative": 2580, "law": 2581, "lay": 2582, "lb": 2583, "lc": 2584, "lco": 2585, "ld": 2586, "lde": 2587, "lder": 2588, "ldi": 2589, "le": 2590, "lea": 2591, "lean": 2592, "lear": 2593, "leas": 2594, "leav": 2595, "lec": 2596, "lect": 2597, "lectr": 2598, "lectri": 2599, "lectric": 2600, "lectro": 2601, "led": 2602, "lee": 2603, "leep": 2604, "leg": 2605, "lem": 2606, "leme": 2607, "lemen": 2608, "lement": 2609, "len": 2610, "leng": 2611, "lent": 2612, "lep": 2613, "ler": 2614, "les": 2615, "less": 2616, "let": 2617, "leti": 2618, "lev": 2619, "leve": 2620, "lex": 2621, "ley": 2622, "lf": 2623, "li": 2624, "lia": 2625, "lian": 2626, "lic": 2627, "lice": 2628, "lie": 2629, "lied": 2630, "lier": 2631, "lies": 2632, "liest": 2633, "lif": 2634, "lifi": 2635, "lig": 2636, "ligh": 2637, "light": 2638, "lighte": 2639, "lik": 2640, "like": 2641, "lim": 2642, "lin": 2643, "line": 2644, "ling": 2645, "lini": 2646, "linin": 2647, "lining": 2648, "lis": 2649, "lish": 2650, "lism": 2651, "list": 2652, "lit": 2653, "lite": 2654, "liti": 2655, "litie": 2656, "lities": 2657, "lity": 2658, "liv": 2659, "live": 2660, "liver": 2661, "liz": 2662, "lize": 2663, "lizi": 2664, "lizin": 2665, "lizing": 2666, "lk": 2667, "ll": 2668, "lla": 2669, "lle": 2670, "ller": 2671, "lli": 2672, "llie": 2673, "llin": 2674, "lling": 2675, "llo": 2676, "llow": 2677, "lls": 2678, "lly": 2679, "lm": 2680, "lme": 2681, "lo": 2682, "loa": 2683, "loc": 2684, "lock": 2685, "log": 2686, "logi": 2687, "logic": 2688, "logica": 2689, "logical": 2690, "logies": 2691, "logis": 2692, "logist": 2693, "logu": 2694, "logy": 2695, "lom": 2696, "lon": 2697, "lone": 2698, "long": 2699, "loo": 2700, "lood": 2701, "loodie": 2702, "lor": 2703, "los": 2704, "lot": 2705, "loth": 2706, "lothe": 2707, "lou": 2708, "loud": 2709, "lous": 2710, "lov": 2711, "love": 2712, "lovel": 2713, "loveli": 2714, "lovelie": 2715, "low": 2716, "lowe": 2717, "lower": 2718, "loy": 2719, "lp": 2720, "ls": 2721, "lt": 2722, "lth": 2723, "lthi": 2724, "lthie": 2725, "lti": 2726, "ltie": 2727, "lty": 2728, "lu": 2729, "luc": 2730, "luck": 2731, "lucki": 2732, "luckie": 2733, "lue": 2734, "lun": 2735, "lus": 2736, "lusion": 2737, "lv": 2738, "lve": 2739, "lves": 2740, "ly": 2741, "lys": 2742, "lyt": 2743, "m": 2744, "ma": 2745, "mac": 2746, "mach": 2747, "machi": 2748, "machin": 2749, "machine": 2750, "mad": 2751, "mag": 2752, "mai": 2753, "mail": 2754, "main": 2755, "mal": 2756, "man": 2757, "mana": 2758, "manag": 2759, "manage": 2760, "mans": 2761, "mar": 2762, "mark": 2763, "market": 2764, "marr": 2765, "marri": 2766, "marrie": 2767, "marx": 2768, "marxi": 2769, "marxis": 2770, "mas": 2771, "mascul": 2772, "masculi": 2773, "masculin": 2774, "mast": 2775, "master": 2776, "mat": 2777, "mate": 2778, "mater": 2779, "materi": 2780, "materia": 2781, "material": 2782, "math": 2783, "mati": 2784, "matic": 2785, "matica": 2786, "matical": 2787, "mb": 2788, "mba": 2789, "mbe": 2790, "mber": 2791, "me": 2792, "mea": 2793, "mean": 2794, "meas": 2795, "measu": 2796, "measur": 2797, "measure": 2798, "med": 2799, "mel": 2800, "mell": 2801, "mellie": 2802, "mem": 2803, "member": 2804, "men": 2805, "ment": 2806, "menta": 2807, "mental": 2808, "ments": 2809, "mer": 2810, "merc": 2811, "meri": 2812, "meric": 2813, "merica": 2814, "mes": 2815, "mess": 2816, "met": 2817, "meta": 2818, "metr": 2819, "metre": 2820, "metric": 2821, "mi": 2822, "mic": 2823, "micr": 2824, "micro": 2825, "mid": 2826, "mie": 2827, "mies": 2828, "mil": 2829, "mila": 2830, "milar": 2831, "mile": 2832, "mili": 2833, "mill": 2834, "min": 2835, "mina": 2836, "mine": 2837, "ming": 2838, "mini": 2839, "mis": 2840, "misc": 2841, "miss": 2842, "mist": 2843, "mistak": 2844, "misu": 2845, "mm": 2846, "mma": 2847, "mme": 2848, "mmi": 2849, "mmo": 2850, "mn": 2851, "mo": 2852, "mob": 2853, "mod": 2854, "mode": 2855, "mok": 2856, "mon": 2857, "mor": 2858, "more": 2859, "morp": 2860, "morph": 2861, "mos": 2862, "mot": 2863, "mother": 2864, "moto": 2865, "motor": 2866, "mou": 2867, "mour": 2868, "mous": 2869, "mov": 2870, "mp": 2871, "mpa": 2872, "mpe": 2873, "mper": 2874, "mpl": 2875, "mple": 2876, "mpli": 2877, "mplif": 2878, "mplifi": 2879, "mplifie": 2880, "mplo": 2881, "mploy": 2882, "mpo": 2883, "mpor": 2884, "mport": 2885, "mporta": 2886, "mportan": 2887, "mpr": 2888, "mpro": 2889, "mpt": 2890, "mputer": 2891, "ms": 2892, "mu": 2893, "mul": 2894, "mus": 2895, "my": 2896, "n": 2897, "na": 2898, "nab": 2899, "nabl": 2900, "nable": 2901, "nad": 2902, "nag": 2903, "nage": 2904, "nal": 2905, "nali": 2906, "naly": 2907, "nam": 2908, "nan": 2909, "nanc": 2910, "nar": 2911, "nari": 2912, "narie": 2913, "naries": 2914, "nary": 2915, "nas": 2916, "nast": 2917, "nasti": 2918, "nastie": 2919, "nasties": 2920, "nat": 2921, "nate": 2922, "nati": 2923, "natio": 2924, "nation": 2925, "nationa": 2926, "national": 2927, "nav": 2928, "nc": 2929, "nce": 2930, "ncentr": 2931, "ncentra": 2932, "ncentrat": 2933, "ncer": 2934, "nces": 2935, "nch": 2936, "nci": 2937, "ncie": 2938, "ncies": 2939, "ncin": 2940, "ncing": 2941, "ncl": 2942, "nco": 2943, "ncom": 2944, "ncreas": 2945, "nct": 2946, "nctuat": 2947, "ncy": 2948, "nd": 2949, "nda": 2950, "nday": 2951, "ndb": 2952, "nde": 2953, "nder": 2954, "nders": 2955, "nderst": 2956, "ndersta": 2957, "nderstan": 2958, "nderstand": 2959, "ndi": 2960, "ndic": 2961, "ndica": 2962, "ndicat": 2963, "ndin": 2964, "nding": 2965, "nditio": 2966, "ndition": 2967, "ndl": 2968, "ndli": 2969, "ndo": 2970, "nds": 2971, "ndu": 2972, "ndus": 2973, "ndust": 2974, "ndustr": 2975, "ndustri": 2976, "ne": 2977, "nea": 2978, "nec": 2979, "nece": 2980, "neces": 2981, "necess": 2982, "necessa": 2983, "necessar": 2984, "nee": 2985, "nei": 2986, "neig": 2987, "neigh": 2988, "neighb": 2989, "neighbo": 2990, "neighbor": 2991, "neighbou": 2992, "neighbour": 2993, "nel": 2994, "nem": 2995, "ner": 2996, "nes": 2997, "nese": 2998, "ness": 2999, "net": 3000, "nev": 3001, "neve": 3002, "new": 3003, "nex": 3004, "ney": 3005, "nf": 3006, "nfo": 3007, "nfor": 3008, "nforc": 3009, "nforce": 3010, "ng": 3011, "nge": 3012, "nger": 3013, "ngh": 3014, "ngha": 3015, "nghai": 3016, "ngi": 3017, "ngin": 3018, "ngine": 3019, "nginee": 3020, "ngineer": 3021, "ngl": 3022, "ngli": 3023, "nglish": 3024, "ngly": 3025, "ngr": 3026, "ngs": 3027, "ngu": 3028, "nh": 3029, "ni": 3030, "nia": 3031, "nic": 3032, "nie": 3033, "nies": 3034, "nig": 3035, "nigh": 3036, "night": 3037, "nin": 3038, "nine": 3039, "ning": 3040, "nio": 3041, "nis": 3042, "nish": 3043, "nist": 3044, "nit": 3045, "nite": 3046, "niti": 3047, "nities": 3048, "nity": 3049, "niv": 3050, "nive": 3051, "niver": 3052, "nivers": 3053, "niversa": 3054, "niz": 3055, "nk": 3056, "nke": 3057, "nki": 3058, "nkin": 3059, "nkl": 3060, "nl": 3061, "nli": 3062, "nly": 3063, "nm": 3064, "nme": 3065, "nmen": 3066, "nment": 3067, "nn": 3068, "nne": 3069, "nner": 3070, "nni": 3071, "nnie": 3072, "nnies": 3073, "nnin": 3074, "nning": 3075, "nny": 3076, "no": 3077, "nob": 3078, "nom": 3079, "nomi": 3080, "noo": 3081, "nor": 3082, "nort": 3083, "north": 3084, "northw": 3085, "not": 3086, "note": 3087, "noti": 3088, "notif": 3089, "notifi": 3090, "nou": 3091, "noun": 3092, "nov": 3093, "now": 3094, "np": 3095, "nq": 3096, "nqu": 3097, "nqui": 3098, "nquir": 3099, "nquiri": 3100, "nr": 3101, "ns": 3102, "nse": 3103, "nsi": 3104, "nst": 3105, "nsta": 3106, "nsti": 3107, "nstit": 3108, "nstitu": 3109, "nstitut": 3110, "nstr": 3111, "nstru": 3112, "nsu": 3113, "nt": 3114, "nta": 3115, "ntag": 3116, "ntal": 3117, "ntatio": 3118, "ntation": 3119, "nte": 3120, "ntee": 3121, "nten": 3122, "nter": 3123, "nterv": 3124, "ntervi": 3125, "ntervie": 3126, "nterview": 3127, "nth": 3128, "nti": 3129, "ntie": 3130, "ntif": 3131, "ntin": 3132, "nting": 3133, "ntl": 3134, "ntly": 3135, "nto": 3136, "ntr": 3137, "ntra": 3138, "ntri": 3139, "ntrodu": 3140, "ntroduc": 3141, "nts": 3142, "nty": 3143, "nu": 3144, "nui": 3145, "nur": 3146, "nurs": 3147, "nus": 3148, "nut": 3149, "nv": 3150, "nve": 3151, "nves": 3152, "nvest": 3153, "nvi": 3154, "nw": 3155, "nwa": 3156, "nwar": 3157, "nward": 3158, "ny": 3159, "o": 3160, "o-": 3161, "oa": 3162, "oac": 3163, "oactiv": 3164, "oad": 3165, "oat": 3166, "ob": 3167, "oba": 3168, "obab": 3169, "obb": 3170, "obe": 3171, "obi": 3172, "obil": 3173, "obili": 3174, "object": 3175, "obl": 3176, "obo": 3177, "oc": 3178, "oca": 3179, "occ": 3180, "occu": 3181, "occupa": 3182, "oce": 3183, "ocer": 3184, "oci": 3185, "ocia": 3186, "ocial": 3187, "ock": 3188, "ocke": 3189, "oco": 3190, "ocr": 3191, "ocra": 3192, "ocrat": 3193, "oct": 3194, "octo": 3195, "od": 3196, "oda": 3197, "ode": 3198, "odi": 3199, "odie": 3200, "odies": 3201, "odo": 3202, "odu": 3203, "oduc": 3204, "oduct": 3205, "ody": 3206, "oe": 3207, "of": 3208, "off": 3209, "ofi": 3210, "oft": 3211, "og": 3212, "ogi": 3213, "ogic": 3214, "ogica": 3215, "ogical": 3216, "ogis": 3217, "ogr": 3218, "ogra": 3219, "ogram": 3220, "ograp": 3221, "ograph": 3222, "ographi": 3223, "ogu": 3224, "ogue": 3225, "ogy": 3226, "oh": 3227, "oi": 3228, "oic": 3229, "oil": 3230, "oin": 3231, "oint": 3232, "ois": 3233, "ok": 3234, "oke": 3235, "oken": 3236, "oker": 3237, "oki": 3238, "okin": 3239, "oking": 3240, "oks": 3241, "ol": 3242, "ola": 3243, "old": 3244, "ole": 3245, "oli": 3246, "olic": 3247, "olin": 3248, "oling": 3249, "olit": 3250, "olitic": 3251, "oll": 3252, "olle": 3253, "ollo": 3254, "olo": 3255, "olog": 3256, "ologi": 3257, "ologic": 3258, "ologica": 3259, "ological": 3260, "ologie": 3261, "ologies": 3262, "ologis": 3263, "ology": 3264, "olu": 3265, "olv": 3266, "oly": 3267, "om": 3268, "oma": 3269, "oman": 3270, "omat": 3271, "ome": 3272, "omen": 3273, "omet": 3274, "omfort": 3275, "omi": 3276, "omin": 3277, "oming": 3278, "omm": 3279, "ommo": 3280, "omo": 3281, "omp": 3282, "ompa": 3283, "omplet": 3284, "ompute": 3285, "omputer": 3286, "omy": 3287, "on": 3288, "ona": 3289, "onal": 3290, "onar": 3291, "onatio": 3292, "onation": 3293, "onc": 3294, "once": 3295, "oncent": 3296, "oncentr": 3297, "oncentra": 3298, "oncentrat": 3299, "ond": 3300, "onde": 3301, "onditi": 3302, "onditio": 3303, "ondition": 3304, "one": 3305, "ones": 3306, "ong": 3307, "oni": 3308, "onic": 3309, "onin": 3310, "oning": 3311, "onl": 3312, "ono": 3313, "onou": 3314, "ons": 3315, "ont": 3316, "onta": 3317, "onti": 3318, "ontin": 3319, "ontr": 3320, "ony": 3321, "oo": 3322, "ood": 3323, "ook": 3324, "ooks": 3325, "ool": 3326, "oom": 3327, "oon": 3328, "oor": 3329, "oot": 3330, "ooth": 3331, "op": 3332, "ope": 3333, "open": 3334, "oper": 3335, "opera": 3336, "operat": 3337, "operati": 3338, "operatio": 3339, "operation": 3340, "oph": 3341, "ophi": 3342, "opho": 3343, "ophone": 3344, "opi": 3345, "opic": 3346, "ops": 3347, "opt": 3348, "opti": 3349, "opy": 3350, "or": 3351, "ora": 3352, "orat": 3353, "oratio": 3354, "oration": 3355, "orc": 3356, "orce": 3357, "ord": 3358, "orde": 3359, "order": 3360, "ordi": 3361, "ordin": 3362, "ordina": 3363, "ordinar": 3364, "ordinari": 3365, "ore": 3366, "ores": 3367, "org": 3368, "orga": 3369, "organ": 3370, "organi": 3371, "organis": 3372, "organiz": 3373, "ori": 3374, "oria": 3375, "orie": 3376, "ories": 3377, "ork": 3378, "orking": 3379, "orm": 3380, "orn": 3381, "orp": 3382, "orph": 3383, "orr": 3384, "orre": 3385, "orrect": 3386, "orri": 3387, "orrie": 3388, "orro": 3389, "orrow": 3390, "ors": 3391, "ort": 3392, "orta": 3393, "orth": 3394, "orthw": 3395, "orts": 3396, "ortu": 3397, "ortun": 3398, "ory": 3399, "os": 3400, "ose": 3401, "osi": 3402, "osie": 3403, "osin": 3404, "osing": 3405, "osit": 3406, "osp": 3407, "ospita": 3408, "ospital": 3409, "oss": 3410, "ossi": 3411, "ossib": 3412, "ossibl": 3413, "ost": 3414, "ot": 3415, "ota": 3416, "otar": 3417, "ote": 3418, "oth": 3419, "othe": 3420, "other": 3421, "othes": 3422, "oti": 3423, "otic": 3424, "otif": 3425, "oto": 3426, "otocop": 3427, "otog": 3428, "otogr": 3429, "otogra": 3430, "otograp": 3431, "otograph": 3432, "otor": 3433, "ots": 3434, "ott": 3435, "ou": 3436, "ouc": 3437, "ouch": 3438, "oud": 3439, "oug": 3440, "ough": 3441, "ought": 3442, "oul": 3443, "ould": 3444, "oun": 3445, "ounc": 3446, "ound": 3447, "oundin": 3448, "ounding": 3449, "ount": 3450, "our": 3451, "oura": 3452, "ourage": 3453, "ourc": 3454, "ource": 3455, "ouri": 3456, "ouris": 3457, "ours": 3458, "ourse": 3459, "oursel": 3460, "ourt": 3461, "ous": 3462, "ouse": 3463, "ousi": 3464, "ousin": 3465, "ousing": 3466, "out": 3467, "outh": 3468, "ov": 3469, "ove": 3470, "ovel": 3471, "oveli": 3472, "ovelie": 3473, "over": 3474, "overh": 3475, "ovi": 3476, "ovie": 3477, "ovin": 3478, "oving": 3479, "ow": 3480, "owe": 3481, "ower": 3482, "owi": 3483, "owl": 3484, "own": 3485, "ows": 3486, "ox": 3487, "oxi": 3488, "oy": 3489, "oya": 3490, "p": 3491, "pa": 3492, "pac": 3493, "pace": 3494, "paci": 3495, "pag": 3496, "pai": 3497, "pain": 3498, "pair": 3499, "pal": 3500, "pan": 3501, "pant": 3502, "pap": 3503, "pape": 3504, "paper": 3505, "par": 3506, "para": 3507, "pare": 3508, "paren": 3509, "parent": 3510, "park": 3511, "part": 3512, "parti": 3513, "partic": 3514, "partme": 3515, "partmen": 3516, "partment": 3517, "pas": 3518, "pass": 3519, "past": 3520, "pat": 3521, "path": 3522, "pati": 3523, "pay": 3524, "pe": 3525, "pea": 3526, "peac": 3527, "peak": 3528, "pear": 3529, "pec": 3530, "peci": 3531, "pecia": 3532, "pecial": 3533, "peciali": 3534, "pect": 3535, "pecta": 3536, "ped": 3537, "pel": 3538, "pen": 3539, "pend": 3540, "pens": 3541, "per": 3542, "pera": 3543, "perat": 3544, "perati": 3545, "peratio": 3546, "peration": 3547, "peri": 3548, "perim": 3549, "perime": 3550, "perimen": 3551, "periment": 3552, "perimenta": 3553, "perm": 3554, "pers": 3555, "perso": 3556, "person": 3557, "pet": 3558, "ph": 3559, "pha": 3560, "phan": 3561, "phe": 3562, "pher": 3563, "phi": 3564, "phic": 3565, "phil": 3566, "phili": 3567, "pho": 3568, "phon": 3569, "phone": 3570, "phot": 3571, "photo": 3572, "photoc": 3573, "photoco": 3574, "photocop": 3575, "photog": 3576, "photogr": 3577, "photogra": 3578, "photograp": 3579, "photograph": 3580, "phy": 3581, "phys": 3582, "physi": 3583, "physic": 3584, "pi": 3585, "pic": 3586, "pick": 3587, "pictur": 3588, "pid": 3589, "pie": 3590, "pies": 3591, "pin": 3592, "ping": 3593, "pip": 3594, "pir": 3595, "pis": 3596, "pit": 3597, "pita": 3598, "pital": 3599, "pitali": 3600, "pl": 3601, "pla": 3602, "plac": 3603, "place": 3604, "plan": 3605, "plant": 3606, "plas": 3607, "play": 3608, "ple": 3609, "plea": 3610, "pleas": 3611, "please": 3612, "plet": 3613, "pli": 3614, "plie": 3615, "plif": 3616, "plifie": 3617, "plin": 3618, "plo": 3619, "ploy": 3620, "plu": 3621, "ply": 3622, "po": 3623, "poi": 3624, "poin": 3625, "point": 3626, "pok": 3627, "poke": 3628, "pol": 3629, "poli": 3630, "polic": 3631, "police": 3632, "polit": 3633, "politi": 3634, "politic": 3635, "pon": 3636, "poo": 3637, "por": 3638, "port": 3639, "porta": 3640, "portan": 3641, "ports": 3642, "pos": 3643, "posi": 3644, "posit": 3645, "positi": 3646, "poss": 3647, "possi": 3648, "possib": 3649, "possibl": 3650, "post": 3651, "pot": 3652, "pou": 3653, "poun": 3654, "pp": 3655, "ppe": 3656, "pper": 3657, "ppi": 3658, "ppie": 3659, "ppl": 3660, "ppo": 3661, "ppr": 3662, "ppro": 3663, "pr": 3664, "pra": 3665, "prac": 3666, "pract": 3667, "practi": 3668, "pre": 3669, "prepar": 3670, "pres": 3671, "press": 3672, "pressi": 3673, "pret": 3674, "pri": 3675, "prin": 3676, "print": 3677, "pris": 3678, "pro": 3679, "prob": 3680, "proba": 3681, "probab": 3682, "proces": 3683, "process": 3684, "prod": 3685, "produ": 3686, "produc": 3687, "product": 3688, "prof": 3689, "profes": 3690, "profess": 3691, "profit": 3692, "prog": 3693, "progr": 3694, "progra": 3695, "program": 3696, "pron": 3697, "pronou": 3698, "pronoun": 3699, "prop": 3700, "prot": 3701, "prov": 3702, "prove": 3703, "provi": 3704, "provin": 3705, "proving": 3706, "ps": 3707, "pst": 3708, "pstick": 3709, "psy": 3710, "psyc": 3711, "psych": 3712, "psycho": 3713, "psychol": 3714, "pt": 3715, "pte": 3716, "pter": 3717, "pti": 3718, "ptio": 3719, "ption": 3720, "pu": 3721, "pub": 3722, "publ": 3723, "publi": 3724, "public": 3725, "pun": 3726, "punctu": 3727, "punctua": 3728, "punctuat": 3729, "pur": 3730, "put": 3731, "pute": 3732, "py": 3733, "q": 3734, "qu": 3735, "qua": 3736, "quanti": 3737, "quantif": 3738, "que": 3739, "qui": 3740, "quir": 3741, "quiri": 3742, "quirin": 3743, "quiring": 3744, "r": 3745, "r-": 3746, "ra": 3747, "rab": 3748, "rabl": 3749, "rable": 3750, "rac": 3751, "ract": 3752, "racti": 3753, "rad": 3754, "rade": 3755, "radi": 3756, "radio": 3757, "radioa": 3758, "radioac": 3759, "radioact": 3760, "radioacti": 3761, "radioactiv": 3762, "radu": 3763, "radua": 3764, "raduat": 3765, "rag": 3766, "rage": 3767, "rai": 3768, "rain": 3769, "ral": 3770, "rali": 3771, "ram": 3772, "ramm": 3773, "ran": 3774, "ranc": 3775, "rance": 3776, "rand": 3777, "randpa": 3778, "rang": 3779, "rans": 3780, "ransla": 3781, "ranslat": 3782, "rant": 3783, "rap": 3784, "raph": 3785, "rapher": 3786, "raphi": 3787, "raphic": 3788, "rapi": 3789, "rar": 3790, "ras": 3791, "rass": 3792, "rassie": 3793, "rat": 3794, "rate": 3795, "rati": 3796, "ratic": 3797, "ratio": 3798, "ration": 3799, "rative": 3800, "rav": 3801, "rave": 3802, "ravel": 3803, "raw": 3804, "ray": 3805, "rb": 3806, "rbi": 3807, "rc": 3808, "rce": 3809, "rch": 3810, "rci": 3811, "rd": 3812, "rda": 3813, "rde": 3814, "rder": 3815, "rdi": 3816, "rdin": 3817, "rdina": 3818, "rdinar": 3819, "rdinari": 3820, "rds": 3821, "re": 3822, "rea": 3823, "read": 3824, "reak": 3825, "real": 3826, "reali": 3827, "realis": 3828, "ream": 3829, "reas": 3830, "reaso": 3831, "reason": 3832, "reat": 3833, "rec": 3834, "reco": 3835, "record": 3836, "rect": 3837, "rector": 3838, "recycl": 3839, "red": 3840, "ree": 3841, "reed": 3842, "ref": 3843, "refe": 3844, "refer": 3845, "refere": 3846, "referen": 3847, "reg": 3848, "regard": 3849, "regu": 3850, "regul": 3851, "regula": 3852, "regular": 3853, "regulari": 3854, "regularit": 3855, "rei": 3856, "rel": 3857, "rela": 3858, "relat": 3859, "relati": 3860, "relatio": 3861, "relation": 3862, "relativ": 3863, "rely": 3864, "rem": 3865, "reme": 3866, "remen": 3867, "rement": 3868, "ren": 3869, "renc": 3870, "rence": 3871, "rent": 3872, "reo": 3873, "rep": 3874, "repa": 3875, "repl": 3876, "report": 3877, "res": 3878, "rese": 3879, "resh": 3880, "resi": 3881, "reside": 3882, "residen": 3883, "resident": 3884, "resp": 3885, "respec": 3886, "respect": 3887, "ress": 3888, "ressi": 3889, "rest": 3890, "result": 3891, "ret": 3892, "reta": 3893, "rett": 3894, "rev": 3895, "reve": 3896, "rew": 3897, "rewr": 3898, "rewrit": 3899, "rf": 3900, "rfu": 3901, "rful": 3902, "rg": 3903, "rga": 3904, "rgan": 3905, "rgani": 3906, "rganis": 3907, "rganiz": 3908, "rge": 3909, "rgi": 3910, "rh": 3911, "rho": 3912, "ri": 3913, "ria": 3914, "rial": 3915, "rian": 3916, "rib": 3917, "ric": 3918, "rica": 3919, "rical": 3920, "rican": 3921, "rici": 3922, "rid": 3923, "ride": 3924, "ridg": 3925, "ridge": 3926, "rie": 3927, "ried": 3928, "rien": 3929, "riend": 3930, "riendl": 3931, "riendli": 3932, "riendlie": 3933, "rier": 3934, "ries": 3935, "riest": 3936, "rig": 3937, "righ": 3938, "right": 3939, "ril": 3940, "rill": 3941, "rily": 3942, "rim": 3943, "rime": 3944, "rimen": 3945, "riment": 3946, "rimenta": 3947, "rin": 3948, "ring": 3949, "rink": 3950, "rint": 3951, "rip": 3952, "ris": 3953, "rise": 3954, "risi": 3955, "risin": 3956, "rising": 3957, "rist": 3958, "rit": 3959, "rite": 3960, "riti": 3961, "ritici": 3962, "ritie": 3963, "rities": 3964, "riting": 3965, "rity": 3966, "riv": 3967, "rive": 3968, "riz": 3969, "rk": 3970, "rke": 3971, "rki": 3972, "rkin": 3973, "rking": 3974, "rks": 3975, "rl": 3976, "rli": 3977, "rlie": 3978, "rlin": 3979, "rly": 3980, "rm": 3981, "rma": 3982, "rman": 3983, "rme": 3984, "rmen": 3985, "rmi": 3986, "rmin": 3987, "rming": 3988, "rms": 3989, "rmy": 3990, "rn": 3991, "rna": 3992, "rne": 3993, "rni": 3994, "rnin": 3995, "rning": 3996, "ro": 3997, "roa": 3998, "road": 3999, "rob": 4000, "roba": 4001, "robab": 4002, "robber": 4003, "roc": 4004, "roce": 4005, "rocer": 4006, "rocess": 4007, "rock": 4008, "rod": 4009, "rodu": 4010, "roduc": 4011, "roduct": 4012, "rof": 4013, "rofess": 4014, "rofi": 4015, "rog": 4016, "rogr": 4017, "rogra": 4018, "rogram": 4019, "rol": 4020, "rom": 4021, "ron": 4022, "rong": 4023, "roni": 4024, "ronic": 4025, "ronoun": 4026, "roo": 4027, "room": 4028, "rop": 4029, "rope": 4030, "roph": 4031, "ropi": 4032, "ror": 4033, "ros": 4034, "rot": 4035, "rote": 4036, "rother": 4037, "rou": 4038, "roug": 4039, "rough": 4040, "roun": 4041, "round": 4042, "rous": 4043, "rov": 4044, "rove": 4045, "rovi": 4046, "roving": 4047, "row": 4048, "rows": 4049, "rp": 4050, "rph": 4051, "rpo": 4052, "rpr": 4053, "rr": 4054, "rra": 4055, "rre": 4056, "rri": 4057, "rrie": 4058, "rried": 4059, "rries": 4060, "rro": 4061, "rround": 4062, "rrow": 4063, "rry": 4064, "rs": 4065, "rse": 4066, "rsel": 4067, "rsi": 4068, "rsin": 4069, "rsing": 4070, "rso": 4071, "rson": 4072, "rst": 4073, "rstand": 4074, "rt": 4075, "rta": 4076, "rtai": 4077, "rtain": 4078, "rte": 4079, "rter": 4080, "rth": 4081, "rthe": 4082, "rther": 4083, "rthw": 4084, "rti": 4085, "rtic": 4086, "rtie": 4087, "rties": 4088, "rtif": 4089, "rtifi": 4090, "rtific": 4091, "rtifica": 4092, "rtificat": 4093, "rtis": 4094, "rtment": 4095, "rto": 4096, "rts": 4097, "rtu": 4098, "rtun": 4099, "rty": 4100, "ru": 4101, "ruc": 4102, "ruct": 4103, "ructu": 4104, "ructur": 4105, "ructure": 4106, "rue": 4107, "rug": 4108, "rui": 4109, "rul": 4110, "rum": 4111, "run": 4112, "rus": 4113, "russia": 4114, "rv": 4115, "rve": 4116, "rvi": 4117, "rvie": 4118, "rview": 4119, "rw": 4120, "rwa": 4121, "rx": 4122, "rxi": 4123, "rxis": 4124, "ry": 4125, "s": 4126, "sa": 4127, "sab": 4128, "sad": 4129, "saf": 4130, "sag": 4131, "sai": 4132, "sain": 4133, "saint": 4134, "sal": 4135, "sale": 4136, "sales": 4137, "san": 4138, "sant": 4139, "sap": 4140, "sapp": 4141, "sar": 4142, "sary": 4143, "sat": 4144, "sati": 4145, "satis": 4146, "satisf": 4147, "satisfi": 4148, "satisfie": 4149, "satu": 4150, "satur": 4151, "sau": 4152, "sc": 4153, "sch": 4154, "sci": 4155, "scie": 4156, "scien": 4157, "scient": 4158, "scienti": 4159, "sco": 4160, "scot": 4161, "scover": 4162, "scr": 4163, "scri": 4164, "script": 4165, "scu": 4166, "sculin": 4167, "sd": 4168, "sda": 4169, "sday": 4170, "se": 4171, "sea": 4172, "seas": 4173, "sec": 4174, "seco": 4175, "secon": 4176, "second": 4177, "sed": 4178, "see": 4179, "sel": 4180, "self": 4181, "selv": 4182, "selve": 4183, "selves": 4184, "sem": 4185, "sement": 4186, "semi": 4187, "sen": 4188, "senger": 4189, "sens": 4190, "sent": 4191, "ser": 4192, "serv": 4193, "servi": 4194, "servic": 4195, "ses": 4196, "set": 4197, "sev": 4198, "seve": 4199, "seven": 4200, "sevent": 4201, "sew": 4202, "sf": 4203, "sg": 4204, "sh": 4205, "sha": 4206, "shad": 4207, "shadow": 4208, "sham": 4209, "shan": 4210, "shang": 4211, "shangh": 4212, "shangha": 4213, "shanghai": 4214, "shar": 4215, "she": 4216, "shi": 4217, "ship": 4218, "shir": 4219, "shirt": 4220, "shm": 4221, "shme": 4222, "shmen": 4223, "shment": 4224, "sho": 4225, "shop": 4226, "shor": 4227, "short": 4228, "si": 4229, "sia": 4230, "sian": 4231, "sib": 4232, "sibl": 4233, "sible": 4234, "sic": 4235, "sica": 4236, "sical": 4237, "sid": 4238, "side": 4239, "sident": 4240, "sie": 4241, "sier": 4242, "sies": 4243, "siest": 4244, "sig": 4245, "sign": 4246, "sil": 4247, "sim": 4248, "simi": 4249, "simil": 4250, "simila": 4251, "similar": 4252, "simp": 4253, "simpl": 4254, "simpli": 4255, "simplif": 4256, "sin": 4257, "sinc": 4258, "since": 4259, "sincer": 4260, "sine": 4261, "sines": 4262, "siness": 4263, "sing": 4264, "singl": 4265, "sio": 4266, "sion": 4267, "sis": 4268, "sist": 4269, "sit": 4270, "site": 4271, "siti": 4272, "situat": 4273, "siv": 4274, "sive": 4275, "six": 4276, "sixt": 4277, "sk": 4278, "ska": 4279, "ski": 4280, "skil": 4281, "skill": 4282, "sl": 4283, "sla": 4284, "sle": 4285, "slee": 4286, "sleep": 4287, "sleepi": 4288, "sm": 4289, "sma": 4290, "sman": 4291, "sme": 4292, "smel": 4293, "smell": 4294, "smelli": 4295, "smellie": 4296, "smen": 4297, "smo": 4298, "smok": 4299, "sn": 4300, "sne": 4301, "sno": 4302, "snow": 4303, "so": 4304, "soc": 4305, "soci": 4306, "socia": 4307, "social": 4308, "sof": 4309, "soft": 4310, "sol": 4311, "som": 4312, "some": 4313, "son": 4314, "sona": 4315, "sop": 4316, "soph": 4317, "sor": 4318, "sorr": 4319, "sou": 4320, "sour": 4321, "sourc": 4322, "source": 4323, "sout": 4324, "south": 4325, "sp": 4326, "spa": 4327, "spac": 4328, "space": 4329, "spe": 4330, "spea": 4331, "speak": 4332, "spec": 4333, "speci": 4334, "specia": 4335, "special": 4336, "speciali": 4337, "spect": 4338, "spen": 4339, "spi": 4340, "spic": 4341, "spit": 4342, "spital": 4343, "spo": 4344, "spok": 4345, "spoke": 4346, "spor": 4347, "sport": 4348, "sports": 4349, "ss": 4350, "ssa": 4351, "ssar": 4352, "ssat": 4353, "ssati": 4354, "ssatis": 4355, "ssatisf": 4356, "ssatisfi": 4357, "ssatisfie": 4358, "sse": 4359, "ssen": 4360, "ssenge": 4361, "ssenger": 4362, "ssi": 4363, "ssib": 4364, "ssie": 4365, "ssin": 4366, "ssio": 4367, "ssion": 4368, "ssm": 4369, "sso": 4370, "ssu": 4371, "st": 4372, "sta": 4373, "stab": 4374, "stai": 4375, "stair": 4376, "stairs": 4377, "stan": 4378, "stand": 4379, "star": 4380, "stat": 4381, "state": 4382, "states": 4383, "stati": 4384, "ste": 4385, "stem": 4386, "sten": 4387, "ster": 4388, "sti": 4389, "stic": 4390, "stie": 4391, "sties": 4392, "stin": 4393, "sting": 4394, "stio": 4395, "stion": 4396, "stit": 4397, "stitu": 4398, "stitut": 4399, "stl": 4400, "stli": 4401, "stm": 4402, "sto": 4403, "stom": 4404, "ston": 4405, "stor": 4406, "store": 4407, "stori": 4408, "storie": 4409, "storm": 4410, "str": 4411, "stra": 4412, "strali": 4413, "stralia": 4414, "strang": 4415, "stre": 4416, "stress": 4417, "stri": 4418, "stro": 4419, "stron": 4420, "strong": 4421, "stru": 4422, "struc": 4423, "struct": 4424, "structu": 4425, "structur": 4426, "structure": 4427, "sts": 4428, "stu": 4429, "stud": 4430, "stw": 4431, "stwa": 4432, "stwar": 4433, "stward": 4434, "sty": 4435, "styl": 4436, "su": 4437, "sua": 4438, "sual": 4439, "sub": 4440, "subtit": 4441, "subtitl": 4442, "suc": 4443, "succ": 4444, "succe": 4445, "succes": 4446, "success": 4447, "suf": 4448, "suff": 4449, "sul": 4450, "sult": 4451, "sultan": 4452, "sun": 4453, "sund": 4454, "sunn": 4455, "sunnie": 4456, "sup": 4457, "supe": 4458, "super": 4459, "superm": 4460, "supers": 4461, "supp": 4462, "sur": 4463, "sura": 4464, "suranc": 4465, "surance": 4466, "sure": 4467, "surpri": 4468, "surpris": 4469, "surrou": 4470, "surroun": 4471, "surround": 4472, "sus": 4473, "sw": 4474, "swe": 4475, "swi": 4476, "swo": 4477, "swom": 4478, "sy": 4479, "syc": 4480, "sych": 4481, "sychol": 4482, "sys": 4483, "syst": 4484, "syste": 4485, "system": 4486, "t": 4487, "t-": 4488, "ta": 4489, "tab": 4490, "tabl": 4491, "table": 4492, "tac": 4493, "tag": 4494, "tage": 4495, "tai": 4496, "tail": 4497, "tain": 4498, "tair": 4499, "tak": 4500, "take": 4501, "taking": 4502, "tal": 4503, "tali": 4504, "talit": 4505, "tall": 4506, "tally": 4507, "tam": 4508, "tami": 4509, "tamin": 4510, "tan": 4511, "tanc": 4512, "tance": 4513, "tand": 4514, "tant": 4515, "tar": 4516, "tari": 4517, "taries": 4518, "tary": 4519, "tat": 4520, "tate": 4521, "tati": 4522, "tatio": 4523, "tation": 4524, "tax": 4525, "tb": 4526, "tc": 4527, "tch": 4528, "td": 4529, "te": 4530, "tea": 4531, "teac": 4532, "teach": 4533, "team": 4534, "tec": 4535, "tech": 4536, "techn": 4537, "techni": 4538, "ted": 4539, "tee": 4540, "teen": 4541, "teer": 4542, "tel": 4543, "tele": 4544, "tely": 4545, "tem": 4546, "temp": 4547, "ten": 4548, "tena": 4549, "tens": 4550, "tensi": 4551, "tent": 4552, "ter": 4553, "teri": 4554, "teria": 4555, "terial": 4556, "tern": 4557, "ternit": 4558, "terr": 4559, "tert": 4560, "terv": 4561, "tervi": 4562, "tervie": 4563, "terview": 4564, "tery": 4565, "tes": 4566, "tew": 4567, "tf": 4568, "tfu": 4569, "tful": 4570, "th": 4571, "tha": 4572, "than": 4573, "the": 4574, "them": 4575, "theo": 4576, "ther": 4577, "therm": 4578, "thes": 4579, "thi": 4580, "thic": 4581, "thie": 4582, "thin": 4583, "thing": 4584, "thir": 4585, "thirs": 4586, "thirst": 4587, "thl": 4588, "tho": 4589, "thou": 4590, "thoug": 4591, "though": 4592, "thought": 4593, "thr": 4594, "thro": 4595, "throug": 4596, "through": 4597, "thu": 4598, "thw": 4599, "thward": 4600, "thy": 4601, "ti": 4602, "tia": 4603, "tib": 4604, "tibi": 4605, "tic": 4606, "tica": 4607, "tical": 4608, "tici": 4609, "tick": 4610, "tie": 4611, "tier": 4612, "ties": 4613, "tiest": 4614, "tif": 4615, "tifi": 4616, "tific": 4617, "tifica": 4618, "tificat": 4619, "tifie": 4620, "tified": 4621, "tifies": 4622, "tig": 4623, "til": 4624, "tim": 4625, "time": 4626, "tin": 4627, "ting": 4628, "tio": 4629, "tion": 4630, "tiona": 4631, "tional": 4632, "tions": 4633, "tis": 4634, "tisf": 4635, "tisfie": 4636, "tist": 4637, "tit": 4638, "titu": 4639, "titut": 4640, "tiv": 4641, "tive": 4642, "tivel": 4643, "tively": 4644, "tivi": 4645, "tivit": 4646, "tiviti": 4647, "tivitie": 4648, "tivities": 4649, "tivity": 4650, "tl": 4651, "tla": 4652, "tle": 4653, "tles": 4654, "tless": 4655, "tli": 4656, "tlin": 4657, "tling": 4658, "tly": 4659, "tm": 4660, "tme": 4661, "tmen": 4662, "tment": 4663, "tn": 4664, "tne": 4665, "to": 4666, "toc": 4667, "tod": 4668, "tog": 4669, "togr": 4670, "togra": 4671, "tograp": 4672, "tograph": 4673, "tol": 4674, "tom": 4675, "toma": 4676, "ton": 4677, "tone": 4678, "toni": 4679, "too": 4680, "toot": 4681, "tooth": 4682, "top": 4683, "tor": 4684, "tore": 4685, "tori": 4686, "torie": 4687, "tories": 4688, "torm": 4689, "tors": 4690, "tory": 4691, "tou": 4692, "tour": 4693, "touri": 4694, "touris": 4695, "tow": 4696, "tr": 4697, "tra": 4698, "trac": 4699, "tract": 4700, "trad": 4701, "trade": 4702, "tradi": 4703, "trai": 4704, "train": 4705, "tral": 4706, "trali": 4707, "tralia": 4708, "tran": 4709, "trans": 4710, "transl": 4711, "transla": 4712, "translat": 4713, "trat": 4714, "trate": 4715, "trav": 4716, "trave": 4717, "travel": 4718, "tre": 4719, "tres": 4720, "tress": 4721, "tri": 4722, "tribut": 4723, "tric": 4724, "trical": 4725, "trie": 4726, "tro": 4727, "trod": 4728, "troduc": 4729, "tron": 4730, "trop": 4731, "tru": 4732, "truc": 4733, "truct": 4734, "tructu": 4735, "tructur": 4736, "tructure": 4737, "try": 4738, "ts": 4739, "tsm": 4740, "tt": 4741, "tta": 4742, "tte": 4743, "tten": 4744, "tter": 4745, "tti": 4746, "ttl": 4747, "ttle": 4748, "tu": 4749, "tua": 4750, "tuat": 4751, "tud": 4752, "tum": 4753, "tun": 4754, "tur": 4755, "tura": 4756, "ture": 4757, "turi": 4758, "turing": 4759, "turn": 4760, "tut": 4761, "tw": 4762, "twa": 4763, "twar": 4764, "tward": 4765, "twards": 4766, "twe": 4767, "twi": 4768, "ty": 4769, "tyl": 4770, "typ": 4771, "type": 4772, "u": 4773, "ua": 4774, "ual": 4775, "uali": 4776, "uall": 4777, "ually": 4778, "uantif": 4779, "uar": 4780, "uat": 4781, "uate": 4782, "uati": 4783, "uatio": 4784, "uation": 4785, "ub": 4786, "ubl": 4787, "ubli": 4788, "ubt": 4789, "ubtitl": 4790, "uc": 4791, "uca": 4792, "ucat": 4793, "ucc": 4794, "ucce": 4795, "ucces": 4796, "uccess": 4797, "uch": 4798, "uck": 4799, "ucki": 4800, "uckie": 4801, "uct": 4802, "uctu": 4803, "uctur": 4804, "ucture": 4805, "ud": 4806, "udd": 4807, "uddhis": 4808, "ude": 4809, "udi": 4810, "ue": 4811, "uen": 4812, "ues": 4813, "uest": 4814, "uf": 4815, "uff": 4816, "ug": 4817, "ugg": 4818, "ugh": 4819, "ught": 4820, "ughter": 4821, "ui": 4822, "uid": 4823, "uil": 4824, "uild": 4825, "uildin": 4826, "uilding": 4827, "uin": 4828, "uing": 4829, "uir": 4830, "uiri": 4831, "uiring": 4832, "uis": 4833, "uit": 4834, "ul": 4835, "ula": 4836, "ular": 4837, "ulari": 4838, "ularit": 4839, "ulat": 4840, "ulati": 4841, "ulatio": 4842, "ulation": 4843, "uld": 4844, "ule": 4845, "uli": 4846, "ull": 4847, "ully": 4848, "ult": 4849, "ulti": 4850, "um": 4851, "uma": 4852, "umb": 4853, "ume": 4854, "umen": 4855, "ument": 4856, "umm": 4857, "umo": 4858, "ump": 4859, "un": 4860, "una": 4861, "unc": 4862, "unci": 4863, "unct": 4864, "unctua": 4865, "unctuat": 4866, "und": 4867, "unde": 4868, "under": 4869, "unders": 4870, "underst": 4871, "understa": 4872, "understan": 4873, "understand": 4874, "undi": 4875, "unding": 4876, "une": 4877, "ung": 4878, "unh": 4879, "unhapp": 4880, "uni": 4881, "unis": 4882, "unit": 4883, "univer": 4884, "univers": 4885, "unk": 4886, "unl": 4887, "unluck": 4888, "unn": 4889, "unne": 4890, "unni": 4891, "unnie": 4892, "unnies": 4893, "uns": 4894, "unt": 4895, "unte": 4896, "unti": 4897, "untr": 4898, "up": 4899, "upe": 4900, "uper": 4901, "upp": 4902, "ur": 4903, "ura": 4904, "urable": 4905, "ural": 4906, "uran": 4907, "urance": 4908, "urat": 4909, "urc": 4910, "urce": 4911, "urd": 4912, "ure": 4913, "ures": 4914, "uri": 4915, "urin": 4916, "uring": 4917, "uris": 4918, "url": 4919, "urn": 4920, "urni": 4921, "uro": 4922, "urp": 4923, "urpris": 4924, "urr": 4925, "urroun": 4926, "urround": 4927, "urs": 4928, "urse": 4929, "ursing": 4930, "urt": 4931, "urth": 4932, "us": 4933, "usa": 4934, "use": 4935, "ush": 4936, "usi": 4937, "usie": 4938, "usin": 4939, "usine": 4940, "usines": 4941, "usiness": 4942, "using": 4943, "uss": 4944, "ussi": 4945, "ust": 4946, "ustr": 4947, "ustral": 4948, "ustrali": 4949, "ustralia": 4950, "usu": 4951, "usua": 4952, "usual": 4953, "ut": 4954, "ute": 4955, "uter": 4956, "uth": 4957, "uti": 4958, "utio": 4959, "ution": 4960, "uto": 4961, "utom": 4962, "utomat": 4963, "v": 4964, "va": 4965, "vac": 4966, "val": 4967, "valu": 4968, "van": 4969, "vant": 4970, "vanta": 4971, "vantag": 4972, "vantage": 4973, "vat": 4974, "ve": 4975, "vel": 4976, "veli": 4977, "vely": 4978, "ven": 4979, "vent": 4980, "ver": 4981, "verh": 4982, "veries": 4983, "vers": 4984, "verse": 4985, "vert": 4986, "vertis": 4987, "very": 4988, "ves": 4989, "vest": 4990, "vi": 4991, "vic": 4992, "vid": 4993, "vide": 4994, "video": 4995, "vie": 4996, "vies": 4997, "view": 4998, "viewe": 4999, "viewer": 5000, "vil": 5001, "vill": 5002, "vin": 5003, "ving": 5004, "vio": 5005, "vis": 5006, "visi": 5007, "vit": 5008, "vita": 5009, "viti": 5010, "vities": 5011, "vo": 5012, "vol": 5013, "vou": 5014, "w": 5015, "wa": 5016, "wai": 5017, "wait": 5018, "wak": 5019, "wal": 5020, "war": 5021, "ward": 5022, "wards": 5023, "was": 5024, "wash": 5025, "wat": 5026, "wate": 5027, "water": 5028, "water-": 5029, "way": 5030, "we": 5031, "wea": 5032, "weal": 5033, "wealt": 5034, "wealth": 5035, "wed": 5036, "wee": 5037, "week": 5038, "wel": 5039, "wer": 5040, "wes": 5041, "west": 5042, "wh": 5043, "wha": 5044, "whe": 5045, "wher": 5046, "where": 5047, "whi": 5048, "whil": 5049, "who": 5050, "wi": 5051, "wid": 5052, "wide": 5053, "wil": 5054, "will": 5055, "willi": 5056, "willin": 5057, "willing": 5058, "win": 5059, "wind": 5060, "wis": 5061, "wit": 5062, "wl": 5063, "wn": 5064, "wo": 5065, "wok": 5066, "woke": 5067, "wom": 5068, "woma": 5069, "woman": 5070, "wome": 5071, "women": 5072, "woo": 5073, "wood": 5074, "wor": 5075, "word": 5076, "work": 5077, "workin": 5078, "working": 5079, "wort": 5080, "worth": 5081, "wr": 5082, "wri": 5083, "writ": 5084, "write": 5085, "writin": 5086, "writing": 5087, "ws": 5088, "x": 5089, "xa": 5090, "xam": 5091, "xc": 5092, "xe": 5093, "xer": 5094, "xi": 5095, "xic": 5096, "xica": 5097, "xis": 5098, "xist": 5099, "xp": 5100, "xpe": 5101, "xpec": 5102, "xpect": 5103, "xpecta": 5104, "xpen": 5105, "xpens": 5106, "xper": 5107, "xperi": 5108, "xperim": 5109, "xperime": 5110, "xperimen": 5111, "xperiment": 5112, "xperimenta": 5113, "xt": 5114, "xtr": 5115, "xtra": 5116, "y": 5117, "ya": 5118, "yb": 5119, "yc": 5120, "ych": 5121, "ycl": 5122, "ycle": 5123, "ycli": 5124, "yclin": 5125, "ycling": 5126, "yd": 5127, "ye": 5128, "yg": 5129, "yi": 5130, "yin": 5131, "ying": 5132, "yl": 5133, "ym": 5134, "yme": 5135, "yn": 5136, "yo": 5137, "you": 5138, "your": 5139, "yp": 5140, "ype": 5141, "ypo": 5142, "ys": 5143, "ysi": 5144, "yst": 5145, "yste": 5146, "ystem": 5147, "yt": 5148, "yti": 5149, "ytic": 5150, "yw": 5151, "z": 5152, "za": 5153, "zat": 5154, "zati": 5155, "zatio": 5156, "zation": 5157, "ze": 5158, "zer": 5159, "zi": 5160, "zin": 5161, "zing": 5162, "zo": 5163, "zoo": 5164, "{": 5165, "|": 5166, "}": 5167, "~": 5168, "\u007f": 5169, "\u0080": 5170, "\u0081": 5171, "\u0082": 5172, "\u0083": 5173, "\u0084": 5174, "\u0085": 5175, "\u0086": 5176, "\u0087": 5177, "\u0088": 5178, "\u0089": 5179, "\u008a": 5180, "\u008b": 5181, "\u008c": 5182, "\u008d": 5183, "\u008e": 5184, "\u008f": 5185, "\u0090": 5186, "\u0091": 5187, "\u0092": 5188, "\u0093": 5189, "\u0094": 5190, "\u0095": 5191, "\u0096": 5192, "\u0097": 5193, "\u0098": 5194, "\u0099": 5195, "\u009a": 5196, "\u009b": 5197, "\u009c": 5198, "\u009d": 5199, "\u009e": 5200, "\u009f": 5201, "\u00a0": 5202, "\u00a1": 5203, "\u00a2": 5204, "\u00a3": 5205, "\u00a4": 5206, "\u00a5": 5207, "\u00a6": 5208, "\u00a7": 5209, "\u00a8": 5210, "\u00a9": 5211, "\u00aa": 5212, "\u00ab": 5213, "\u00ac": 5214, "\u00ad": 5215, "\u00ae": 5216, "\u00af": 5217, "\u00b0": 5218, "\u00b1": 5219, "\u00b2": 5220, "\u00b3": 5221, "\u00b4": 5222, "\u00b5": 5223, "\u00b6": 5224, "\u00b7": 5225, "\u00b8": 5226, "\u00b9": 5227, "\u00ba": 5228, "\u00bb": 5229, "\u00bc": 5230, "\u00bd": 5231, "\u00be": 5232, "\u00bf": 5233, "\u00c0": 5234, "\u00c1": 5235, "\u00c2": 5236, "\u00c3": 5237, "\u00c4": 5238, "\u00c5": 5239, "\u00c6": 5240, "\u00c7": 5241, "\u00c8": 5242, "\u00c9": 5243, "\u00ca": 5244, "\u00cb": 5245, "\u00cc": 5246, "\u00cd": 5247, "\u00ce": 5248, "\u00cf": 5249, "\u00d0": 5250, "\u00d1": 5251, "\u00d2": 5252, "\u00d3": 5253, "\u00d4": 5254, "\u00d5": 5255, "\u00d6": 5256, "\u00d7": 5257, "\u00d8": 5258, "\u00d9": 5259, "\u00da": 5260, "\u00db": 5261, "\u00dc": 5262, "\u00dd": 5263, "\u00de": 5264, "\u00df": 5265, "\u00e0": 5266, "\u00e1": 5267, "\u00e2": 5268, "\u00e3": 5269, "\u00e4": 5270, "\u00e5": 5271, "\u00e6": 5272, "\u00e7": 5273, "\u00e8": 5274, "\u00e9": 5275, "\u00ea": 5276, "\u00eb": 5277, "\u00ec": 5278, "\u00ed": 5279, "\u00ee": 5280, "\u00ef": 5281, "\u00f0": 5282, "\u00f1": 5283, "\u00f2": 5284, "\u00f3": 5285, "\u00f4": 5286, "\u00f5": 5287, "\u00f6": 5288, "\u00f7": 5289, "\u00f8": 5290, "\u00f9": 5291, "\u00fa": 5292, "\u00fb": 5293, "\u00fc": 5294, "\u00fd": 5295, "\u00fe": 5296, "\u00ff": 5297, "\u0100": 5298, "\u0101": 5299, "\u0102": 5300, "\u0103": 5301, "\u0104": 5302, "\u0105": 5303, "\u0106": 5304, "\u0107": 5305, "\u0108": 5306, "\u0109": 5307, "\u010a": 5308, "\u010b": 5309, "\u010c": 5310, "\u010d": 5311, "\u010e": 5312, "\u010f": 5313, "\u0110": 5314, "\u0111": 5315, "\u0112": 5316, "\u0113": 5317, "\u0114": 5318, "\u0115": 5319, "\u0116": 5320, "\u0117": 5321, "\u0118": 5322, "\u0119": 5323, "\u011a": 5324, "\u011b": 5325, "\u011c": 5326, "\u011d": 5327, "\u011e": 5328, "\u011f": 5329, "\u0120": 5330, "\u0121": 5331, "\u0122": 5332, "\u0123": 5333, "\u0124": 5334, "\u0125": 5335, "\u0126": 5336, "\u0127": 5337, "\u0128": 5338, "\u0129": 5339, "\u012a": 5340, "\u012b": 5341, "\u012c": 5342, "\u012d": 5343, "\u012e": 5344, "\u012f": 5345, "\u0130": 5346, "\u0131": 5347, "\u0132": 5348, "\u0133": 5349, "\u0134": 5350, "\u0135": 5351, "\u0136": 5352, "\u0137": 5353, "\u0138": 5354, "\u0139": 5355, "\u013a": 5356, "\u013b": 5357, "\u013c": 5358, "\u013d": 5359, "\u013e": 5360, "\u013f": 5361, "\u0140": 5362, "\u0141": 5363, "\u0142": 5364, "\u0143": 5365, "\u0144": 5366, "\u0145": 5367, "\u0146": 5368, "\u0147": 5369, "\u0148": 5370, "\u0149": 5371, "\u014a": 5372, "\u014b": 5373, "\u014c": 5374, "\u014d": 5375, "\u014e": 5376, "\u014f": 5377, "\u0150": 5378, "\u0151": 5379, "\u0152": 5380, "\u0153": 5381, "\u0154": 5382, "\u0155": 5383, "\u0156": 5384, "\u0157": 5385, "\u0158": 5386, "\u0159": 5387, "\u015a": 5388, "\u015b": 5389, "\u015c": 5390, "\u015d": 5391, "\u015e": 5392, "\u015f": 5393, "\u0160": 5394, "\u0161": 5395, "\u0162": 5396, "\u0163": 5397, "\u0164": 5398, "\u0165": 5399, "\u0166": 5400, "\u0167": 5401, "\u0168": 5402, "\u0169": 5403, "\u016a": 5404, "\u016b": 5405, "\u016c": 5406, "\u016d": 5407, "\u016e": 5408, "\u016f": 5409, "\u0170": 5410, "\u0171": 5411, "\u0172": 5412, "\u0173": 5413, "\u0174": 5414, "\u0175": 5415, "\u0176": 5416, "\u0177": 5417, "\u0178": 5418, "\u0179": 5419, "\u017a": 5420, "\u017b": 5421, "\u017c": 5422, "\u017d": 5423, "\u017e": 5424, "\u017f": 5425, "\u0180": 5426, "\u0181": 5427, "\u0182": 5428, "\u0183": 5429, "\u0184": 5430, "\u0185": 5431, "\u0186": 5432, "\u0187": 5433, "\u0188": 5434, "\u0189": 5435, "\u018a": 5436, "\u018b": 5437, "\u018c": 5438, "\u018d": 5439, "\u018e": 5440, "\u018f": 5441, "\u0190": 5442, "\u0191": 5443, "\u0192": 5444, "\u0193": 5445, "\u0194": 5446, "\u0195": 5447, "\u0196": 5448, "\u0197": 5449, "\u0198": 5450, "\u0199": 5451, "\u019a": 5452, "\u019b": 5453, "\u019c": 5454, "\u019d": 5455, "\u019e": 5456, "\u019f": 5457, "\u01a0": 5458, "\u01a1": 5459, "\u01a2": 5460, "\u01a3": 5461, "\u01a4": 5462, "\u01a5": 5463, "\u01a6": 5464, "\u01a7": 5465, "\u01a8": 5466, "\u01a9": 5467, "\u01aa": 5468, "\u01ab": 5469, "\u01ac": 5470, "\u01ad": 5471, "\u01ae": 5472, "\u01af": 5473, "\u01b0": 5474, "\u01b1": 5475, "\u01b2": 5476, "\u01b3": 5477, "\u01b4": 5478, "\u01b5": 5479, "\u01b6": 5480, "\u01b7": 5481, "\u01b8": 5482, "\u01b9": 5483, "\u01ba": 5484, "\u01bb": 5485, "\u01bc": 5486, "\u01bd": 5487, "\u01be": 5488, "\u01bf": 5489, "\u01c0": 5490, "\u01c1": 5491, "\u01c2": 5492, "\u01c3": 5493, "\u01c4": 5494, "\u01c5": 5495, "\u01c6": 5496, "\u01c7": 5497, "\u01c8": 5498, "\u01c9": 5499, "\u01ca": 5500, "\u01cb": 5501, "\u01cc": 5502, "\u01cd": 5503, "\u01ce": 5504, "\u01cf": 5505, "\u01d0": 5506, "\u01d1": 5507, "\u01d2": 5508, "\u01d3": 5509, "\u01d4": 5510, "\u01d5": 5511, "\u01d6": 5512, "\u01d7": 5513, "\u01d8": 5514, "\u01d9": 5515, "\u01da": 5516, "\u01db": 5517, "\u01dc": 5518, "\u01dd": 5519, "\u01de": 5520, "\u01df": 5521, "\u01e0": 5522, "\u01e1": 5523, "\u01e2": 5524, "\u01e3": 5525, "\u01e4": 5526, "\u01e5": 5527, "\u01e6": 5528, "\u01e7": 5529, "\u01e8": 5530, "\u01e9": 5531, "\u01ea": 5532, "\u01eb": 5533, "\u01ec": 5534, "\u01ed": 5535, "\u01ee": 5536, "\u01ef": 5537, "\u01f0": 5538, "\u01f1": 5539, "\u01f2": 5540, "\u01f3": 5541, "\u01f4": 5542, "\u01f5": 5543, "\u01f6": 5544, "\u01f7": 5545, "\u01f8": 5546, "\u01f9": 5547, "\u01fa": 5548, "\u01fb": 5549, "\u01fc": 5550, "\u01fd": 5551, "\u01fe": 5552, "\u01ff": 5553, "\u0200": 5554, "\u0201": 5555, "\u0202": 5556, "\u0203": 5557, "\u0204": 5558, "\u0205": 5559, "\u0206": 5560, "\u0207": 5561, "\u0208": 5562, "\u0209": 5563, "\u020a": 5564, "\u020b": 5565, "\u020c": 5566, "\u020d": 5567, "\u020e": 5568, "\u020f": 5569, "\u0210": 5570, "\u0211": 5571, "\u0212": 5572, "\u0213": 5573, "\u0214": 5574, "\u0215": 5575, "\u0216": 5576, "\u0217": 5577, "\u0218": 5578, "\u0219": 5579, "\u021a": 5580, "\u021b": 5581, "\u021c": 5582, "\u021d": 5583, "\u021e": 5584, "\u021f": 5585, "\u0220": 5586, "\u0221": 5587, "\u0222": 5588, "\u0223": 5589, "\u0224": 5590, "\u0225": 5591, "\u0226": 5592, "\u0227": 5593, "\u0228": 5594, "\u0229": 5595, "\u022a": 5596, "\u022b": 5597, "\u022c": 5598, "\u022d": 5599, "\u022e": 5600, "\u022f": 5601, "\u0230": 5602, "\u0231": 5603, "\u0232": 5604, "\u0233": 5605, "\u0234": 5606, "\u0235": 5607, "\u0236": 5608, "\u0237": 5609, "\u0238": 5610, "\u0239": 5611, "\u023a": 5612, "\u023b": 5613, "\u023c": 5614, "\u023d": 5615, "\u023e": 5616, "\u023f": 5617, "\u0240": 5618, "\u0241": 5619, "\u0242": 5620, "\u0243": 5621, "\u0244": 5622, "\u0245": 5623, "\u0246": 5624, "\u0247": 5625, "\u0248": 5626, "\u0249": 5627, "\u024a": 5628, "\u024b": 5629, "\u024c": 5630, "\u024d": 5631, "\u024e": 5632, "\u024f": 5633, "\u0250": 5634, "\u0251": 5635, "\u0252": 5636, "\u0253": 5637, "\u0254": 5638, "\u0255": 5639, "\u0256": 5640, "\u0257": 5641, "\u0258": 5642, "\u0259": 5643, "\u025a": 5644, "\u025b": 5645, "\u025c": 5646, "\u025d": 5647, "\u025e": 5648, "\u025f": 5649, "\u0260": 5650, "\u0261": 5651, "\u0262": 5652, "\u0263": 5653, "\u0264": 5654, "\u0265": 5655, "\u0266": 5656, "\u0267": 5657, "\u0268": 5658, "\u0269": 5659, "\u026a": 5660, "\u026b": 5661, "\u026c": 5662, "\u026d": 5663, "\u026e": 5664, "\u026f": 5665, "\u0270": 5666, "\u0271": 5667, "\u0272": 5668, "\u0273": 5669, "\u0274": 5670, "\u0275": 5671, "\u0276": 5672, "\u0277": 5673, "\u0278": 5674, "\u0279": 5675, "\u027a": 5676, "\u027b": 5677, "\u027c": 5678, "\u027d": 5679, "\u027e": 5680, "\u027f": 5681, "\u0280": 5682, "\u0281": 5683, "\u0282": 5684, "\u0283": 5685, "\u0284": 5686, "\u0285": 5687, "\u0286": 5688, "\u0287": 5689, "\u0288": 5690, "\u0289": 5691, "\u028a": 5692, "\u028b": 5693, "\u028c": 5694, "\u028d": 5695, "\u028e": 5696, "\u028f": 5697, "\u0290": 5698, "\u0291": 5699, "\u0292": 5700, "\u0293": 5701, "\u0294": 5702, "\u0295": 5703, "\u0296": 5704, "\u0297": 5705, "\u0298": 5706, "\u0299": 5707, "\u029a": 5708, "\u029b": 5709, "\u029c": 5710, "\u029d": 5711, "\u029e": 5712, "\u029f": 5713, "\u02a0": 5714, "\u02a1": 5715, "\u02a2": 5716, "\u02a3": 5717, "\u02a4": 5718, "\u02a5": 5719, "\u02a6": 5720, "\u02a7": 5721, "\u02a8": 5722, "\u02a9": 5723, "\u02aa": 5724, "\u02ab": 5725, "\u02ac": 5726, "\u02ad": 5727, "\u02ae": 5728, "\u02af": 5729, "\u02b0": 5730, "\u02b1": 5731, "\u02b2": 5732, "\u02b3": 5733, "\u02b4": 5734, "\u02b5": 5735, "\u02b6": 5736, "\u02b7": 5737, "\u02b8": 5738, "\u02b9": 5739, "\u02ba": 5740, "\u02bb": 5741, "\u02bc": 5742, "\u02bd": 5743, "\u02be": 5744, "\u02bf": 5745, "\u02c0": 5746, "\u02c1": 5747, "\u02c2": 5748, "\u02c3": 5749, "\u02c4": 5750, "\u02c5": 5751, "\u02c6": 5752, "\u02c7": 5753, "\u02c8": 5754, "\u02c9": 5755, "\u02ca": 5756, "\u02cb": 5757, "\u02cc": 5758, "\u02cd": 5759, "\u02ce": 5760, "\u02cf": 5761, "\u02d0": 5762, "\u02d1": 5763, "\u02d2": 5764, "\u02d3": 5765, "\u02d4": 5766, "\u02d5": 5767, "\u02d6": 5768, "\u02d7": 5769, "\u02d8": 5770, "\u02d9": 5771, "\u02da": 5772, "\u02db": 5773, "\u02dc": 5774, "\u02dd": 5775, "\u02de": 5776, "\u02df": 5777, "\u02e0": 5778, "\u02e1": 5779, "\u02e2": 5780, "\u02e3": 5781, "\u02e4": 5782, "\u02e5": 5783, "\u02e6": 5784, "\u02e7": 5785, "\u02e8": 5786, "\u02e9": 5787, "\u02ea": 5788, "\u02eb": 5789, "\u02ec": 5790, "\u02ed": 5791, "\u02ee": 5792, "\u02ef": 5793, "\u02f0": 5794, "\u02f1": 5795, "\u02f2": 5796, "\u02f3": 5797, "\u02f4": 5798, "\u02f5": 5799, "\u02f6": 5800, "\u02f7": 5801, "\u02f8": 5802, "\u02f9": 5803, "\u02fa": 5804, "\u02fb": 5805, "\u02fc": 5806, "\u02fd": 5807, "\u02fe": 5808, "\u02ff": 5809, "\u0300": 5810, "\u0301": 5811, "\u0302": 5812, "\u0303": 5813, "\u0304": 5814, "\u0305": 5815, "\u0306": 5816, "\u0307": 5817, "\u0308": 5818, "\u0309": 5819, "\u030a": 5820, "\u030b": 5821, "\u030c": 5822, "\u030d": 5823, "\u030e": 5824, "\u030f": 5825, "\u0310": 5826, "\u0311": 5827, "\u0312": 5828, "\u0313": 5829, "\u0314": 5830, "\u0315": 5831, "\u0316": 5832, "\u0317": 5833, "\u0318": 5834, "\u0319": 5835, "\u031a": 5836, "\u031b": 5837, "\u031c": 5838, "\u031d": 5839, "\u031e": 5840, "\u031f": 5841, "\u0320": 5842, "\u0321": 5843, "\u0322": 5844, "\u0323": 5845, "\u0324": 5846, "\u0325": 5847, "\u0326": 5848, "\u0327": 5849, "\u0328": 5850, "\u0329": 5851, "\u032a": 5852, "\u032b": 5853, "\u032c": 5854, "\u032d": 5855, "\u032e": 5856, "\u032f": 5857, "\u0330": 5858, "\u0331": 5859, "\u0332": 5860, "\u0333": 5861, "\u0334": 5862, "\u0335": 5863, "\u0336": 5864, "\u0337": 5865, "\u0338": 5866, "\u0339": 5867, "\u033a": 5868, "\u033b": 5869, "\u033c": 5870, "\u033d": 5871, "\u033e": 5872, "\u033f": 5873, "\u0340": 5874, "\u0341": 5875, "\u0342": 5876, "\u0343": 5877, "\u0344": 5878, "\u0345": 5879, "\u0346": 5880, "\u0347": 5881, "\u0348": 5882, "\u0349": 5883, "\u034a": 5884, "\u034b": 5885, "\u034c": 5886, "\u034d": 5887, "\u034e": 5888, "\u034f": 5889, "\u0350": 5890, "\u0351": 5891, "\u0352": 5892, "\u0353": 5893, "\u0354": 5894, "\u0355": 5895, "\u0356": 5896, "\u0357": 5897, "\u0358": 5898, "\u0359": 5899, "\u035a": 5900, "\u035b": 5901, "\u035c": 5902, "\u035d": 5903, "\u035e": 5904, "\u035f": 5905, "\u0360": 5906, "\u0361": 5907, "\u0362": 5908, "\u0363": 5909, "\u0364": 5910, "\u0365": 5911, "\u0366": 5912, "\u0367": 5913, "\u0368": 5914, "\u0369": 5915, "\u036a": 5916, "\u036b": 5917, "\u036c": 5918, "\u036d": 5919, "\u036e": 5920, "\u036f": 5921, "\u0370": 5922, "\u0371": 5923, "\u0372": 5924, "\u0373": 5925, "\u0374": 5926, "\u0375": 5927, "\u0376": 5928, "\u0377": 5929, "\u0378": 5930, "\u0379": 5931, "\u037a": 5932, "\u037b": 5933, "\u037c": 5934, "\u037d": 5935, "\u037e": 5936, "\u037f": 5937, "\u0380": 5938, "\u0381": 5939, "\u0382": 5940, "\u0383": 5941, "\u0384": 5942, "\u0385": 5943, "\u0386": 5944, "\u0387": 5945, "\u0388": 5946, "\u0389": 5947, "\u038a": 5948, "\u038b": 5949, "\u038c": 5950, "\u038d": 5951, "\u038e": 5952, "\u038f": 5953, "\u0390": 5954, "\u0391": 5955, "\u0392": 5956, "\u0393": 5957, "\u0394": 5958, "\u0395": 5959, "\u0396": 5960, "\u0397": 5961, "\u0398": 5962, "\u0399": 5963, "\u039a": 5964, "\u039b": 5965, "\u039c": 5966, "\u039d": 5967, "\u039e": 5968, "\u039f": 5969, "\u03a0": 5970, "\u03a1": 5971, "\u03a2": 5972, "\u03a3": 5973, "\u03a4": 5974, "\u03a5": 5975, "\u03a6": 5976, "\u03a7": 5977, "\u03a8": 5978, "\u03a9": 5979, "\u03aa": 5980, "\u03ab": 5981, "\u03ac": 5982, "\u03ad": 5983, "\u03ae": 5984, "\u03af": 5985, "\u03b0": 5986, "\u03b1": 5987, "\u03b2": 5988, "\u03b3": 5989, "\u03b4": 5990, "\u03b5": 5991, "\u03b6": 5992, "\u03b7": 5993, "\u03b8": 5994, "\u03b9": 5995, "\u03ba": 5996, "\u03bb": 5997, "\u03bc": 5998, "\u03bd": 5999, "\u03be": 6000, "\u03bf": 6001, "\u03c0": 6002, "\u03c1": 6003, "\u03c2": 6004, "\u03c3": 6005, "\u03c4": 6006, "\u03c5": 6007, "\u03c6": 6008, "\u03c7": 6009, "\u03c8": 6010, "\u03c9": 6011, "\u03ca": 6012, "\u03cb": 6013, "\u03cc": 6014, "\u03cd": 6015, "\u03ce": 6016, "\u03cf": 6017, "\u03d0": 6018, "\u03d1": 6019, "\u03d2": 6020, "\u03d3": 6021, "\u03d4": 6022, "\u03d5": 6023, "\u03d6": 6024, "\u03d7": 6025, "\u03d8": 6026, "\u03d9": 6027, "\u03da": 6028, "\u03db": 6029, "\u03dc": 6030, "\u03dd": 6031, "\u03de": 6032, "\u03df": 6033, "\u03e0": 6034, "\u03e1": 6035, "\u03e2": 6036, "\u03e3": 6037, "\u03e4": 6038, "\u03e5": 6039, "\u03e6": 6040, "\u03e7": 6041, "\u03e8": 6042, "\u03e9": 6043, "\u03ea": 6044, "\u03eb": 6045, "\u03ec": 6046, "\u03ed": 6047, "\u03ee": 6048, "\u03ef": 6049, "\u03f0": 6050, "\u03f1": 6051, "\u03f2": 6052, "\u03f3": 6053, "\u03f4": 6054, "\u03f5": 6055, "\u03f6": 6056, "\u03f7": 6057, "\u03f8": 6058, "\u03f9": 6059, "\u03fa": 6060, "\u03fb": 6061, "\u03fc": 6062, "\u03fd": 6063, "\u03fe": 6064, "\u03ff": 6065, "\u0400": 6066, "\u0401": 6067, "\u0402": 6068, "\u0403": 6069, "\u0404": 6070, "\u0405": 6071, "\u0406": 6072, "\u0407": 6073, "\u0408": 6074, "\u0409": 6075, "\u040a": 6076, "\u040b": 6077, "\u040c": 6078, "\u040d": 6079, "\u040e": 6080, "\u040f": 6081, "\u0410": 6082, "\u0411": 6083, "\u0412": 6084, "\u0413": 6085, "\u0414": 6086, "\u0415": 6087, "\u0416": 6088, "\u0417": 6089, "\u0418": 6090, "\u0419": 6091, "\u041a": 6092, "\u041b": 6093, "\u041c": 6094, "\u041d": 6095, "\u041e": 6096, "\u041f": 6097, "\u0420": 6098, "\u0421": 6099, "\u0422": 6100, "\u0423": 6101, "\u0424": 6102, "\u0425": 6103, "\u0426": 6104, "\u0427": 6105, "\u0428": 6106, "\u0429": 6107, "\u042a": 6108, "\u042b": 6109, "\u042c": 6110, "\u042d": 6111, "\u042e": 6112, "\u042f": 6113, "\u0430": 6114, "\u0431": 6115, "\u0432": 6116, "\u0433": 6117, "\u0434": 6118, "\u0435": 6119, "\u0436": 6120, "\u0437": 6121, "\u0438": 6122, "\u0439": 6123, "\u043a": 6124, "\u043b": 6125, "\u043c": 6126, "\u043d": 6127, "\u043e": 6128, "\u043f": 6129, "\u0440": 6130, "\u0441": 6131, "\u0442": 6132, "\u0443": 6133, "\u0444": 6134, "\u0445": 6135, "\u0446": 6136, "\u0447": 6137, "\u0448": 6138, "\u0449": 6139, "\u044a": 6140, "\u044b": 6141, "\u044c": 6142, "\u044d": 6143, "\u044e": 6144, "\u044f": 6145, "\u0450": 6146, "\u0451": 6147, "\u0452": 6148, "\u0453": 6149, "\u0454": 6150, "\u0455": 6151, "\u0456": 6152, "\u0457": 6153, "\u0458": 6154, "\u0459": 6155, "\u045a": 6156, "\u045b": 6157, "\u045c": 6158, "\u045d": 6159, "\u045e": 6160, "\u045f": 6161, "\u0460": 6162, "\u0461": 6163, "\u0462": 6164, "\u0463": 6165, "\u0464": 6166, "\u0465": 6167, "\u0466": 6168, "\u0467": 6169, "\u0468": 6170, "\u0469": 6171, "\u046a": 6172, "\u046b": 6173, "\u046c": 6174, "\u046d": 6175, "\u046e": 6176, "\u046f": 6177, "\u0470": 6178, "\u0471": 6179, "\u0472": 6180, "\u0473": 6181, "\u0474": 6182, "\u0475": 6183, "\u0476": 6184, "\u0477": 6185, "\u0478": 6186, "\u0479": 6187, "\u047a": 6188, "\u047b": 6189, "\u047c": 6190, "\u047d": 6191, "\u047e": 6192, "\u047f": 6193, "\u0480": 6194, "\u0481": 6195, "\u0482": 6196, "\u0483": 6197, "\u0484": 6198, "\u0485": 6199, "\u0486": 6200, "\u0487": 6201, "\u0488": 6202, "\u0489": 6203, "\u048a": 6204, "\u048b": 6205, "\u048c": 6206, "\u048d": 6207, "\u048e": 6208, "\u048f": 6209, "\u0490": 6210, "\u0491": 6211, "\u0492": 6212, "\u0493": 6213, "\u0494": 6214, "\u0495": 6215, "\u0496": 6216, "\u0497": 6217, "\u0498": 6218, "\u0499": 6219, "\u049a": 6220, "\u049b": 6221, "\u049c": 6222, "\u049d": 6223, "\u049e": 6224, "\u049f": 6225, "\u04a0": 6226, "\u04a1": 6227, "\u04a2": 6228, "\u04a3": 6229, "\u04a4": 6230, "\u04a5": 6231, "\u04a6": 6232, "\u04a7": 6233, "\u04a8": 6234, "\u04a9": 6235, "\u04aa": 6236, "\u04ab": 6237, "\u04ac": 6238, "\u04ad": 6239, "\u04ae": 6240, "\u04af": 6241, "\u04b0": 6242, "\u04b1": 6243, "\u04b2": 6244, "\u04b3": 6245, "\u04b4": 6246, "\u04b5": 6247, "\u04b6": 6248, "\u04b7": 6249, "\u04b8": 6250, "\u04b9": 6251, "\u04ba": 6252, "\u04bb": 6253, "\u04bc": 6254, "\u04bd": 6255, "\u04be": 6256, "\u04bf": 6257, "\u04c0": 6258, "\u04c1": 6259, "\u04c2": 6260, "\u04c3": 6261, "\u04c4": 6262, "\u04c5": 6263, "\u04c6": 6264, "\u04c7": 6265, "\u04c8": 6266, "\u04c9": 6267, "\u04ca": 6268, "\u04cb": 6269, "\u04cc": 6270, "\u04cd": 6271, "\u04ce": 6272, "\u04cf": 6273, "\u04d0": 6274, "\u04d1": 6275, "\u04d2": 6276, "\u04d3": 6277, "\u04d4": 6278, "\u04d5": 6279, "\u04d6": 6280, "\u04d7": 6281, "\u04d8": 6282, "\u04d9": 6283, "\u04da": 6284, "\u04db": 6285, "\u04dc": 6286, "\u04dd": 6287, "\u04de": 6288, "\u04df": 6289, "\u04e0": 6290, "\u04e1": 6291, "\u04e2": 6292, "\u04e3": 6293, "\u04e4": 6294, "\u04e5": 6295, "\u04e6": 6296, "\u04e7": 6297, "\u04e8": 6298, "\u04e9": 6299, "\u04ea": 6300, "\u04eb": 6301, "\u04ec": 6302, "\u04ed": 6303, "\u04ee": 6304, "\u04ef": 6305, "\u04f0": 6306, "\u04f1": 6307, "\u04f2": 6308, "\u04f3": 6309, "\u04f4": 6310, "\u04f5": 6311, "\u04f6": 6312, "\u04f7": 6313, "\u04f8": 6314, "\u04f9": 6315, "\u04fa": 6316, "\u04fb": 6317, "\u04fc": 6318, "\u04fd": 6319, "\u04fe": 6320, "\u04ff": 6321, "\u2000": 6322, "\u2001": 6323, "\u2002": 6324, "\u2003": 6325, "\u2004": 6326, "\u2005": 6327, "\u2006": 6328, "\u2007": 6329, "\u2008": 6330, "\u2009": 6331, "\u200a": 6332, "\u200b": 6333, "\u200c": 6334, "\u200d": 6335, "\u200e": 6336, "\u200f": 6337, "\u2010": 6338, "\u2011": 6339, "\u2012": 6340, "\u2013": 6341, "\u2014": 6342, "\u2015": 6343, "\u2016": 6344, "\u2017": 6345, "\u2018": 6346, "\u2019": 6347, "\u201a": 6348, "\u201b": 6349, "\u201c": 6350, "\u201d": 6351, "\u201e": 6352, "\u201f": 6353, "\u2020": 6354, "\u2021": 6355, "\u2022": 6356, "\u2023": 6357, "\u2024": 6358, "\u2025": 6359, "\u2026": 6360, "\u2027": 6361, "\u2028": 6362, "\u2029": 6363, "\u202a": 6364, "\u202b": 6365, "\u202c": 6366, "\u202d": 6367, "\u202e": 6368, "\u202f": 6369, "\u2030": 6370, "\u2031": 6371, "\u2032": 6372, "\u2033": 6373, "\u2034": 6374, "\u2035": 6375, "\u2036": 6376, "\u2037": 6377, "\u2038": 6378, "\u2039": 6379, "\u203a": 6380, "\u203b": 6381, "\u203c": 6382, "\u203d": 6383, "\u203e": 6384, "\u203f": 6385, "\u2040": 6386, "\u2041": 6387, "\u2042": 6388, "\u2043": 6389, "\u2044": 6390, "\u2045": 6391, "\u2046": 6392, "\u2047": 6393, "\u2048": 6394, "\u2049": 6395, "\u204a": 6396, "\u204b": 6397, "\u204c": 6398, "\u204d": 6399, "\u204e": 6400, "\u204f": 6401, "\u2050": 6402, "\u2051": 6403, "\u2052": 6404, "\u2053": 6405, "\u2054": 6406, "\u2055": 6407, "\u2056": 6408, "\u2057": 6409, "\u2058": 6410, "\u2059": 6411, "\u205a": 6412, "\u205b": 6413, "\u205c": 6414, "\u205d": 6415, "\u205e": 6416, "\u205f": 6417, "\u2060": 6418, "\u2061": 6419, "\u2062": 6420, "\u2063": 6421, "\u2064": 6422, "\u2065": 6423, "\u2066": 6424, "\u2067": 6425, "\u2068": 6426, "\u2069": 6427, "\u206a": 6428, "\u206b": 6429, "\u206c": 6430, "\u206d": 6431, "\u206e": 6432, "\u206f": 6433, "\u2070": 6434, "\u2071": 6435, "\u2072": 6436, "\u2073": 6437, "\u2074": 6438, "\u2075": 6439, "\u2076": 6440, "\u2077": 6441, "\u2078": 6442, "\u2079": 6443, "\u207a": 6444, "\u207b": 6445, "\u207c": 6446, "\u207d": 6447, "\u207e": 6448, "\u207f": 6449, "\u2080": 6450, "\u2081": 6451, "\u2082": 6452, "\u2083": 6453, "\u2084": 6454, "\u2085": 6455, "\u2086": 6456, "\u2087": 6457, "\u2088": 6458, "\u2089": 6459, "\u208a": 6460, "\u208b": 6461, "\u208c": 6462, "\u208d": 6463, "\u208e": 6464, "\u208f": 6465, "\u2090": 6466, "\u2091": 6467, "\u2092": 6468, "\u2093": 6469, "\u2094": 6470, "\u2095": 6471, "\u2096": 6472, "\u2097": 6473, "\u2098": 6474, "\u2099": 6475, "\u209a": 6476, "\u209b": 6477, "\u209c": 6478, "\u209d": 6479, "\u209e": 6480, "\u209f": 6481, "\u20a0": 6482, "\u20a1": 6483, "\u20a2": 6484, "\u20a3": 6485, "\u20a4": 6486, "\u20a5": 6487, "\u20a6": 6488, "\u20a7": 6489, "\u20a8": 6490, "\u20a9": 6491, "\u20aa": 6492, "\u20ab": 6493, "\u20ac": 6494, "\u20ad": 6495, "\u20ae": 6496, "\u20af": 6497, "\u20b0": 6498, "\u20b1": 6499, "\u20b2": 6500, "\u20b3": 6501, "\u20b4": 6502, "\u20b5": 6503, "\u20b6": 6504, "\u20b7": 6505, "\u20b8": 6506, "\u20b9": 6507, "\u20ba": 6508, "\u20bb": 6509, "\u20bc": 6510, "\u20bd": 6511, "\u20be": 6512, "\u20bf": 6513, "\u2100": 6514, "\u2101": 6515, "\u2102": 6516, "\u2103": 6517, "\u2104": 6518, "\u2105": 6519, "\u2106": 6520, "\u2107": 6521, "\u2108": 6522, "\u2109": 6523, "\u210a": 6524, "\u210b": 6525, "\u210c": 6526, "\u210d": 6527, "\u210e": 6528, "\u210f": 6529, "\u2116": 6530, "\u2160": 6531, "\u2161": 6532, "\u2162": 6533, "\u2163": 6534, "\u2164": 6535, "\u2165": 6536, "\u2166": 6537, "\u2167": 6538, "\u2168": 6539, "\u2169": 6540, "\u216a": 6541, "\u216b": 6542, "\u2190": 6543, "\u2191": 6544, "\u2192": 6545, "\u2193": 6546, "\u2194": 6547, "\u2195": 6548, "\u2196": 6549, "\u2197": 6550, "\u2198": 6551, "\u2199": 6552, "\u219a": 6553, "\u219b": 6554, "\u219c": 6555, "\u219d": 6556, "\u219e": 6557, "\u219f": 6558, "\u21a0": 6559, "\u21a1": 6560, "\u21a2": 6561, "\u21a3": 6562, "\u21a4": 6563, "\u21a5": 6564, "\u21a6": 6565, "\u21a7": 6566, "\u21a8": 6567, "\u21a9": 6568, "\u21aa": 6569, "\u21ab": 6570, "\u21ac": 6571, "\u21ad": 6572, "\u21ae": 6573, "\u21af": 6574, "\u21b0": 6575, "\u21b1": 6576, "\u21b2": 6577, "\u21b3": 6578, "\u21b4": 6579, "\u21b5": 6580, "\u21b6": 6581, "\u21b7": 6582, "\u21b8": 6583, "\u21b9": 6584, "\u21ba": 6585, "\u21bb": 6586, "\u21bc": 6587, "\u21bd": 6588, "\u21be": 6589, "\u21bf": 6590, "\u21c0": 6591, "\u21c1": 6592, "\u21c2": 6593, "\u21c3": 6594, "\u21c4": 6595, "\u21c5": 6596, "\u21c6": 6597, "\u21c7": 6598, "\u21c8": 6599, "\u21c9": 6600, "\u21ca": 6601, "\u21cb": 6602, "\u21cc": 6603, "\u21cd": 6604, "\u21ce": 6605, "\u21cf": 6606, "\u21d0": 6607, "\u21d1": 6608, "\u21d2": 6609, "\u21d3": 6610, "\u21d4": 6611, "\u21d5": 6612, "\u21d6": 6613, "\u21d7": 6614, "\u21d8": 6615, "\u21d9": 6616, "\u21da": 6617, "\u21db": 6618, "\u21dc": 6619, "\u21dd": 6620, "\u21de": 6621, "\u21df": 6622, "\u21e0": 6623, "\u21e1": 6624, "\u21e2": 6625, "\u21e3": 6626, "\u21e4": 6627, "\u21e5": 6628, "\u21e6": 6629, "\u21e7": 6630, "\u21e8": 6631, "\u21e9": 6632, "\u21ea": 6633, "\u21eb": 6634, "\u21ec": 6635, "\u21ed": 6636, "\u21ee": 6637, "\u21ef": 6638, "\u21f0": 6639, "\u21f1": 6640, "\u21f2": 6641, "\u21f3": 6642, "\u21f4": 6643, "\u21f5": 6644, "\u21f6": 6645, "\u21f7": 6646, "\u21f8": 6647, "\u21f9": 6648, "\u21fa": 6649, "\u21fb": 6650, "\u21fc": 6651, "\u21fd": 6652, "\u21fe": 6653, "\u21ff": 6654, "\u2200": 6655, "\u2201": 6656, "\u2202": 6657, "\u2203": 6658, "\u2204": 6659, "\u2205": 6660, "\u2206": 6661, "\u2207": 6662, "\u2208": 6663, "\u2209": 6664, "\u220a": 6665, "\u220b": 6666, "\u220c": 6667, "\u220d": 6668, "\u220e": 6669, "\u220f": 6670, "\u2210": 6671, "\u2211": 6672, "\u221a": 6673, "\u221d": 6674, "\u221e": 6675, "\u2220": 6676, "\u2225": 6677, "\u2227": 6678, "\u2228": 6679, "\u2229": 6680, "\u222a": 6681, "\u222b": 6682, "\u222e": 6683, "\u2234": 6684, "\u2235": 6685, "\u2236": 6686, "\u2237": 6687, "\u223d": 6688, "\u2248": 6689, "\u224c": 6690, "\u2260": 6691, "\u2261": 6692, "\u2264": 6693, "\u2265": 6694, "\u226e": 6695, "\u226f": 6696, "\u2299": 6697, "\u22a5": 6698, "\u2312": 6699, "\u2460": 6700, "\u2461": 6701, "\u2462": 6702, "\u2463": 6703, "\u2464": 6704, "\u2465": 6705, "\u2466": 6706, "\u2467": 6707, "\u2468": 6708, "\u2469": 6709, "\u246a": 6710, "\u246b": 6711, "\u246c": 6712, "\u246d": 6713, "\u246e": 6714, "\u246f": 6715, "\u2470": 6716, "\u2471": 6717, "\u2472": 6718, "\u2473": 6719, "\u2474": 6720, "\u2475": 6721, "\u2476": 6722, "\u2477": 6723, "\u2478": 6724, "\u2479": 6725, "\u247a": 6726, "\u247b": 6727, "\u247c": 6728, "\u247d": 6729, "\u247e": 6730, "\u247f": 6731, "\u2480": 6732, "\u2481": 6733, "\u2482": 6734, "\u2483": 6735, "\u2484": 6736, "\u2485": 6737, "\u2486": 6738, "\u2487": 6739, "\u2488": 6740, "\u2489": 6741, "\u248a": 6742, "\u248b": 6743, "\u248c": 6744, "\u248d": 6745, "\u248e": 6746, "\u248f": 6747, "\u2490": 6748, "\u2491": 6749, "\u2492": 6750, "\u2493": 6751, "\u2494": 6752, "\u2495": 6753, "\u2496": 6754, "\u2497": 6755, "\u2498": 6756, "\u2499": 6757, "\u249a": 6758, "\u249b": 6759, "\u2500": 6760, "\u2501": 6761, "\u2502": 6762, "\u2503": 6763, "\u2504": 6764, "\u2505": 6765, "\u2506": 6766, "\u2507": 6767, "\u2508": 6768, "\u2509": 6769, "\u250a": 6770, "\u250b": 6771, "\u250c": 6772, "\u250d": 6773, "\u250e": 6774, "\u250f": 6775, "\u2510": 6776, "\u2511": 6777, "\u2512": 6778, "\u2513": 6779, "\u2514": 6780, "\u2515": 6781, "\u2516": 6782, "\u2517": 6783, "\u2518": 6784, "\u2519": 6785, "\u251a": 6786, "\u251b": 6787, "\u251c": 6788, "\u251d": 6789, "\u251e": 6790, "\u251f": 6791, "\u2520": 6792, "\u2521": 6793, "\u2522": 6794, "\u2523": 6795, "\u2524": 6796, "\u2525": 6797, "\u2526": 6798, "\u2527": 6799, "\u2528": 6800, "\u2529": 6801, "\u252a": 6802, "\u252b": 6803, "\u252c": 6804, "\u252d": 6805, "\u252e": 6806, "\u252f": 6807, "\u2530": 6808, "\u2531": 6809, "\u2532": 6810, "\u2533": 6811, "\u2534": 6812, "\u2535": 6813, "\u2536": 6814, "\u2537": 6815, "\u2538": 6816, "\u2539": 6817, "\u253a": 6818, "\u253b": 6819, "\u253c": 6820, "\u253d": 6821, "\u253e": 6822, "\u253f": 6823, "\u2540": 6824, "\u2541": 6825, "\u2542": 6826, "\u2543": 6827, "\u2544": 6828, "\u2545": 6829, "\u2546": 6830, "\u2547": 6831, "\u2548": 6832, "\u2549": 6833, "\u254a": 6834, "\u254b": 6835, "\u25a0": 6836, "\u25a1": 6837, "\u25b2": 6838, "\u25b3": 6839, "\u25c6": 6840, "\u25c7": 6841, "\u25cb": 6842, "\u25ce": 6843, "\u25cf": 6844, "\u2605": 6845, "\u2606": 6846, "\u2640": 6847, "\u2642": 6848, "\u3000": 6849, "\u3001": 6850, "\u3002": 6851, "\u3003": 6852, "\u3004": 6853, "\u3005": 6854, "\u3006": 6855, "\u3007": 6856, "\u3008": 6857, "\u3009": 6858, "\u300a": 6859, "\u300b": 6860, "\u300c": 6861, "\u300d": 6862, "\u300e": 6863, "\u300f": 6864, "\u3010": 6865, "\u3011": 6866, "\u3012": 6867, "\u3013": 6868, "\u3014": 6869, "\u3015": 6870, "\u3016": 6871, "\u3017": 6872, "\u3018": 6873, "\u3019": 6874, "\u301a": 6875, "\u301b": 6876, "\u301c": 6877, "\u301d": 6878, "\u301e": 6879, "\u301f": 6880, "\u3020": 6881, "\u3021": 6882, "\u3022": 6883, "\u3023": 6884, "\u3024": 6885, "\u3025": 6886, "\u3026": 6887, "\u3027": 6888, "\u3028": 6889, "\u3029": 6890, "\u302a": 6891, "\u302b": 6892, "\u302c": 6893, "\u302d": 6894, "\u302e": 6895, "\u302f": 6896, "\u3030": 6897, "\u3031": 6898, "\u3032": 6899, "\u3033": 6900, "\u3034": 6901, "\u3035": 6902, "\u3036": 6903, "\u3037": 6904, "\u3038": 6905, "\u3039": 6906, "\u303a": 6907, "\u303b": 6908, "\u303c": 6909, "\u303d": 6910, "\u303e": 6911, "\u303f": 6912, "\u3040": 6913, "\u3041": 6914, "\u3042": 6915, "\u3043": 6916, "\u3044": 6917, "\u3045": 6918, "\u3046": 6919, "\u3047": 6920, "\u3048": 6921, "\u3049": 6922, "\u304a": 6923, "\u304b": 6924, "\u304c": 6925, "\u304d": 6926, "\u304e": 6927, "\u304f": 6928, "\u3050": 6929, "\u3051": 6930, "\u3052": 6931, "\u3053": 6932, "\u3054": 6933, "\u3055": 6934, "\u3056": 6935, "\u3057": 6936, "\u3058": 6937, "\u3059": 6938, "\u305a": 6939, "\u305b": 6940, "\u305c": 6941, "\u305d": 6942, "\u305e": 6943, "\u305f": 6944, "\u3060": 6945, "\u3061": 6946, "\u3062": 6947, "\u3063": 6948, "\u3064": 6949, "\u3065": 6950, "\u3066": 6951, "\u3067": 6952, "\u3068": 6953, "\u3069": 6954, "\u306a": 6955, "\u306b": 6956, "\u306c": 6957, "\u306d": 6958, "\u306e": 6959, "\u306f": 6960, "\u3070": 6961, "\u3071": 6962, "\u3072": 6963, "\u3073": 6964, "\u3074": 6965, "\u3075": 6966, "\u3076": 6967, "\u3077": 6968, "\u3078": 6969, "\u3079": 6970, "\u307a": 6971, "\u307b": 6972, "\u307c": 6973, "\u307d": 6974, "\u307e": 6975, "\u307f": 6976, "\u3080": 6977, "\u3081": 6978, "\u3082": 6979, "\u3083": 6980, "\u3084": 6981, "\u3085": 6982, "\u3086": 6983, "\u3087": 6984, "\u3088": 6985, "\u3089": 6986, "\u308a": 6987, "\u308b": 6988, "\u308c": 6989, "\u308d": 6990, "\u308e": 6991, "\u308f": 6992, "\u3090": 6993, "\u3091": 6994, "\u3092": 6995, "\u3093": 6996, "\u3094": 6997, "\u3095": 6998, "\u3096": 6999, "\u3097": 7000, "\u3098": 7001, "\u3099": 7002, "\u309a": 7003, "\u309b": 7004, "\u309c": 7005, "\u309d": 7006, "\u309e": 7007, "\u309f": 7008, "\u30a0": 7009, "\u30a1": 7010, "\u30a2": 7011, "\u30a3": 7012, "\u30a4": 7013, "\u30a5": 7014, "\u30a6": 7015, "\u30a7": 7016, "\u30a8": 7017, "\u30a9": 7018, "\u30aa": 7019, "\u30ab": 7020, "\u30ac": 7021, "\u30ad": 7022, "\u30ae": 7023, "\u30af": 7024, "\u30b0": 7025, "\u30b1": 7026, "\u30b2": 7027, "\u30b3": 7028, "\u30b4": 7029, "\u30b5": 7030, "\u30b6": 7031, "\u30b7": 7032, "\u30b8": 7033, "\u30b9": 7034, "\u30ba": 7035, "\u30bb": 7036, "\u30bc": 7037, "\u30bd": 7038, "\u30be": 7039, "\u30bf": 7040, "\u30c0": 7041, "\u30c1": 7042, "\u30c2": 7043, "\u30c3": 7044, "\u30c4": 7045, "\u30c5": 7046, "\u30c6": 7047, "\u30c7": 7048, "\u30c8": 7049, "\u30c9": 7050, "\u30ca": 7051, "\u30cb": 7052, "\u30cc": 7053, "\u30cd": 7054, "\u30ce": 7055, "\u30cf": 7056, "\u30d0": 7057, "\u30d1": 7058, "\u30d2": 7059, "\u30d3": 7060, "\u30d4": 7061, "\u30d5": 7062, "\u30d6": 7063, "\u30d7": 7064, "\u30d8": 7065, "\u30d9": 7066, "\u30da": 7067, "\u30db": 7068, "\u30dc": 7069, "\u30dd": 7070, "\u30de": 7071, "\u30df": 7072, "\u30e0": 7073, "\u30e1": 7074, "\u30e2": 7075, "\u30e3": 7076, "\u30e4": 7077, "\u30e5": 7078, "\u30e6": 7079, "\u30e7": 7080, "\u30e8": 7081, "\u30e9": 7082, "\u30ea": 7083, "\u30eb": 7084, "\u30ec": 7085, "\u30ed": 7086, "\u30ee": 7087, "\u30ef": 7088, "\u30f0": 7089, "\u30f1": 7090, "\u30f2": 7091, "\u30f3": 7092, "\u30f4": 7093, "\u30f5": 7094, "\u30f6": 7095, "\u30f7": 7096, "\u30f8": 7097, "\u30f9": 7098, "\u30fa": 7099, "\u30fb": 7100, "\u30fc": 7101, "\u30fd": 7102, "\u30fe": 7103, "\u30ff": 7104, "\u3100": 7105, "\u3101": 7106, "\u3102": 7107, "\u3103": 7108, "\u3104": 7109, "\u3105": 7110, "\u3106": 7111, "\u3107": 7112, "\u3108": 7113, "\u3109": 7114, "\u310a": 7115, "\u310b": 7116, "\u310c": 7117, "\u310d": 7118, "\u310e": 7119, "\u310f": 7120, "\u3110": 7121, "\u3111": 7122, "\u3112": 7123, "\u3113": 7124, "\u3114": 7125, "\u3115": 7126, "\u3116": 7127, "\u3117": 7128, "\u3118": 7129, "\u3119": 7130, "\u311a": 7131, "\u311b": 7132, "\u311c": 7133, "\u311d": 7134, "\u311e": 7135, "\u311f": 7136, "\u3120": 7137, "\u3121": 7138, "\u3122": 7139, "\u3123": 7140, "\u3124": 7141, "\u3125": 7142, "\u3126": 7143, "\u3127": 7144, "\u3128": 7145, "\u3129": 7146, "\u312a": 7147, "\u312b": 7148, "\u312c": 7149, "\u312d": 7150, "\u312e": 7151, "\u312f": 7152, "\u3220": 7153, "\u3221": 7154, "\u3222": 7155, "\u3223": 7156, "\u3224": 7157, "\u3225": 7158, "\u3226": 7159, "\u3227": 7160, "\u3228": 7161, "\u3229": 7162, "\u4e00": 7163, "\u4e01": 7164, "\u4e03": 7165, "\u4e07": 7166, "\u4e08": 7167, "\u4e09": 7168, "\u4e0a": 7169, "\u4e0b": 7170, "\u4e0c": 7171, "\u4e0d": 7172, "\u4e0e": 7173, "\u4e10": 7174, "\u4e11": 7175, "\u4e13": 7176, "\u4e14": 7177, "\u4e15": 7178, "\u4e16": 7179, "\u4e18": 7180, "\u4e19": 7181, "\u4e1a": 7182, "\u4e1b": 7183, "\u4e1c": 7184, "\u4e1d": 7185, "\u4e1e": 7186, "\u4e22": 7187, "\u4e24": 7188, "\u4e25": 7189, "\u4e27": 7190, "\u4e28": 7191, "\u4e2a": 7192, "\u4e2b": 7193, "\u4e2c": 7194, "\u4e2d": 7195, "\u4e30": 7196, "\u4e32": 7197, "\u4e34": 7198, "\u4e36": 7199, "\u4e38": 7200, "\u4e39": 7201, "\u4e3a": 7202, "\u4e3b": 7203, "\u4e3d": 7204, "\u4e3e": 7205, "\u4e3f": 7206, "\u4e43": 7207, "\u4e45": 7208, "\u4e47": 7209, "\u4e48": 7210, "\u4e49": 7211, "\u4e4b": 7212, "\u4e4c": 7213, "\u4e4d": 7214, "\u4e4e": 7215, "\u4e4f": 7216, "\u4e50": 7217, "\u4e52": 7218, "\u4e53": 7219, "\u4e54": 7220, "\u4e56": 7221, "\u4e58": 7222, "\u4e59": 7223, "\u4e5c": 7224, "\u4e5d": 7225, "\u4e5e": 7226, "\u4e5f": 7227, "\u4e60": 7228, "\u4e61": 7229, "\u4e66": 7230, "\u4e69": 7231, "\u4e70": 7232, "\u4e71": 7233, "\u4e73": 7234, "\u4e7e": 7235, "\u4e82": 7236, "\u4e86": 7237, "\u4e88": 7238, "\u4e89": 7239, "\u4e8b": 7240, "\u4e8c": 7241, "\u4e8d": 7242, "\u4e8e": 7243, "\u4e8f": 7244, "\u4e91": 7245, "\u4e92": 7246, "\u4e93": 7247, "\u4e94": 7248, "\u4e95": 7249, "\u4e98": 7250, "\u4e9a": 7251, "\u4e9b": 7252, "\u4e9e": 7253, "\u4e9f": 7254, "\u4ea0": 7255, "\u4ea1": 7256, "\u4ea2": 7257, "\u4ea4": 7258, "\u4ea5": 7259, "\u4ea6": 7260, "\u4ea7": 7261, "\u4ea8": 7262, "\u4ea9": 7263, "\u4eab": 7264, "\u4eac": 7265, "\u4ead": 7266, "\u4eae": 7267, "\u4eb2": 7268, "\u4eb3": 7269, "\u4eb5": 7270, "\u4eba": 7271, "\u4ebb": 7272, "\u4ebf": 7273, "\u4ec0": 7274, "\u4ec1": 7275, "\u4ec2": 7276, "\u4ec3": 7277, "\u4ec4": 7278, "\u4ec5": 7279, "\u4ec6": 7280, "\u4ec7": 7281, "\u4ec9": 7282, "\u4eca": 7283, "\u4ecb": 7284, "\u4ecd": 7285, "\u4ece": 7286, "\u4ed1": 7287, "\u4ed3": 7288, "\u4ed4": 7289, "\u4ed5": 7290, "\u4ed6": 7291, "\u4ed7": 7292, "\u4ed8": 7293, "\u4ed9": 7294, "\u4edd": 7295, "\u4ede": 7296, "\u4edf": 7297, "\u4ee1": 7298, "\u4ee3": 7299, "\u4ee4": 7300, "\u4ee5": 7301, "\u4ee8": 7302, "\u4eea": 7303, "\u4eeb": 7304, "\u4eec": 7305, "\u4ef0": 7306, "\u4ef2": 7307, "\u4ef3": 7308, "\u4ef5": 7309, "\u4ef6": 7310, "\u4ef7": 7311, "\u4efb": 7312, "\u4efd": 7313, "\u4eff": 7314, "\u4f01": 7315, "\u4f09": 7316, "\u4f0a": 7317, "\u4f0d": 7318, "\u4f0e": 7319, "\u4f0f": 7320, "\u4f10": 7321, "\u4f11": 7322, "\u4f17": 7323, "\u4f18": 7324, "\u4f19": 7325, "\u4f1a": 7326, "\u4f1b": 7327, "\u4f1e": 7328, "\u4f1f": 7329, "\u4f20": 7330, "\u4f22": 7331, "\u4f24": 7332, "\u4f25": 7333, "\u4f26": 7334, "\u4f27": 7335, "\u4f2a": 7336, "\u4f2b": 7337, "\u4f2f": 7338, "\u4f30": 7339, "\u4f32": 7340, "\u4f34": 7341, "\u4f36": 7342, "\u4f38": 7343, "\u4f3a": 7344, "\u4f3c": 7345, "\u4f3d": 7346, "\u4f43": 7347, "\u4f46": 7348, "\u4f47": 7349, "\u4f4d": 7350, "\u4f4e": 7351, "\u4f4f": 7352, "\u4f50": 7353, "\u4f51": 7354, "\u4f53": 7355, "\u4f55": 7356, "\u4f57": 7357, "\u4f58": 7358, "\u4f59": 7359, "\u4f5a": 7360, "\u4f5b": 7361, "\u4f5c": 7362, "\u4f5d": 7363, "\u4f5e": 7364, "\u4f5f": 7365, "\u4f60": 7366, "\u4f63": 7367, "\u4f64": 7368, "\u4f65": 7369, "\u4f67": 7370, "\u4f69": 7371, "\u4f6c": 7372, "\u4f6f": 7373, "\u4f70": 7374, "\u4f73": 7375, "\u4f74": 7376, "\u4f76": 7377, "\u4f7b": 7378, "\u4f7c": 7379, "\u4f7e": 7380, "\u4f7f": 7381, "\u4f83": 7382, "\u4f84": 7383, "\u4f86": 7384, "\u4f88": 7385, "\u4f89": 7386, "\u4f8b": 7387, "\u4f8d": 7388, "\u4f8f": 7389, "\u4f91": 7390, "\u4f94": 7391, "\u4f96": 7392, "\u4f97": 7393, "\u4f9b": 7394, "\u4f9d": 7395, "\u4fa0": 7396, "\u4fa3": 7397, "\u4fa5": 7398, "\u4fa6": 7399, "\u4fa7": 7400, "\u4fa8": 7401, "\u4fa9": 7402, "\u4faa": 7403, "\u4fac": 7404, "\u4fae": 7405, "\u4faf": 7406, "\u4fb5": 7407, "\u4fbf": 7408, "\u4fc2": 7409, "\u4fc3": 7410, "\u4fc4": 7411, "\u4fc5": 7412, "\u4fca": 7413, "\u4fce": 7414, "\u4fcf": 7415, "\u4fd0": 7416, "\u4fd1": 7417, "\u4fd7": 7418, "\u4fd8": 7419, "\u4fda": 7420, "\u4fdc": 7421, "\u4fdd": 7422, "\u4fde": 7423, "\u4fdf": 7424, "\u4fe0": 7425, "\u4fe1": 7426, "\u4fe3": 7427, "\u4fe6": 7428, "\u4fe8": 7429, "\u4fe9": 7430, "\u4fea": 7431, "\u4fed": 7432, "\u4fee": 7433, "\u4fef": 7434, "\u4ff1": 7435, "\u4ff3": 7436, "\u4ff8": 7437, "\u4ffa": 7438, "\u4ffe": 7439, "\u5000": 7440, "\u5006": 7441, "\u5009": 7442, "\u500b": 7443, "\u500c": 7444, "\u500d": 7445, "\u500f": 7446, "\u5011": 7447, "\u5012": 7448, "\u5014": 7449, "\u5018": 7450, "\u5019": 7451, "\u501a": 7452, "\u501c": 7453, "\u501f": 7454, "\u5021": 7455, "\u5025": 7456, "\u5026": 7457, "\u5028": 7458, "\u5029": 7459, "\u502a": 7460, "\u502b": 7461, "\u502c": 7462, "\u502d": 7463, "\u502e": 7464, "\u503a": 7465, "\u503c": 7466, "\u503e": 7467, "\u5043": 7468, "\u5047": 7469, "\u5048": 7470, "\u5049": 7471, "\u504c": 7472, "\u504e": 7473, "\u504f": 7474, "\u5055": 7475, "\u505a": 7476, "\u505c": 7477, "\u5065": 7478, "\u506c": 7479, "\u5074": 7480, "\u5075": 7481, "\u5076": 7482, "\u5077": 7483, "\u507b": 7484, "\u507e": 7485, "\u507f": 7486, "\u5080": 7487, "\u5085": 7488, "\u5088": 7489, "\u508d": 7490, "\u5096": 7491, "\u5098": 7492, "\u5099": 7493, "\u50a2": 7494, "\u50a3": 7495, "\u50a5": 7496, "\u50a7": 7497, "\u50a8": 7498, "\u50a9": 7499, "\u50ac": 7500, "\u50ad": 7501, "\u50b2": 7502, "\u50b3": 7503, "\u50b4": 7504, "\u50b5": 7505, "\u50b7": 7506, "\u50ba": 7507, "\u50bb": 7508, "\u50be": 7509, "\u50c2": 7510, "\u50c5": 7511, "\u50c9": 7512, "\u50cf": 7513, "\u50d1": 7514, "\u50d5": 7515, "\u50d6": 7516, "\u50da": 7517, "\u50de": 7518, "\u50e5": 7519, "\u50e6": 7520, "\u50e7": 7521, "\u50e8": 7522, "\u50ec": 7523, "\u50ed": 7524, "\u50ee": 7525, "\u50f3": 7526, "\u50f5": 7527, "\u50f9": 7528, "\u50fb": 7529, "\u5100": 7530, "\u5102": 7531, "\u5104": 7532, "\u5106": 7533, "\u5107": 7534, "\u5108": 7535, "\u5109": 7536, "\u510b": 7537, "\u5110": 7538, "\u5112": 7539, "\u5114": 7540, "\u5115": 7541, "\u5118": 7542, "\u511f": 7543, "\u5121": 7544, "\u512a": 7545, "\u5132": 7546, "\u5137": 7547, "\u513a": 7548, "\u513b": 7549, "\u513c": 7550, "\u513f": 7551, "\u5140": 7552, "\u5141": 7553, "\u5143": 7554, "\u5144": 7555, "\u5145": 7556, "\u5146": 7557, "\u5148": 7558, "\u5149": 7559, "\u514b": 7560, "\u514d": 7561, "\u5151": 7562, "\u5152": 7563, "\u5154": 7564, "\u5155": 7565, "\u5156": 7566, "\u515a": 7567, "\u515c": 7568, "\u5162": 7569, "\u5165": 7570, "\u5168": 7571, "\u5169": 7572, "\u516b": 7573, "\u516c": 7574, "\u516d": 7575, "\u516e": 7576, "\u5170": 7577, "\u5171": 7578, "\u5173": 7579, "\u5174": 7580, "\u5175": 7581, "\u5176": 7582, "\u5177": 7583, "\u5178": 7584, "\u5179": 7585, "\u517b": 7586, "\u517c": 7587, "\u517d": 7588, "\u5180": 7589, "\u5181": 7590, "\u5182": 7591, "\u5185": 7592, "\u5188": 7593, "\u5189": 7594, "\u518c": 7595, "\u518d": 7596, "\u5192": 7597, "\u5195": 7598, "\u5196": 7599, "\u5197": 7600, "\u5199": 7601, "\u519b": 7602, "\u519c": 7603, "\u51a0": 7604, "\u51a2": 7605, "\u51a4": 7606, "\u51a5": 7607, "\u51ab": 7608, "\u51ac": 7609, "\u51af": 7610, "\u51b0": 7611, "\u51b1": 7612, "\u51b2": 7613, "\u51b3": 7614, "\u51b5": 7615, "\u51b6": 7616, "\u51b7": 7617, "\u51bb": 7618, "\u51bc": 7619, "\u51bd": 7620, "\u51c0": 7621, "\u51c4": 7622, "\u51c6": 7623, "\u51c7": 7624, "\u51c8": 7625, "\u51c9": 7626, "\u51cb": 7627, "\u51cc": 7628, "\u51cd": 7629, "\u51cf": 7630, "\u51d1": 7631, "\u51db": 7632, "\u51dd": 7633, "\u51e0": 7634, "\u51e1": 7635, "\u51e4": 7636, "\u51eb": 7637, "\u51ed": 7638, "\u51ef": 7639, "\u51f0": 7640, "\u51f1": 7641, "\u51f3": 7642, "\u51f5": 7643, "\u51f6": 7644, "\u51f8": 7645, "\u51f9": 7646, "\u51fa": 7647, "\u51fb": 7648, "\u51fc": 7649, "\u51fd": 7650, "\u51ff": 7651, "\u5200": 7652, "\u5201": 7653, "\u5202": 7654, "\u5203": 7655, "\u5206": 7656, "\u5207": 7657, "\u5208": 7658, "\u520a": 7659, "\u520d": 7660, "\u520e": 7661, "\u5211": 7662, "\u5212": 7663, "\u5216": 7664, "\u5217": 7665, "\u5218": 7666, "\u5219": 7667, "\u521a": 7668, "\u521b": 7669, "\u521d": 7670, "\u5220": 7671, "\u5224": 7672, "\u5228": 7673, "\u5229": 7674, "\u522b": 7675, "\u522d": 7676, "\u522e": 7677, "\u5230": 7678, "\u5233": 7679, "\u5236": 7680, "\u5237": 7681, "\u5238": 7682, "\u5239": 7683, "\u523a": 7684, "\u523b": 7685, "\u523d": 7686, "\u523f": 7687, "\u5240": 7688, "\u5241": 7689, "\u5242": 7690, "\u5243": 7691, "\u5244": 7692, "\u5247": 7693, "\u524a": 7694, "\u524b": 7695, "\u524c": 7696, "\u524d": 7697, "\u5250": 7698, "\u5251": 7699, "\u5254": 7700, "\u5256": 7701, "\u525b": 7702, "\u525c": 7703, "\u525e": 7704, "\u5261": 7705, "\u5265": 7706, "\u5267": 7707, "\u5269": 7708, "\u526a": 7709, "\u526e": 7710, "\u526f": 7711, "\u5272": 7712, "\u5274": 7713, "\u5275": 7714, "\u527d": 7715, "\u527f": 7716, "\u5281": 7717, "\u5282": 7718, "\u5283": 7719, "\u5287": 7720, "\u5288": 7721, "\u5289": 7722, "\u528a": 7723, "\u528c": 7724, "\u528d": 7725, "\u5290": 7726, "\u5291": 7727, "\u5293": 7728, "\u529b": 7729, "\u529d": 7730, "\u529e": 7731, "\u529f": 7732, "\u52a0": 7733, "\u52a1": 7734, "\u52a2": 7735, "\u52a3": 7736, "\u52a8": 7737, "\u52a9": 7738, "\u52aa": 7739, "\u52ab": 7740, "\u52ac": 7741, "\u52ad": 7742, "\u52b1": 7743, "\u52b2": 7744, "\u52b3": 7745, "\u52be": 7746, "\u52bf": 7747, "\u52c1": 7748, "\u52c3": 7749, "\u52c7": 7750, "\u52c9": 7751, "\u52cb": 7752, "\u52d0": 7753, "\u52d2": 7754, "\u52d5": 7755, "\u52d6": 7756, "\u52d8": 7757, "\u52d9": 7758, "\u52db": 7759, "\u52dd": 7760, "\u52de": 7761, "\u52df": 7762, "\u52e2": 7763, "\u52e4": 7764, "\u52f0": 7765, "\u52f1": 7766, "\u52f5": 7767, "\u52f8": 7768, "\u52f9": 7769, "\u52fa": 7770, "\u52fe": 7771, "\u52ff": 7772, "\u5300": 7773, "\u5305": 7774, "\u5306": 7775, "\u5308": 7776, "\u530d": 7777, "\u530f": 7778, "\u5310": 7779, "\u5315": 7780, "\u5316": 7781, "\u5317": 7782, "\u5319": 7783, "\u531a": 7784, "\u531d": 7785, "\u5320": 7786, "\u5321": 7787, "\u5323": 7788, "\u5326": 7789, "\u532a": 7790, "\u532d": 7791, "\u532e": 7792, "\u532f": 7793, "\u5331": 7794, "\u5339": 7795, "\u533a": 7796, "\u533b": 7797, "\u533e": 7798, "\u533f": 7799, "\u5340": 7800, "\u5341": 7801, "\u5343": 7802, "\u5345": 7803, "\u5347": 7804, "\u5348": 7805, "\u5349": 7806, "\u534a": 7807, "\u534e": 7808, "\u534f": 7809, "\u5351": 7810, "\u5352": 7811, "\u5353": 7812, "\u5354": 7813, "\u5355": 7814, "\u5356": 7815, "\u5357": 7816, "\u535a": 7817, "\u535c": 7818, "\u535e": 7819, "\u535f": 7820, "\u5360": 7821, "\u5361": 7822, "\u5362": 7823, "\u5363": 7824, "\u5364": 7825, "\u5366": 7826, "\u5367": 7827, "\u5369": 7828, "\u536b": 7829, "\u536e": 7830, "\u536f": 7831, "\u5370": 7832, "\u5371": 7833, "\u5373": 7834, "\u5374": 7835, "\u5375": 7836, "\u5377": 7837, "\u5378": 7838, "\u537a": 7839, "\u537f": 7840, "\u5382": 7841, "\u5384": 7842, "\u5385": 7843, "\u5386": 7844, "\u5389": 7845, "\u538b": 7846, "\u538c": 7847, "\u538d": 7848, "\u5395": 7849, "\u5398": 7850, "\u5399": 7851, "\u539a": 7852, "\u539d": 7853, "\u539f": 7854, "\u53a0": 7855, "\u53a2": 7856, "\u53a3": 7857, "\u53a5": 7858, "\u53a6": 7859, "\u53a8": 7860, "\u53a9": 7861, "\u53ad": 7862, "\u53ae": 7863, "\u53b2": 7864, "\u53b4": 7865, "\u53b6": 7866, "\u53bb": 7867, "\u53bf": 7868, "\u53c1": 7869, "\u53c2": 7870, "\u53c3": 7871, "\u53c8": 7872, "\u53c9": 7873, "\u53ca": 7874, "\u53cb": 7875, "\u53cc": 7876, "\u53cd": 7877, "\u53d1": 7878, "\u53d4": 7879, "\u53d6": 7880, "\u53d7": 7881, "\u53d8": 7882, "\u53d9": 7883, "\u53db": 7884, "\u53df": 7885, "\u53e0": 7886, "\u53e2": 7887, "\u53e3": 7888, "\u53e4": 7889, "\u53e5": 7890, "\u53e6": 7891, "\u53e8": 7892, "\u53e9": 7893, "\u53ea": 7894, "\u53eb": 7895, "\u53ec": 7896, "\u53ed": 7897, "\u53ee": 7898, "\u53ef": 7899, "\u53f0": 7900, "\u53f1": 7901, "\u53f2": 7902, "\u53f3": 7903, "\u53f5": 7904, "\u53f6": 7905, "\u53f7": 7906, "\u53f8": 7907, "\u53f9": 7908, "\u53fb": 7909, "\u53fc": 7910, "\u53fd": 7911, "\u5401": 7912, "\u5403": 7913, "\u5404": 7914, "\u5406": 7915, "\u5408": 7916, "\u5409": 7917, "\u540a": 7918, "\u540c": 7919, "\u540d": 7920, "\u540e": 7921, "\u540f": 7922, "\u5410": 7923, "\u5411": 7924, "\u5412": 7925, "\u5413": 7926, "\u5415": 7927, "\u5416": 7928, "\u5417": 7929, "\u541b": 7930, "\u541d": 7931, "\u541e": 7932, "\u541f": 7933, "\u5420": 7934, "\u5421": 7935, "\u5423": 7936, "\u5426": 7937, "\u5427": 7938, "\u5428": 7939, "\u5429": 7940, "\u542b": 7941, "\u542c": 7942, "\u542d": 7943, "\u542e": 7944, "\u542f": 7945, "\u5431": 7946, "\u5432": 7947, "\u5434": 7948, "\u5435": 7949, "\u5438": 7950, "\u5439": 7951, "\u543b": 7952, "\u543c": 7953, "\u543e": 7954, "\u5440": 7955, "\u5443": 7956, "\u5446": 7957, "\u5448": 7958, "\u544a": 7959, "\u544b": 7960, "\u5450": 7961, "\u5452": 7962, "\u5453": 7963, "\u5454": 7964, "\u5455": 7965, "\u5456": 7966, "\u5457": 7967, "\u5458": 7968, "\u5459": 7969, "\u545b": 7970, "\u545c": 7971, "\u5462": 7972, "\u5464": 7973, "\u5466": 7974, "\u5468": 7975, "\u5471": 7976, "\u5472": 7977, "\u5473": 7978, "\u5475": 7979, "\u5476": 7980, "\u5477": 7981, "\u5478": 7982, "\u547b": 7983, "\u547c": 7984, "\u547d": 7985, "\u5480": 7986, "\u5482": 7987, "\u5484": 7988, "\u5486": 7989, "\u548b": 7990, "\u548c": 7991, "\u548e": 7992, "\u548f": 7993, "\u5490": 7994, "\u5492": 7995, "\u5494": 7996, "\u5495": 7997, "\u5496": 7998, "\u5499": 7999, "\u549a": 8000, "\u549b": 8001, "\u549d": 8002, "\u54a3": 8003, "\u54a4": 8004, "\u54a6": 8005, "\u54a7": 8006, "\u54a8": 8007, "\u54a9": 8008, "\u54aa": 8009, "\u54ab": 8010, "\u54ac": 8011, "\u54ad": 8012, "\u54af": 8013, "\u54b1": 8014, "\u54b3": 8015, "\u54b4": 8016, "\u54b8": 8017, "\u54bb": 8018, "\u54bc": 8019, "\u54bd": 8020, "\u54bf": 8021, "\u54c0": 8022, "\u54c1": 8023, "\u54c2": 8024, "\u54c4": 8025, "\u54c6": 8026, "\u54c7": 8027, "\u54c8": 8028, "\u54c9": 8029, "\u54cc": 8030, "\u54cd": 8031, "\u54ce": 8032, "\u54cf": 8033, "\u54d0": 8034, "\u54d1": 8035, "\u54d2": 8036, "\u54d3": 8037, "\u54d4": 8038, "\u54d5": 8039, "\u54d7": 8040, "\u54d9": 8041, "\u54da": 8042, "\u54dc": 8043, "\u54dd": 8044, "\u54de": 8045, "\u54df": 8046, "\u54e1": 8047, "\u54e5": 8048, "\u54e6": 8049, "\u54e7": 8050, "\u54e8": 8051, "\u54e9": 8052, "\u54ea": 8053, "\u54ed": 8054, "\u54ee": 8055, "\u54f2": 8056, "\u54f3": 8057, "\u54fa": 8058, "\u54fc": 8059, "\u54fd": 8060, "\u54ff": 8061, "\u5501": 8062, "\u5504": 8063, "\u5506": 8064, "\u5507": 8065, "\u5509": 8066, "\u550f": 8067, "\u5510": 8068, "\u5511": 8069, "\u5514": 8070, "\u551b": 8071, "\u5520": 8072, "\u5522": 8073, "\u5523": 8074, "\u5524": 8075, "\u5527": 8076, "\u552a": 8077, "\u552c": 8078, "\u552e": 8079, "\u552f": 8080, "\u5530": 8081, "\u5531": 8082, "\u5533": 8083, "\u5537": 8084, "\u553c": 8085, "\u553e": 8086, "\u553f": 8087, "\u5541": 8088, "\u5543": 8089, "\u5544": 8090, "\u5546": 8091, "\u5549": 8092, "\u554a": 8093, "\u554f": 8094, "\u5550": 8095, "\u5553": 8096, "\u5555": 8097, "\u5556": 8098, "\u555c": 8099, "\u555e": 8100, "\u5561": 8101, "\u5564": 8102, "\u5565": 8103, "\u5566": 8104, "\u5567": 8105, "\u556a": 8106, "\u556c": 8107, "\u556d": 8108, "\u556e": 8109, "\u5575": 8110, "\u5576": 8111, "\u5577": 8112, "\u5578": 8113, "\u557b": 8114, "\u557c": 8115, "\u557e": 8116, "\u5580": 8117, "\u5581": 8118, "\u5582": 8119, "\u5583": 8120, "\u5584": 8121, "\u5587": 8122, "\u5588": 8123, "\u5589": 8124, "\u558a": 8125, "\u558b": 8126, "\u558f": 8127, "\u5591": 8128, "\u5594": 8129, "\u5598": 8130, "\u5599": 8131, "\u559a": 8132, "\u559c": 8133, "\u559d": 8134, "\u559f": 8135, "\u55a7": 8136, "\u55aa": 8137, "\u55ac": 8138, "\u55ae": 8139, "\u55b1": 8140, "\u55b2": 8141, "\u55b3": 8142, "\u55b5": 8143, "\u55b7": 8144, "\u55b9": 8145, "\u55bb": 8146, "\u55bd": 8147, "\u55be": 8148, "\u55c4": 8149, "\u55c5": 8150, "\u55c6": 8151, "\u55c7": 8152, "\u55c9": 8153, "\u55cc": 8154, "\u55cd": 8155, "\u55ce": 8156, "\u55d1": 8157, "\u55d2": 8158, "\u55d3": 8159, "\u55d4": 8160, "\u55d6": 8161, "\u55da": 8162, "\u55dc": 8163, "\u55dd": 8164, "\u55df": 8165, "\u55e1": 8166, "\u55e3": 8167, "\u55e4": 8168, "\u55e5": 8169, "\u55e6": 8170, "\u55e8": 8171, "\u55e9": 8172, "\u55ea": 8173, "\u55eb": 8174, "\u55ec": 8175, "\u55ef": 8176, "\u55f2": 8177, "\u55f3": 8178, "\u55f5": 8179, "\u55f6": 8180, "\u55f7": 8181, "\u55fd": 8182, "\u55fe": 8183, "\u5600": 8184, "\u5601": 8185, "\u5606": 8186, "\u5608": 8187, "\u5609": 8188, "\u560c": 8189, "\u560d": 8190, "\u560e": 8191, "\u560f": 8192, "\u5614": 8193, "\u5616": 8194, "\u5617": 8195, "\u5618": 8196, "\u561b": 8197, "\u561c": 8198, "\u561e": 8199, "\u561f": 8200, "\u5623": 8201, "\u5624": 8202, "\u5627": 8203, "\u5629": 8204, "\u562c": 8205, "\u562d": 8206, "\u562e": 8207, "\u562f": 8208, "\u5630": 8209, "\u5631": 8210, "\u5632": 8211, "\u5634": 8212, "\u5635": 8213, "\u5636": 8214, "\u5638": 8215, "\u5639": 8216, "\u563b": 8217, "\u563f": 8218, "\u5641": 8219, "\u564c": 8220, "\u564d": 8221, "\u564e": 8222, "\u5654": 8223, "\u5657": 8224, "\u5658": 8225, "\u5659": 8226, "\u565c": 8227, "\u565d": 8228, "\u5660": 8229, "\u5662": 8230, "\u5664": 8231, "\u5665": 8232, "\u5666": 8233, "\u5668": 8234, "\u5669": 8235, "\u566a": 8236, "\u566b": 8237, "\u566c": 8238, "\u566f": 8239, "\u5671": 8240, "\u5672": 8241, "\u5674": 8242, "\u5676": 8243, "\u5678": 8244, "\u5679": 8245, "\u567b": 8246, "\u567c": 8247, "\u5680": 8248, "\u5685": 8249, "\u5686": 8250, "\u5687": 8251, "\u568c": 8252, "\u568e": 8253, "\u568f": 8254, "\u5693": 8255, "\u5695": 8256, "\u5699": 8257, "\u56a3": 8258, "\u56a6": 8259, "\u56a8": 8260, "\u56ae": 8261, "\u56af": 8262, "\u56b3": 8263, "\u56b4": 8264, "\u56b6": 8265, "\u56b7": 8266, "\u56bc": 8267, "\u56c0": 8268, "\u56c1": 8269, "\u56c2": 8270, "\u56c5": 8271, "\u56c8": 8272, "\u56c9": 8273, "\u56ca": 8274, "\u56cc": 8275, "\u56d1": 8276, "\u56d4": 8277, "\u56d7": 8278, "\u56da": 8279, "\u56db": 8280, "\u56dd": 8281, "\u56de": 8282, "\u56df": 8283, "\u56e0": 8284, "\u56e1": 8285, "\u56e2": 8286, "\u56e4": 8287, "\u56eb": 8288, "\u56ed": 8289, "\u56f0": 8290, "\u56f1": 8291, "\u56f4": 8292, "\u56f5": 8293, "\u56f9": 8294, "\u56fa": 8295, "\u56fd": 8296, "\u56fe": 8297, "\u56ff": 8298, "\u5703": 8299, "\u5704": 8300, "\u5706": 8301, "\u5707": 8302, "\u5708": 8303, "\u5709": 8304, "\u570a": 8305, "\u570b": 8306, "\u570d": 8307, "\u5712": 8308, "\u5713": 8309, "\u5716": 8310, "\u5718": 8311, "\u571c": 8312, "\u571f": 8313, "\u5723": 8314, "\u5728": 8315, "\u5729": 8316, "\u572a": 8317, "\u572c": 8318, "\u572d": 8319, "\u572e": 8320, "\u572f": 8321, "\u5730": 8322, "\u5733": 8323, "\u5739": 8324, "\u573a": 8325, "\u573b": 8326, "\u573e": 8327, "\u5740": 8328, "\u5742": 8329, "\u5747": 8330, "\u574a": 8331, "\u574c": 8332, "\u574d": 8333, "\u574e": 8334, "\u574f": 8335, "\u5750": 8336, "\u5751": 8337, "\u5757": 8338, "\u575a": 8339, "\u575b": 8340, "\u575c": 8341, "\u575d": 8342, "\u575e": 8343, "\u575f": 8344, "\u5760": 8345, "\u5761": 8346, "\u5764": 8347, "\u5766": 8348, "\u5768": 8349, "\u5769": 8350, "\u576a": 8351, "\u576b": 8352, "\u576d": 8353, "\u576f": 8354, "\u5773": 8355, "\u5776": 8356, "\u5777": 8357, "\u577b": 8358, "\u577c": 8359, "\u5782": 8360, "\u5783": 8361, "\u5784": 8362, "\u5785": 8363, "\u5786": 8364, "\u578b": 8365, "\u578c": 8366, "\u5792": 8367, "\u5793": 8368, "\u579b": 8369, "\u57a0": 8370, "\u57a1": 8371, "\u57a2": 8372, "\u57a3": 8373, "\u57a4": 8374, "\u57a6": 8375, "\u57a7": 8376, "\u57a9": 8377, "\u57ab": 8378, "\u57ad": 8379, "\u57ae": 8380, "\u57b2": 8381, "\u57b4": 8382, "\u57b8": 8383, "\u57c2": 8384, "\u57c3": 8385, "\u57cb": 8386, "\u57ce": 8387, "\u57cf": 8388, "\u57d2": 8389, "\u57d4": 8390, "\u57d5": 8391, "\u57d8": 8392, "\u57d9": 8393, "\u57da": 8394, "\u57dd": 8395, "\u57df": 8396, "\u57e0": 8397, "\u57e1": 8398, "\u57e4": 8399, "\u57ed": 8400, "\u57ef": 8401, "\u57f4": 8402, "\u57f7": 8403, "\u57f8": 8404, "\u57f9": 8405, "\u57fa": 8406, "\u57fd": 8407, "\u5800": 8408, "\u5802": 8409, "\u5805": 8410, "\u5806": 8411, "\u5807": 8412, "\u580a": 8413, "\u580b": 8414, "\u580d": 8415, "\u5811": 8416, "\u5815": 8417, "\u5816": 8418, "\u5819": 8419, "\u581d": 8420, "\u581e": 8421, "\u5820": 8422, "\u5821": 8423, "\u5824": 8424, "\u582a": 8425, "\u582f": 8426, "\u5830": 8427, "\u5831": 8428, "\u5834": 8429, "\u5835": 8430, "\u5844": 8431, "\u584a": 8432, "\u584b": 8433, "\u584c": 8434, "\u584d": 8435, "\u584f": 8436, "\u5851": 8437, "\u5852": 8438, "\u5854": 8439, "\u5857": 8440, "\u5858": 8441, "\u585e": 8442, "\u5862": 8443, "\u5864": 8444, "\u5865": 8445, "\u586b": 8446, "\u586c": 8447, "\u5875": 8448, "\u5879": 8449, "\u587e": 8450, "\u5880": 8451, "\u5881": 8452, "\u5883": 8453, "\u5885": 8454, "\u5889": 8455, "\u588a": 8456, "\u5892": 8457, "\u5893": 8458, "\u5899": 8459, "\u589a": 8460, "\u589c": 8461, "\u589e": 8462, "\u589f": 8463, "\u58a8": 8464, "\u58a9": 8465, "\u58ae": 8466, "\u58b3": 8467, "\u58bb": 8468, "\u58bc": 8469, "\u58be": 8470, "\u58c1": 8471, "\u58c5": 8472, "\u58c7": 8473, "\u58d1": 8474, "\u58d3": 8475, "\u58d5": 8476, "\u58d8": 8477, "\u58d9": 8478, "\u58da": 8479, "\u58de": 8480, "\u58df": 8481, "\u58e0": 8482, "\u58e2": 8483, "\u58e4": 8484, "\u58e9": 8485, "\u58eb": 8486, "\u58ec": 8487, "\u58ee": 8488, "\u58ef": 8489, "\u58f0": 8490, "\u58f3": 8491, "\u58f6": 8492, "\u58f9": 8493, "\u58fa": 8494, "\u58fd": 8495, "\u5902": 8496, "\u5904": 8497, "\u5907": 8498, "\u590d": 8499, "\u590f": 8500, "\u5914": 8501, "\u5915": 8502, "\u5916": 8503, "\u5919": 8504, "\u591a": 8505, "\u591c": 8506, "\u591f": 8507, "\u5922": 8508, "\u5924": 8509, "\u5925": 8510, "\u5927": 8511, "\u5929": 8512, "\u592a": 8513, "\u592b": 8514, "\u592d": 8515, "\u592e": 8516, "\u592f": 8517, "\u5931": 8518, "\u5934": 8519, "\u5937": 8520, "\u5938": 8521, "\u5939": 8522, "\u593a": 8523, "\u593c": 8524, "\u593e": 8525, "\u5941": 8526, "\u5942": 8527, "\u5944": 8528, "\u5947": 8529, "\u5948": 8530, "\u5949": 8531, "\u594b": 8532, "\u594e": 8533, "\u594f": 8534, "\u5950": 8535, "\u5951": 8536, "\u5954": 8537, "\u5955": 8538, "\u5956": 8539, "\u5957": 8540, "\u5958": 8541, "\u595a": 8542, "\u5960": 8543, "\u5962": 8544, "\u5965": 8545, "\u5969": 8546, "\u596a": 8547, "\u596c": 8548, "\u596e": 8549, "\u5973": 8550, "\u5974": 8551, "\u5976": 8552, "\u5978": 8553, "\u5979": 8554, "\u597d": 8555, "\u5981": 8556, "\u5982": 8557, "\u5983": 8558, "\u5984": 8559, "\u5986": 8560, "\u5987": 8561, "\u5988": 8562, "\u598a": 8563, "\u598d": 8564, "\u5992": 8565, "\u5993": 8566, "\u5996": 8567, "\u5997": 8568, "\u5999": 8569, "\u599d": 8570, "\u599e": 8571, "\u59a3": 8572, "\u59a4": 8573, "\u59a5": 8574, "\u59a8": 8575, "\u59a9": 8576, "\u59aa": 8577, "\u59ab": 8578, "\u59ae": 8579, "\u59af": 8580, "\u59b2": 8581, "\u59b9": 8582, "\u59bb": 8583, "\u59be": 8584, "\u59c6": 8585, "\u59ca": 8586, "\u59cb": 8587, "\u59d0": 8588, "\u59d1": 8589, "\u59d2": 8590, "\u59d3": 8591, "\u59d4": 8592, "\u59d7": 8593, "\u59d8": 8594, "\u59da": 8595, "\u59dc": 8596, "\u59dd": 8597, "\u59e3": 8598, "\u59e5": 8599, "\u59e8": 8600, "\u59ec": 8601, "\u59f9": 8602, "\u59fb": 8603, "\u59ff": 8604, "\u5a01": 8605, "\u5a03": 8606, "\u5a04": 8607, "\u5a05": 8608, "\u5a06": 8609, "\u5a07": 8610, "\u5a08": 8611, "\u5a09": 8612, "\u5a0c": 8613, "\u5a11": 8614, "\u5a13": 8615, "\u5a18": 8616, "\u5a1c": 8617, "\u5a1f": 8618, "\u5a20": 8619, "\u5a23": 8620, "\u5a25": 8621, "\u5a29": 8622, "\u5a31": 8623, "\u5a32": 8624, "\u5a34": 8625, "\u5a36": 8626, "\u5a3c": 8627, "\u5a40": 8628, "\u5a41": 8629, "\u5a46": 8630, "\u5a49": 8631, "\u5a4a": 8632, "\u5a55": 8633, "\u5a5a": 8634, "\u5a62": 8635, "\u5a66": 8636, "\u5a67": 8637, "\u5a6a": 8638, "\u5a6d": 8639, "\u5a74": 8640, "\u5a75": 8641, "\u5a76": 8642, "\u5a77": 8643, "\u5a7a": 8644, "\u5a7f": 8645, "\u5a92": 8646, "\u5a9a": 8647, "\u5a9b": 8648, "\u5aa7": 8649, "\u5aaa": 8650, "\u5ab2": 8651, "\u5ab3": 8652, "\u5ab5": 8653, "\u5ab8": 8654, "\u5abd": 8655, "\u5abe": 8656, "\u5ac1": 8657, "\u5ac2": 8658, "\u5ac9": 8659, "\u5acc": 8660, "\u5ad2": 8661, "\u5ad4": 8662, "\u5ad6": 8663, "\u5ad7": 8664, "\u5ad8": 8665, "\u5adc": 8666, "\u5ae0": 8667, "\u5ae1": 8668, "\u5ae3": 8669, "\u5ae6": 8670, "\u5ae9": 8671, "\u5aeb": 8672, "\u5af1": 8673, "\u5af5": 8674, "\u5afb": 8675, "\u5b00": 8676, "\u5b08": 8677, "\u5b09": 8678, "\u5b0b": 8679, "\u5b0c": 8680, "\u5b16": 8681, "\u5b17": 8682, "\u5b19": 8683, "\u5b21": 8684, "\u5b2a": 8685, "\u5b30": 8686, "\u5b32": 8687, "\u5b34": 8688, "\u5b37": 8689, "\u5b38": 8690, "\u5b40": 8691, "\u5b4c": 8692, "\u5b50": 8693, "\u5b51": 8694, "\u5b53": 8695, "\u5b54": 8696, "\u5b55": 8697, "\u5b57": 8698, "\u5b58": 8699, "\u5b59": 8700, "\u5b5a": 8701, "\u5b5b": 8702, "\u5b5c": 8703, "\u5b5d": 8704, "\u5b5f": 8705, "\u5b62": 8706, "\u5b63": 8707, "\u5b64": 8708, "\u5b65": 8709, "\u5b66": 8710, "\u5b69": 8711, "\u5b6a": 8712, "\u5b6b": 8713, "\u5b6c": 8714, "\u5b70": 8715, "\u5b71": 8716, "\u5b73": 8717, "\u5b75": 8718, "\u5b78": 8719, "\u5b7a": 8720, "\u5b7d": 8721, "\u5b7f": 8722, "\u5b80": 8723, "\u5b81": 8724, "\u5b83": 8725, "\u5b84": 8726, "\u5b85": 8727, "\u5b87": 8728, "\u5b88": 8729, "\u5b89": 8730, "\u5b8b": 8731, "\u5b8c": 8732, "\u5b8f": 8733, "\u5b93": 8734, "\u5b95": 8735, "\u5b97": 8736, "\u5b98": 8737, "\u5b99": 8738, "\u5b9a": 8739, "\u5b9b": 8740, "\u5b9c": 8741, "\u5b9d": 8742, "\u5b9e": 8743, "\u5ba0": 8744, "\u5ba1": 8745, "\u5ba2": 8746, "\u5ba3": 8747, "\u5ba4": 8748, "\u5ba5": 8749, "\u5ba6": 8750, "\u5baa": 8751, "\u5bab": 8752, "\u5bb0": 8753, "\u5bb3": 8754, "\u5bb4": 8755, "\u5bb5": 8756, "\u5bb6": 8757, "\u5bb8": 8758, "\u5bb9": 8759, "\u5bbd": 8760, "\u5bbe": 8761, "\u5bbf": 8762, "\u5bc2": 8763, "\u5bc4": 8764, "\u5bc5": 8765, "\u5bc6": 8766, "\u5bc7": 8767, "\u5bcc": 8768, "\u5bd0": 8769, "\u5bd2": 8770, "\u5bd3": 8771, "\u5bdd": 8772, "\u5bde": 8773, "\u5bdf": 8774, "\u5be1": 8775, "\u5be2": 8776, "\u5be4": 8777, "\u5be5": 8778, "\u5be6": 8779, "\u5be7": 8780, "\u5be8": 8781, "\u5be9": 8782, "\u5beb": 8783, "\u5bec": 8784, "\u5bee": 8785, "\u5bf0": 8786, "\u5bf5": 8787, "\u5bf6": 8788, "\u5bf8": 8789, "\u5bf9": 8790, "\u5bfa": 8791, "\u5bfb": 8792, "\u5bfc": 8793, "\u5bff": 8794, "\u5c01": 8795, "\u5c04": 8796, "\u5c06": 8797, "\u5c07": 8798, "\u5c08": 8799, "\u5c09": 8800, "\u5c0a": 8801, "\u5c0b": 8802, "\u5c0d": 8803, "\u5c0e": 8804, "\u5c0f": 8805, "\u5c11": 8806, "\u5c14": 8807, "\u5c15": 8808, "\u5c16": 8809, "\u5c18": 8810, "\u5c1a": 8811, "\u5c1c": 8812, "\u5c1d": 8813, "\u5c22": 8814, "\u5c24": 8815, "\u5c25": 8816, "\u5c27": 8817, "\u5c2c": 8818, "\u5c31": 8819, "\u5c34": 8820, "\u5c37": 8821, "\u5c38": 8822, "\u5c39": 8823, "\u5c3a": 8824, "\u5c3b": 8825, "\u5c3c": 8826, "\u5c3d": 8827, "\u5c3e": 8828, "\u5c3f": 8829, "\u5c40": 8830, "\u5c41": 8831, "\u5c42": 8832, "\u5c45": 8833, "\u5c48": 8834, "\u5c49": 8835, "\u5c4a": 8836, "\u5c4b": 8837, "\u5c4e": 8838, "\u5c4f": 8839, "\u5c50": 8840, "\u5c51": 8841, "\u5c55": 8842, "\u5c59": 8843, "\u5c5e": 8844, "\u5c60": 8845, "\u5c61": 8846, "\u5c62": 8847, "\u5c63": 8848, "\u5c64": 8849, "\u5c65": 8850, "\u5c66": 8851, "\u5c68": 8852, "\u5c6c": 8853, "\u5c6e": 8854, "\u5c6f": 8855, "\u5c71": 8856, "\u5c79": 8857, "\u5c7a": 8858, "\u5c7f": 8859, "\u5c81": 8860, "\u5c82": 8861, "\u5c88": 8862, "\u5c8c": 8863, "\u5c8d": 8864, "\u5c90": 8865, "\u5c91": 8866, "\u5c94": 8867, "\u5c96": 8868, "\u5c97": 8869, "\u5c98": 8870, "\u5c99": 8871, "\u5c9a": 8872, "\u5c9b": 8873, "\u5c9c": 8874, "\u5ca1": 8875, "\u5ca2": 8876, "\u5ca3": 8877, "\u5ca9": 8878, "\u5cab": 8879, "\u5cac": 8880, "\u5cad": 8881, "\u5cb1": 8882, "\u5cb3": 8883, "\u5cb5": 8884, "\u5cb7": 8885, "\u5cb8": 8886, "\u5cbd": 8887, "\u5cbf": 8888, "\u5cc1": 8889, "\u5cc4": 8890, "\u5ccb": 8891, "\u5cd2": 8892, "\u5cd9": 8893, "\u5ce1": 8894, "\u5ce4": 8895, "\u5ce5": 8896, "\u5ce6": 8897, "\u5ce8": 8898, "\u5cea": 8899, "\u5ced": 8900, "\u5cf0": 8901, "\u5cf4": 8902, "\u5cf6": 8903, "\u5cfb": 8904, "\u5cfd": 8905, "\u5d02": 8906, "\u5d03": 8907, "\u5d06": 8908, "\u5d07": 8909, "\u5d0d": 8910, "\u5d0e": 8911, "\u5d14": 8912, "\u5d16": 8913, "\u5d17": 8914, "\u5d1b": 8915, "\u5d1e": 8916, "\u5d22": 8917, "\u5d24": 8918, "\u5d26": 8919, "\u5d27": 8920, "\u5d29": 8921, "\u5d2c": 8922, "\u5d2d": 8923, "\u5d2e": 8924, "\u5d34": 8925, "\u5d3d": 8926, "\u5d3e": 8927, "\u5d47": 8928, "\u5d4a": 8929, "\u5d4b": 8930, "\u5d4c": 8931, "\u5d50": 8932, "\u5d58": 8933, "\u5d5b": 8934, "\u5d5d": 8935, "\u5d69": 8936, "\u5d6b": 8937, "\u5d6c": 8938, "\u5d6f": 8939, "\u5d74": 8940, "\u5d81": 8941, "\u5d82": 8942, "\u5d84": 8943, "\u5d87": 8944, "\u5d97": 8945, "\u5d99": 8946, "\u5d9d": 8947, "\u5da0": 8948, "\u5da7": 8949, "\u5db7": 8950, "\u5db8": 8951, "\u5dba": 8952, "\u5dbc": 8953, "\u5dc5": 8954, "\u5dcb": 8955, "\u5dcd": 8956, "\u5dd2": 8957, "\u5dd4": 8958, "\u5ddb": 8959, "\u5ddd": 8960, "\u5dde": 8961, "\u5de1": 8962, "\u5de2": 8963, "\u5de5": 8964, "\u5de6": 8965, "\u5de7": 8966, "\u5de8": 8967, "\u5de9": 8968, "\u5deb": 8969, "\u5dee": 8970, "\u5def": 8971, "\u5df0": 8972, "\u5df1": 8973, "\u5df2": 8974, "\u5df3": 8975, "\u5df4": 8976, "\u5df7": 8977, "\u5dfd": 8978, "\u5dfe": 8979, "\u5e01": 8980, "\u5e02": 8981, "\u5e03": 8982, "\u5e05": 8983, "\u5e06": 8984, "\u5e08": 8985, "\u5e0c": 8986, "\u5e0f": 8987, "\u5e10": 8988, "\u5e11": 8989, "\u5e14": 8990, "\u5e15": 8991, "\u5e16": 8992, "\u5e18": 8993, "\u5e19": 8994, "\u5e1a": 8995, "\u5e1b": 8996, "\u5e1c": 8997, "\u5e1d": 8998, "\u5e25": 8999, "\u5e26": 9000, "\u5e27": 9001, "\u5e2b": 9002, "\u5e2d": 9003, "\u5e2e": 9004, "\u5e31": 9005, "\u5e33": 9006, "\u5e36": 9007, "\u5e37": 9008, "\u5e38": 9009, "\u5e3b": 9010, "\u5e3c": 9011, "\u5e3d": 9012, "\u5e40": 9013, "\u5e42": 9014, "\u5e43": 9015, "\u5e44": 9016, "\u5e45": 9017, "\u5e4c": 9018, "\u5e54": 9019, "\u5e55": 9020, "\u5e57": 9021, "\u5e58": 9022, "\u5e5b": 9023, "\u5e5e": 9024, "\u5e5f": 9025, "\u5e61": 9026, "\u5e62": 9027, "\u5e63": 9028, "\u5e6b": 9029, "\u5e6c": 9030, "\u5e72": 9031, "\u5e73": 9032, "\u5e74": 9033, "\u5e76": 9034, "\u5e78": 9035, "\u5e79": 9036, "\u5e7a": 9037, "\u5e7b": 9038, "\u5e7c": 9039, "\u5e7d": 9040, "\u5e7e": 9041, "\u5e7f": 9042, "\u5e80": 9043, "\u5e84": 9044, "\u5e86": 9045, "\u5e87": 9046, "\u5e8a": 9047, "\u5e8b": 9048, "\u5e8f": 9049, "\u5e90": 9050, "\u5e91": 9051, "\u5e93": 9052, "\u5e94": 9053, "\u5e95": 9054, "\u5e96": 9055, "\u5e97": 9056, "\u5e99": 9057, "\u5e9a": 9058, "\u5e9c": 9059, "\u5e9e": 9060, "\u5e9f": 9061, "\u5ea0": 9062, "\u5ea5": 9063, "\u5ea6": 9064, "\u5ea7": 9065, "\u5eab": 9066, "\u5ead": 9067, "\u5eb3": 9068, "\u5eb5": 9069, "\u5eb6": 9070, "\u5eb7": 9071, "\u5eb8": 9072, "\u5eb9": 9073, "\u5ebe": 9074, "\u5ec9": 9075, "\u5eca": 9076, "\u5ed1": 9077, "\u5ed2": 9078, "\u5ed3": 9079, "\u5ed6": 9080, "\u5edb": 9081, "\u5edf": 9082, "\u5ee0": 9083, "\u5ee1": 9084, "\u5ee2": 9085, "\u5ee3": 9086, "\u5ee8": 9087, "\u5eea": 9088, "\u5eec": 9089, "\u5ef3": 9090, "\u5ef4": 9091, "\u5ef6": 9092, "\u5ef7": 9093, "\u5efa": 9094, "\u5efe": 9095, "\u5eff": 9096, "\u5f00": 9097, "\u5f01": 9098, "\u5f02": 9099, "\u5f03": 9100, "\u5f04": 9101, "\u5f08": 9102, "\u5f0a": 9103, "\u5f0b": 9104, "\u5f0f": 9105, "\u5f11": 9106, "\u5f13": 9107, "\u5f15": 9108, "\u5f17": 9109, "\u5f18": 9110, "\u5f1b": 9111, "\u5f1f": 9112, "\u5f20": 9113, "\u5f25": 9114, "\u5f26": 9115, "\u5f27": 9116, "\u5f29": 9117, "\u5f2a": 9118, "\u5f2d": 9119, "\u5f2f": 9120, "\u5f31": 9121, "\u5f33": 9122, "\u5f35": 9123, "\u5f39": 9124, "\u5f3a": 9125, "\u5f3c": 9126, "\u5f40": 9127, "\u5f46": 9128, "\u5f48": 9129, "\u5f4c": 9130, "\u5f4e": 9131, "\u5f50": 9132, "\u5f52": 9133, "\u5f53": 9134, "\u5f55": 9135, "\u5f56": 9136, "\u5f57": 9137, "\u5f58": 9138, "\u5f59": 9139, "\u5f5d": 9140, "\u5f61": 9141, "\u5f62": 9142, "\u5f64": 9143, "\u5f66": 9144, "\u5f69": 9145, "\u5f6a": 9146, "\u5f6c": 9147, "\u5f6d": 9148, "\u5f70": 9149, "\u5f71": 9150, "\u5f73": 9151, "\u5f77": 9152, "\u5f79": 9153, "\u5f7b": 9154, "\u5f7c": 9155, "\u5f80": 9156, "\u5f81": 9157, "\u5f82": 9158, "\u5f84": 9159, "\u5f85": 9160, "\u5f87": 9161, "\u5f88": 9162, "\u5f89": 9163, "\u5f8a": 9164, "\u5f8b": 9165, "\u5f8c": 9166, "\u5f90": 9167, "\u5f91": 9168, "\u5f92": 9169, "\u5f95": 9170, "\u5f97": 9171, "\u5f98": 9172, "\u5f99": 9173, "\u5f9c": 9174, "\u5f9e": 9175, "\u5fa0": 9176, "\u5fa1": 9177, "\u5fa8": 9178, "\u5fa9": 9179, "\u5faa": 9180, "\u5fad": 9181, "\u5fae": 9182, "\u5fb5": 9183, "\u5fb7": 9184, "\u5fb9": 9185, "\u5fbc": 9186, "\u5fbd": 9187, "\u5fc3": 9188, "\u5fc4": 9189, "\u5fc5": 9190, "\u5fc6": 9191, "\u5fc9": 9192, "\u5fcc": 9193, "\u5fcd": 9194, "\u5fcf": 9195, "\u5fd0": 9196, "\u5fd1": 9197, "\u5fd2": 9198, "\u5fd6": 9199, "\u5fd7": 9200, "\u5fd8": 9201, "\u5fd9": 9202, "\u5fdd": 9203, "\u5fe0": 9204, "\u5fe1": 9205, "\u5fe4": 9206, "\u5fe7": 9207, "\u5fea": 9208, "\u5feb": 9209, "\u5fed": 9210, "\u5fee": 9211, "\u5ff1": 9212, "\u5ff5": 9213, "\u5ff8": 9214, "\u5ffb": 9215, "\u5ffd": 9216, "\u5ffe": 9217, "\u5fff": 9218, "\u6000": 9219, "\u6001": 9220, "\u6002": 9221, "\u6003": 9222, "\u6004": 9223, "\u6005": 9224, "\u6006": 9225, "\u600a": 9226, "\u600d": 9227, "\u600e": 9228, "\u600f": 9229, "\u6012": 9230, "\u6014": 9231, "\u6015": 9232, "\u6016": 9233, "\u6019": 9234, "\u601b": 9235, "\u601c": 9236, "\u601d": 9237, "\u6020": 9238, "\u6021": 9239, "\u6025": 9240, "\u6026": 9241, "\u6027": 9242, "\u6028": 9243, "\u6029": 9244, "\u602a": 9245, "\u602b": 9246, "\u602f": 9247, "\u6035": 9248, "\u603b": 9249, "\u603c": 9250, "\u603f": 9251, "\u6041": 9252, "\u6042": 9253, "\u6043": 9254, "\u604b": 9255, "\u604d": 9256, "\u6050": 9257, "\u6052": 9258, "\u6055": 9259, "\u6059": 9260, "\u605a": 9261, "\u605d": 9262, "\u6062": 9263, "\u6063": 9264, "\u6064": 9265, "\u6067": 9266, "\u6068": 9267, "\u6069": 9268, "\u606a": 9269, "\u606b": 9270, "\u606c": 9271, "\u606d": 9272, "\u606f": 9273, "\u6070": 9274, "\u6073": 9275, "\u6076": 9276, "\u6078": 9277, "\u6079": 9278, "\u607a": 9279, "\u607b": 9280, "\u607c": 9281, "\u607d": 9282, "\u607f": 9283, "\u6083": 9284, "\u6084": 9285, "\u6089": 9286, "\u608c": 9287, "\u608d": 9288, "\u6092": 9289, "\u6094": 9290, "\u6096": 9291, "\u609a": 9292, "\u609b": 9293, "\u609d": 9294, "\u609f": 9295, "\u60a0": 9296, "\u60a3": 9297, "\u60a6": 9298, "\u60a8": 9299, "\u60ab": 9300, "\u60ac": 9301, "\u60ad": 9302, "\u60af": 9303, "\u60b1": 9304, "\u60b2": 9305, "\u60b4": 9306, "\u60b5": 9307, "\u60b6": 9308, "\u60b8": 9309, "\u60bb": 9310, "\u60bc": 9311, "\u60c5": 9312, "\u60c6": 9313, "\u60ca": 9314, "\u60cb": 9315, "\u60d1": 9316, "\u60d5": 9317, "\u60d8": 9318, "\u60da": 9319, "\u60dc": 9320, "\u60dd": 9321, "\u60df": 9322, "\u60e0": 9323, "\u60e1": 9324, "\u60e6": 9325, "\u60e7": 9326, "\u60e8": 9327, "\u60e9": 9328, "\u60eb": 9329, "\u60ec": 9330, "\u60ed": 9331, "\u60ee": 9332, "\u60ef": 9333, "\u60f0": 9334, "\u60f1": 9335, "\u60f2": 9336, "\u60f3": 9337, "\u60f4": 9338, "\u60f6": 9339, "\u60f9": 9340, "\u60fa": 9341, "\u60fb": 9342, "\u6100": 9343, "\u6101": 9344, "\u6106": 9345, "\u6108": 9346, "\u6109": 9347, "\u610d": 9348, "\u610e": 9349, "\u610f": 9350, "\u6115": 9351, "\u611a": 9352, "\u611b": 9353, "\u611c": 9354, "\u611f": 9355, "\u6120": 9356, "\u6123": 9357, "\u6124": 9358, "\u6126": 9359, "\u6127": 9360, "\u612b": 9361, "\u6134": 9362, "\u6137": 9363, "\u613e": 9364, "\u613f": 9365, "\u6148": 9366, "\u614a": 9367, "\u614b": 9368, "\u614c": 9369, "\u614e": 9370, "\u6151": 9371, "\u6155": 9372, "\u6158": 9373, "\u615a": 9374, "\u615d": 9375, "\u615f": 9376, "\u6162": 9377, "\u6163": 9378, "\u6164": 9379, "\u6167": 9380, "\u6168": 9381, "\u616a": 9382, "\u616b": 9383, "\u616e": 9384, "\u6170": 9385, "\u6173": 9386, "\u6175": 9387, "\u6176": 9388, "\u6177": 9389, "\u6182": 9390, "\u618a": 9391, "\u618b": 9392, "\u618e": 9393, "\u6190": 9394, "\u6191": 9395, "\u6192": 9396, "\u6194": 9397, "\u619a": 9398, "\u619d": 9399, "\u61a4": 9400, "\u61a7": 9401, "\u61a8": 9402, "\u61a9": 9403, "\u61ab": 9404, "\u61ac": 9405, "\u61ae": 9406, "\u61b2": 9407, "\u61b6": 9408, "\u61b7": 9409, "\u61be": 9410, "\u61c2": 9411, "\u61c7": 9412, "\u61c8": 9413, "\u61c9": 9414, "\u61ca": 9415, "\u61cb": 9416, "\u61cc": 9417, "\u61d1": 9418, "\u61d2": 9419, "\u61d4": 9420, "\u61de": 9421, "\u61df": 9422, "\u61e3": 9423, "\u61e6": 9424, "\u61e8": 9425, "\u61f2": 9426, "\u61f5": 9427, "\u61f6": 9428, "\u61f7": 9429, "\u61f8": 9430, "\u61fa": 9431, "\u61fc": 9432, "\u61fe": 9433, "\u61ff": 9434, "\u6200": 9435, "\u6206": 9436, "\u6207": 9437, "\u6208": 9438, "\u620a": 9439, "\u620b": 9440, "\u620c": 9441, "\u620d": 9442, "\u620e": 9443, "\u620f": 9444, "\u6210": 9445, "\u6211": 9446, "\u6212": 9447, "\u6214": 9448, "\u6215": 9449, "\u6216": 9450, "\u6217": 9451, "\u6218": 9452, "\u621a": 9453, "\u621b": 9454, "\u621f": 9455, "\u6221": 9456, "\u6222": 9457, "\u6224": 9458, "\u6225": 9459, "\u6227": 9460, "\u6229": 9461, "\u622a": 9462, "\u622c": 9463, "\u622e": 9464, "\u6230": 9465, "\u6232": 9466, "\u6233": 9467, "\u6234": 9468, "\u6237": 9469, "\u623d": 9470, "\u623e": 9471, "\u623f": 9472, "\u6240": 9473, "\u6241": 9474, "\u6243": 9475, "\u6247": 9476, "\u6248": 9477, "\u6249": 9478, "\u624b": 9479, "\u624c": 9480, "\u624d": 9481, "\u624e": 9482, "\u6251": 9483, "\u6252": 9484, "\u6253": 9485, "\u6254": 9486, "\u6258": 9487, "\u625b": 9488, "\u6263": 9489, "\u6266": 9490, "\u6267": 9491, "\u6269": 9492, "\u626a": 9493, "\u626b": 9494, "\u626c": 9495, "\u626d": 9496, "\u626e": 9497, "\u626f": 9498, "\u6270": 9499, "\u6273": 9500, "\u6276": 9501, "\u6279": 9502, "\u627c": 9503, "\u627e": 9504, "\u627f": 9505, "\u6280": 9506, "\u6284": 9507, "\u6289": 9508, "\u628a": 9509, "\u6291": 9510, "\u6292": 9511, "\u6293": 9512, "\u6295": 9513, "\u6296": 9514, "\u6297": 9515, "\u6298": 9516, "\u629a": 9517, "\u629b": 9518, "\u629f": 9519, "\u62a0": 9520, "\u62a1": 9521, "\u62a2": 9522, "\u62a4": 9523, "\u62a5": 9524, "\u62a8": 9525, "\u62ab": 9526, "\u62ac": 9527, "\u62b1": 9528, "\u62b5": 9529, "\u62b9": 9530, "\u62bb": 9531, "\u62bc": 9532, "\u62bd": 9533, "\u62bf": 9534, "\u62c2": 9535, "\u62c4": 9536, "\u62c5": 9537, "\u62c6": 9538, "\u62c7": 9539, "\u62c8": 9540, "\u62c9": 9541, "\u62ca": 9542, "\u62cc": 9543, "\u62cd": 9544, "\u62ce": 9545, "\u62d0": 9546, "\u62d2": 9547, "\u62d3": 9548, "\u62d4": 9549, "\u62d6": 9550, "\u62d7": 9551, "\u62d8": 9552, "\u62d9": 9553, "\u62da": 9554, "\u62db": 9555, "\u62dc": 9556, "\u62df": 9557, "\u62e2": 9558, "\u62e3": 9559, "\u62e5": 9560, "\u62e6": 9561, "\u62e7": 9562, "\u62e8": 9563, "\u62e9": 9564, "\u62ec": 9565, "\u62ed": 9566, "\u62ee": 9567, "\u62ef": 9568, "\u62f1": 9569, "\u62f3": 9570, "\u62f4": 9571, "\u62f6": 9572, "\u62f7": 9573, "\u62fc": 9574, "\u62fd": 9575, "\u62fe": 9576, "\u62ff": 9577, "\u6301": 9578, "\u6302": 9579, "\u6307": 9580, "\u6308": 9581, "\u6309": 9582, "\u630e": 9583, "\u6311": 9584, "\u6316": 9585, "\u631a": 9586, "\u631b": 9587, "\u631d": 9588, "\u631e": 9589, "\u631f": 9590, "\u6320": 9591, "\u6321": 9592, "\u6322": 9593, "\u6323": 9594, "\u6324": 9595, "\u6325": 9596, "\u6328": 9597, "\u632a": 9598, "\u632b": 9599, "\u632f": 9600, "\u6332": 9601, "\u6339": 9602, "\u633a": 9603, "\u633d": 9604, "\u633e": 9605, "\u6342": 9606, "\u6343": 9607, "\u6345": 9608, "\u6346": 9609, "\u6349": 9610, "\u634b": 9611, "\u634c": 9612, "\u634d": 9613, "\u634e": 9614, "\u634f": 9615, "\u6350": 9616, "\u6355": 9617, "\u635e": 9618, "\u635f": 9619, "\u6361": 9620, "\u6362": 9621, "\u6363": 9622, "\u6367": 9623, "\u6368": 9624, "\u6369": 9625, "\u636b": 9626, "\u636d": 9627, "\u636e": 9628, "\u6371": 9629, "\u6372": 9630, "\u6376": 9631, "\u6377": 9632, "\u637a": 9633, "\u637b": 9634, "\u6380": 9635, "\u6382": 9636, "\u6383": 9637, "\u6384": 9638, "\u6387": 9639, "\u6388": 9640, "\u6389": 9641, "\u638a": 9642, "\u638c": 9643, "\u638e": 9644, "\u638f": 9645, "\u6390": 9646, "\u6392": 9647, "\u6396": 9648, "\u6398": 9649, "\u6399": 9650, "\u63a0": 9651, "\u63a2": 9652, "\u63a3": 9653, "\u63a5": 9654, "\u63a7": 9655, "\u63a8": 9656, "\u63a9": 9657, "\u63aa": 9658, "\u63ac": 9659, "\u63ad": 9660, "\u63ae": 9661, "\u63b0": 9662, "\u63b3": 9663, "\u63b4": 9664, "\u63b7": 9665, "\u63b8": 9666, "\u63ba": 9667, "\u63bc": 9668, "\u63be": 9669, "\u63c0": 9670, "\u63c4": 9671, "\u63c6": 9672, "\u63c9": 9673, "\u63cd": 9674, "\u63ce": 9675, "\u63cf": 9676, "\u63d0": 9677, "\u63d2": 9678, "\u63d6": 9679, "\u63da": 9680, "\u63db": 9681, "\u63de": 9682, "\u63e0": 9683, "\u63e1": 9684, "\u63e3": 9685, "\u63e9": 9686, "\u63ea": 9687, "\u63ed": 9688, "\u63ee": 9689, "\u63f2": 9690, "\u63f4": 9691, "\u63f6": 9692, "\u63f8": 9693, "\u63fd": 9694, "\u63ff": 9695, "\u6400": 9696, "\u6401": 9697, "\u6402": 9698, "\u6405": 9699, "\u640b": 9700, "\u640c": 9701, "\u640d": 9702, "\u640f": 9703, "\u6410": 9704, "\u6413": 9705, "\u6414": 9706, "\u6417": 9707, "\u641b": 9708, "\u641c": 9709, "\u641e": 9710, "\u6420": 9711, "\u6421": 9712, "\u6426": 9713, "\u642a": 9714, "\u642c": 9715, "\u642d": 9716, "\u6434": 9717, "\u6436": 9718, "\u643a": 9719, "\u643d": 9720, "\u643f": 9721, "\u6441": 9722, "\u6444": 9723, "\u6445": 9724, "\u6446": 9725, "\u6447": 9726, "\u6448": 9727, "\u644a": 9728, "\u6451": 9729, "\u6452": 9730, "\u6454": 9731, "\u6458": 9732, "\u645c": 9733, "\u645e": 9734, "\u645f": 9735, "\u6467": 9736, "\u6469": 9737, "\u646d": 9738, "\u646f": 9739, "\u6473": 9740, "\u6476": 9741, "\u6478": 9742, "\u6479": 9743, "\u647a": 9744, "\u647b": 9745, "\u6482": 9746, "\u6484": 9747, "\u6485": 9748, "\u6487": 9749, "\u6488": 9750, "\u6491": 9751, "\u6492": 9752, "\u6493": 9753, "\u6495": 9754, "\u6496": 9755, "\u6499": 9756, "\u649e": 9757, "\u649f": 9758, "\u64a3": 9759, "\u64a4": 9760, "\u64a5": 9761, "\u64a9": 9762, "\u64ab": 9763, "\u64ac": 9764, "\u64ad": 9765, "\u64ae": 9766, "\u64b0": 9767, "\u64b2": 9768, "\u64b3": 9769, "\u64b5": 9770, "\u64b7": 9771, "\u64b8": 9772, "\u64ba": 9773, "\u64bb": 9774, "\u64bc": 9775, "\u64be": 9776, "\u64bf": 9777, "\u64c0": 9778, "\u64c1": 9779, "\u64c2": 9780, "\u64c4": 9781, "\u64c5": 9782, "\u64c7": 9783, "\u64ca": 9784, "\u64cb": 9785, "\u64cd": 9786, "\u64ce": 9787, "\u64d0": 9788, "\u64d2": 9789, "\u64d4": 9790, "\u64d7": 9791, "\u64d8": 9792, "\u64da": 9793, "\u64de": 9794, "\u64e0": 9795, "\u64e2": 9796, "\u64e4": 9797, "\u64e6": 9798, "\u64ec": 9799, "\u64ef": 9800, "\u64f0": 9801, "\u64f1": 9802, "\u64f2": 9803, "\u64f4": 9804, "\u64f7": 9805, "\u64fa": 9806, "\u64fb": 9807, "\u64fc": 9808, "\u64fe": 9809, "\u6500": 9810, "\u6504": 9811, "\u6506": 9812, "\u6509": 9813, "\u650f": 9814, "\u6512": 9815, "\u6514": 9816, "\u6516": 9817, "\u6518": 9818, "\u6519": 9819, "\u651b": 9820, "\u651d": 9821, "\u6522": 9822, "\u6523": 9823, "\u6524": 9824, "\u6525": 9825, "\u652a": 9826, "\u652b": 9827, "\u652c": 9828, "\u652e": 9829, "\u652f": 9830, "\u6534": 9831, "\u6535": 9832, "\u6536": 9833, "\u6538": 9834, "\u6539": 9835, "\u653b": 9836, "\u653e": 9837, "\u653f": 9838, "\u6545": 9839, "\u6548": 9840, "\u6549": 9841, "\u654c": 9842, "\u654f": 9843, "\u6551": 9844, "\u6555": 9845, "\u6556": 9846, "\u6557": 9847, "\u6559": 9848, "\u655b": 9849, "\u655d": 9850, "\u655e": 9851, "\u6562": 9852, "\u6563": 9853, "\u6566": 9854, "\u656b": 9855, "\u656c": 9856, "\u6570": 9857, "\u6572": 9858, "\u6574": 9859, "\u6575": 9860, "\u6577": 9861, "\u6578": 9862, "\u6582": 9863, "\u6583": 9864, "\u6587": 9865, "\u658b": 9866, "\u658c": 9867, "\u6590": 9868, "\u6591": 9869, "\u6593": 9870, "\u6595": 9871, "\u6597": 9872, "\u6599": 9873, "\u659b": 9874, "\u659c": 9875, "\u659f": 9876, "\u65a1": 9877, "\u65a4": 9878, "\u65a5": 9879, "\u65a7": 9880, "\u65a9": 9881, "\u65ab": 9882, "\u65ac": 9883, "\u65ad": 9884, "\u65af": 9885, "\u65b0": 9886, "\u65b7": 9887, "\u65b9": 9888, "\u65bc": 9889, "\u65bd": 9890, "\u65c1": 9891, "\u65c3": 9892, "\u65c4": 9893, "\u65c5": 9894, "\u65c6": 9895, "\u65cb": 9896, "\u65cc": 9897, "\u65ce": 9898, "\u65cf": 9899, "\u65d2": 9900, "\u65d6": 9901, "\u65d7": 9902, "\u65e0": 9903, "\u65e2": 9904, "\u65e5": 9905, "\u65e6": 9906, "\u65e7": 9907, "\u65e8": 9908, "\u65e9": 9909, "\u65ec": 9910, "\u65ed": 9911, "\u65ee": 9912, "\u65ef": 9913, "\u65f0": 9914, "\u65f1": 9915, "\u65f6": 9916, "\u65f7": 9917, "\u65fa": 9918, "\u6600": 9919, "\u6602": 9920, "\u6603": 9921, "\u6606": 9922, "\u660a": 9923, "\u660c": 9924, "\u660e": 9925, "\u660f": 9926, "\u6613": 9927, "\u6614": 9928, "\u6615": 9929, "\u6619": 9930, "\u661d": 9931, "\u661f": 9932, "\u6620": 9933, "\u6625": 9934, "\u6627": 9935, "\u6628": 9936, "\u662d": 9937, "\u662f": 9938, "\u6631": 9939, "\u6634": 9940, "\u6635": 9941, "\u6636": 9942, "\u663c": 9943, "\u663e": 9944, "\u6641": 9945, "\u6642": 9946, "\u6643": 9947, "\u6649": 9948, "\u664b": 9949, "\u664c": 9950, "\u664f": 9951, "\u6652": 9952, "\u6653": 9953, "\u6654": 9954, "\u6655": 9955, "\u6656": 9956, "\u6657": 9957, "\u665a": 9958, "\u665d": 9959, "\u665f": 9960, "\u6661": 9961, "\u6664": 9962, "\u6666": 9963, "\u6668": 9964, "\u666e": 9965, "\u666f": 9966, "\u6670": 9967, "\u6674": 9968, "\u6676": 9969, "\u6677": 9970, "\u667a": 9971, "\u667e": 9972, "\u6682": 9973, "\u6684": 9974, "\u6687": 9975, "\u6688": 9976, "\u6689": 9977, "\u668c": 9978, "\u6691": 9979, "\u6696": 9980, "\u6697": 9981, "\u669d": 9982, "\u66a2": 9983, "\u66a7": 9984, "\u66a8": 9985, "\u66ab": 9986, "\u66ae": 9987, "\u66b4": 9988, "\u66b9": 9989, "\u66be": 9990, "\u66c4": 9991, "\u66c6": 9992, "\u66c7": 9993, "\u66c9": 9994, "\u66d6": 9995, "\u66d9": 9996, "\u66db": 9997, "\u66dc": 9998, "\u66dd": 9999, "\u66e0": 10000, "\u66e6": 10001, "\u66e9": 10002, "\u66ec": 10003, "\u66f0": 10004, "\u66f2": 10005, "\u66f3": 10006, "\u66f4": 10007, "\u66f7": 10008, "\u66f8": 10009, "\u66f9": 10010, "\u66fc": 10011, "\u66fe": 10012, "\u66ff": 10013, "\u6700": 10014, "\u6703": 10015, "\u6708": 10016, "\u6709": 10017, "\u670a": 10018, "\u670b": 10019, "\u670d": 10020, "\u6710": 10021, "\u6714": 10022, "\u6715": 10023, "\u6717": 10024, "\u671b": 10025, "\u671d": 10026, "\u671f": 10027, "\u6726": 10028, "\u6727": 10029, "\u6728": 10030, "\u672a": 10031, "\u672b": 10032, "\u672c": 10033, "\u672d": 10034, "\u672f": 10035, "\u6731": 10036, "\u6734": 10037, "\u6735": 10038, "\u673a": 10039, "\u673d": 10040, "\u6740": 10041, "\u6742": 10042, "\u6743": 10043, "\u6746": 10044, "\u6748": 10045, "\u6749": 10046, "\u674c": 10047, "\u674e": 10048, "\u674f": 10049, "\u6750": 10050, "\u6751": 10051, "\u6753": 10052, "\u6756": 10053, "\u675c": 10054, "\u675e": 10055, "\u675f": 10056, "\u6760": 10057, "\u6761": 10058, "\u6765": 10059, "\u6768": 10060, "\u6769": 10061, "\u676a": 10062, "\u676d": 10063, "\u676f": 10064, "\u6770": 10065, "\u6771": 10066, "\u6772": 10067, "\u6773": 10068, "\u6775": 10069, "\u6777": 10070, "\u677c": 10071, "\u677e": 10072, "\u677f": 10073, "\u6781": 10074, "\u6784": 10075, "\u6787": 10076, "\u6789": 10077, "\u678b": 10078, "\u6790": 10079, "\u6795": 10080, "\u6797": 10081, "\u6798": 10082, "\u679a": 10083, "\u679c": 10084, "\u679d": 10085, "\u679e": 10086, "\u67a2": 10087, "\u67a3": 10088, "\u67a5": 10089, "\u67a7": 10090, "\u67a8": 10091, "\u67aa": 10092, "\u67ab": 10093, "\u67ad": 10094, "\u67af": 10095, "\u67b0": 10096, "\u67b3": 10097, "\u67b5": 10098, "\u67b6": 10099, "\u67b7": 10100, "\u67b8": 10101, "\u67c1": 10102, "\u67c3": 10103, "\u67c4": 10104, "\u67cf": 10105, "\u67d0": 10106, "\u67d1": 10107, "\u67d2": 10108, "\u67d3": 10109, "\u67d4": 10110, "\u67d8": 10111, "\u67d9": 10112, "\u67da": 10113, "\u67dc": 10114, "\u67dd": 10115, "\u67de": 10116, "\u67e0": 10117, "\u67e2": 10118, "\u67e5": 10119, "\u67e9": 10120, "\u67ec": 10121, "\u67ef": 10122, "\u67f0": 10123, "\u67f1": 10124, "\u67f3": 10125, "\u67f4": 10126, "\u67fd": 10127, "\u67ff": 10128, "\u6800": 10129, "\u6805": 10130, "\u6807": 10131, "\u6808": 10132, "\u6809": 10133, "\u680a": 10134, "\u680b": 10135, "\u680c": 10136, "\u680e": 10137, "\u680f": 10138, "\u6811": 10139, "\u6813": 10140, "\u6816": 10141, "\u6817": 10142, "\u681d": 10143, "\u6821": 10144, "\u6829": 10145, "\u682a": 10146, "\u6832": 10147, "\u6833": 10148, "\u6837": 10149, "\u6838": 10150, "\u6839": 10151, "\u683c": 10152, "\u683d": 10153, "\u683e": 10154, "\u6840": 10155, "\u6841": 10156, "\u6842": 10157, "\u6843": 10158, "\u6844": 10159, "\u6845": 10160, "\u6846": 10161, "\u6848": 10162, "\u6849": 10163, "\u684a": 10164, "\u684c": 10165, "\u684e": 10166, "\u6850": 10167, "\u6851": 10168, "\u6853": 10169, "\u6854": 10170, "\u6855": 10171, "\u6860": 10172, "\u6861": 10173, "\u6862": 10174, "\u6863": 10175, "\u6864": 10176, "\u6865": 10177, "\u6866": 10178, "\u6867": 10179, "\u6868": 10180, "\u6869": 10181, "\u686b": 10182, "\u6874": 10183, "\u6876": 10184, "\u6877": 10185, "\u6881": 10186, "\u6883": 10187, "\u6885": 10188, "\u6886": 10189, "\u688f": 10190, "\u6893": 10191, "\u6897": 10192, "\u6898": 10193, "\u689d": 10194, "\u689f": 10195, "\u68a2": 10196, "\u68a6": 10197, "\u68a7": 10198, "\u68a8": 10199, "\u68ad": 10200, "\u68af": 10201, "\u68b0": 10202, "\u68b3": 10203, "\u68b5": 10204, "\u68c0": 10205, "\u68c2": 10206, "\u68c4": 10207, "\u68c9": 10208, "\u68cb": 10209, "\u68cd": 10210, "\u68d2": 10211, "\u68d5": 10212, "\u68d6": 10213, "\u68d7": 10214, "\u68d8": 10215, "\u68da": 10216, "\u68df": 10217, "\u68e0": 10218, "\u68e3": 10219, "\u68e7": 10220, "\u68ee": 10221, "\u68f0": 10222, "\u68f1": 10223, "\u68f2": 10224, "\u68f5": 10225, "\u68f9": 10226, "\u68fa": 10227, "\u68fc": 10228, "\u6901": 10229, "\u6905": 10230, "\u690b": 10231, "\u690d": 10232, "\u690e": 10233, "\u690f": 10234, "\u6910": 10235, "\u6912": 10236, "\u691f": 10237, "\u6920": 10238, "\u6924": 10239, "\u692d": 10240, "\u6930": 10241, "\u6934": 10242, "\u6939": 10243, "\u693d": 10244, "\u693f": 10245, "\u6942": 10246, "\u694a": 10247, "\u6953": 10248, "\u6954": 10249, "\u6957": 10250, "\u695a": 10251, "\u695d": 10252, "\u695e": 10253, "\u6960": 10254, "\u6963": 10255, "\u6966": 10256, "\u6968": 10257, "\u696b": 10258, "\u696d": 10259, "\u696e": 10260, "\u6971": 10261, "\u6975": 10262, "\u6977": 10263, "\u6978": 10264, "\u6979": 10265, "\u697c": 10266, "\u6980": 10267, "\u6982": 10268, "\u6984": 10269, "\u6986": 10270, "\u6987": 10271, "\u6988": 10272, "\u6989": 10273, "\u698d": 10274, "\u6994": 10275, "\u6995": 10276, "\u6998": 10277, "\u699b": 10278, "\u699c": 10279, "\u69a7": 10280, "\u69a8": 10281, "\u69aa": 10282, "\u69ab": 10283, "\u69ad": 10284, "\u69ae": 10285, "\u69b1": 10286, "\u69b4": 10287, "\u69b7": 10288, "\u69bb": 10289, "\u69bf": 10290, "\u69c1": 10291, "\u69ca": 10292, "\u69cb": 10293, "\u69cc": 10294, "\u69cd": 10295, "\u69ce": 10296, "\u69d0": 10297, "\u69d4": 10298, "\u69db": 10299, "\u69df": 10300, "\u69e0": 10301, "\u69e7": 10302, "\u69ed": 10303, "\u69f2": 10304, "\u69f3": 10305, "\u69fd": 10306, "\u69ff": 10307, "\u6a01": 10308, "\u6a02": 10309, "\u6a05": 10310, "\u6a0a": 10311, "\u6a13": 10312, "\u6a17": 10313, "\u6a18": 10314, "\u6a19": 10315, "\u6a1e": 10316, "\u6a1f": 10317, "\u6a21": 10318, "\u6a23": 10319, "\u6a28": 10320, "\u6a2a": 10321, "\u6a2f": 10322, "\u6a31": 10323, "\u6a35": 10324, "\u6a38": 10325, "\u6a39": 10326, "\u6a3a": 10327, "\u6a3d": 10328, "\u6a3e": 10329, "\u6a44": 10330, "\u6a47": 10331, "\u6a48": 10332, "\u6a4b": 10333, "\u6a50": 10334, "\u6a58": 10335, "\u6a59": 10336, "\u6a5b": 10337, "\u6a5f": 10338, "\u6a61": 10339, "\u6a62": 10340, "\u6a65": 10341, "\u6a71": 10342, "\u6a79": 10343, "\u6a7c": 10344, "\u6a80": 10345, "\u6a84": 10346, "\u6a89": 10347, "\u6a8e": 10348, "\u6a90": 10349, "\u6a91": 10350, "\u6a94": 10351, "\u6a97": 10352, "\u6a9c": 10353, "\u6aa0": 10354, "\u6aa2": 10355, "\u6aa3": 10356, "\u6aa9": 10357, "\u6aab": 10358, "\u6aac": 10359, "\u6aaf": 10360, "\u6ab3": 10361, "\u6ab8": 10362, "\u6abb": 10363, "\u6ac3": 10364, "\u6ad3": 10365, "\u6ada": 10366, "\u6adb": 10367, "\u6add": 10368, "\u6ade": 10369, "\u6adf": 10370, "\u6ae7": 10371, "\u6ae8": 10372, "\u6aea": 10373, "\u6aec": 10374, "\u6af3": 10375, "\u6af8": 10376, "\u6afb": 10377, "\u6b04": 10378, "\u6b0a": 10379, "\u6b0f": 10380, "\u6b12": 10381, "\u6b16": 10382, "\u6b1e": 10383, "\u6b20": 10384, "\u6b21": 10385, "\u6b22": 10386, "\u6b23": 10387, "\u6b24": 10388, "\u6b27": 10389, "\u6b32": 10390, "\u6b37": 10391, "\u6b39": 10392, "\u6b3a": 10393, "\u6b3d": 10394, "\u6b3e": 10395, "\u6b43": 10396, "\u6b46": 10397, "\u6b47": 10398, "\u6b49": 10399, "\u6b4c": 10400, "\u6b50": 10401, "\u6b59": 10402, "\u6b5f": 10403, "\u6b61": 10404, "\u6b62": 10405, "\u6b63": 10406, "\u6b64": 10407, "\u6b65": 10408, "\u6b66": 10409, "\u6b67": 10410, "\u6b6a": 10411, "\u6b72": 10412, "\u6b77": 10413, "\u6b78": 10414, "\u6b79": 10415, "\u6b7b": 10416, "\u6b7c": 10417, "\u6b81": 10418, "\u6b82": 10419, "\u6b83": 10420, "\u6b84": 10421, "\u6b86": 10422, "\u6b87": 10423, "\u6b89": 10424, "\u6b8a": 10425, "\u6b8b": 10426, "\u6b8d": 10427, "\u6b92": 10428, "\u6b93": 10429, "\u6b96": 10430, "\u6b98": 10431, "\u6b9a": 10432, "\u6b9b": 10433, "\u6b9e": 10434, "\u6ba1": 10435, "\u6ba4": 10436, "\u6baa": 10437, "\u6bab": 10438, "\u6bae": 10439, "\u6baf": 10440, "\u6bb2": 10441, "\u6bb3": 10442, "\u6bb4": 10443, "\u6bb5": 10444, "\u6bb7": 10445, "\u6bba": 10446, "\u6bbb": 10447, "\u6bbf": 10448, "\u6bc1": 10449, "\u6bc2": 10450, "\u6bc5": 10451, "\u6bc6": 10452, "\u6bcb": 10453, "\u6bcd": 10454, "\u6bcf": 10455, "\u6bd2": 10456, "\u6bd3": 10457, "\u6bd4": 10458, "\u6bd5": 10459, "\u6bd6": 10460, "\u6bd7": 10461, "\u6bd9": 10462, "\u6bdb": 10463, "\u6be1": 10464, "\u6bea": 10465, "\u6beb": 10466, "\u6bef": 10467, "\u6bf3": 10468, "\u6bf5": 10469, "\u6bf9": 10470, "\u6bfd": 10471, "\u6bff": 10472, "\u6c05": 10473, "\u6c06": 10474, "\u6c07": 10475, "\u6c08": 10476, "\u6c0c": 10477, "\u6c0d": 10478, "\u6c0f": 10479, "\u6c10": 10480, "\u6c11": 10481, "\u6c13": 10482, "\u6c14": 10483, "\u6c15": 10484, "\u6c16": 10485, "\u6c18": 10486, "\u6c19": 10487, "\u6c1a": 10488, "\u6c1b": 10489, "\u6c1f": 10490, "\u6c21": 10491, "\u6c22": 10492, "\u6c23": 10493, "\u6c24": 10494, "\u6c26": 10495, "\u6c27": 10496, "\u6c28": 10497, "\u6c29": 10498, "\u6c2a": 10499, "\u6c2b": 10500, "\u6c2c": 10501, "\u6c2e": 10502, "\u6c2f": 10503, "\u6c30": 10504, "\u6c32": 10505, "\u6c34": 10506, "\u6c35": 10507, "\u6c38": 10508, "\u6c3d": 10509, "\u6c40": 10510, "\u6c41": 10511, "\u6c42": 10512, "\u6c46": 10513, "\u6c47": 10514, "\u6c49": 10515, "\u6c4a": 10516, "\u6c50": 10517, "\u6c54": 10518, "\u6c55": 10519, "\u6c57": 10520, "\u6c5b": 10521, "\u6c5c": 10522, "\u6c5d": 10523, "\u6c5e": 10524, "\u6c5f": 10525, "\u6c60": 10526, "\u6c61": 10527, "\u6c64": 10528, "\u6c68": 10529, "\u6c69": 10530, "\u6c6a": 10531, "\u6c70": 10532, "\u6c72": 10533, "\u6c74": 10534, "\u6c76": 10535, "\u6c79": 10536, "\u6c7d": 10537, "\u6c7e": 10538, "\u6c81": 10539, "\u6c82": 10540, "\u6c83": 10541, "\u6c85": 10542, "\u6c86": 10543, "\u6c88": 10544, "\u6c89": 10545, "\u6c8c": 10546, "\u6c8f": 10547, "\u6c90": 10548, "\u6c93": 10549, "\u6c94": 10550, "\u6c99": 10551, "\u6c9b": 10552, "\u6c9f": 10553, "\u6ca1": 10554, "\u6ca3": 10555, "\u6ca4": 10556, "\u6ca5": 10557, "\u6ca6": 10558, "\u6ca7": 10559, "\u6ca9": 10560, "\u6caa": 10561, "\u6cab": 10562, "\u6cad": 10563, "\u6cae": 10564, "\u6cb1": 10565, "\u6cb2": 10566, "\u6cb3": 10567, "\u6cb8": 10568, "\u6cb9": 10569, "\u6cbb": 10570, "\u6cbc": 10571, "\u6cbd": 10572, "\u6cbe": 10573, "\u6cbf": 10574, "\u6cc4": 10575, "\u6cc5": 10576, "\u6cc9": 10577, "\u6cca": 10578, "\u6ccc": 10579, "\u6cd0": 10580, "\u6cd3": 10581, "\u6cd4": 10582, "\u6cd5": 10583, "\u6cd6": 10584, "\u6cd7": 10585, "\u6cdb": 10586, "\u6cde": 10587, "\u6ce0": 10588, "\u6ce1": 10589, "\u6ce2": 10590, "\u6ce3": 10591, "\u6ce5": 10592, "\u6ce8": 10593, "\u6cea": 10594, "\u6ceb": 10595, "\u6cee": 10596, "\u6cef": 10597, "\u6cf0": 10598, "\u6cf1": 10599, "\u6cf3": 10600, "\u6cf5": 10601, "\u6cf6": 10602, "\u6cf7": 10603, "\u6cf8": 10604, "\u6cfa": 10605, "\u6cfb": 10606, "\u6cfc": 10607, "\u6cfd": 10608, "\u6cfe": 10609, "\u6d01": 10610, "\u6d04": 10611, "\u6d07": 10612, "\u6d0b": 10613, "\u6d0c": 10614, "\u6d0e": 10615, "\u6d12": 10616, "\u6d17": 10617, "\u6d19": 10618, "\u6d1a": 10619, "\u6d1b": 10620, "\u6d1e": 10621, "\u6d25": 10622, "\u6d27": 10623, "\u6d2a": 10624, "\u6d2b": 10625, "\u6d2e": 10626, "\u6d31": 10627, "\u6d32": 10628, "\u6d33": 10629, "\u6d35": 10630, "\u6d39": 10631, "\u6d3b": 10632, "\u6d3c": 10633, "\u6d3d": 10634, "\u6d3e": 10635, "\u6d41": 10636, "\u6d43": 10637, "\u6d45": 10638, "\u6d46": 10639, "\u6d47": 10640, "\u6d48": 10641, "\u6d4a": 10642, "\u6d4b": 10643, "\u6d4d": 10644, "\u6d4e": 10645, "\u6d4f": 10646, "\u6d51": 10647, "\u6d52": 10648, "\u6d53": 10649, "\u6d54": 10650, "\u6d59": 10651, "\u6d5a": 10652, "\u6d5c": 10653, "\u6d5e": 10654, "\u6d60": 10655, "\u6d63": 10656, "\u6d66": 10657, "\u6d69": 10658, "\u6d6a": 10659, "\u6d6e": 10660, "\u6d6f": 10661, "\u6d74": 10662, "\u6d77": 10663, "\u6d78": 10664, "\u6d79": 10665, "\u6d7c": 10666, "\u6d82": 10667, "\u6d85": 10668, "\u6d87": 10669, "\u6d88": 10670, "\u6d89": 10671, "\u6d8c": 10672, "\u6d8e": 10673, "\u6d91": 10674, "\u6d93": 10675, "\u6d94": 10676, "\u6d95": 10677, "\u6d9b": 10678, "\u6d9d": 10679, "\u6d9e": 10680, "\u6d9f": 10681, "\u6da0": 10682, "\u6da1": 10683, "\u6da3": 10684, "\u6da4": 10685, "\u6da6": 10686, "\u6da7": 10687, "\u6da8": 10688, "\u6da9": 10689, "\u6daa": 10690, "\u6dab": 10691, "\u6dae": 10692, "\u6daf": 10693, "\u6db2": 10694, "\u6db5": 10695, "\u6db8": 10696, "\u6dbf": 10697, "\u6dc0": 10698, "\u6dc4": 10699, "\u6dc5": 10700, "\u6dc6": 10701, "\u6dc7": 10702, "\u6dcb": 10703, "\u6dcc": 10704, "\u6dd1": 10705, "\u6dd6": 10706, "\u6dd8": 10707, "\u6dd9": 10708, "\u6ddd": 10709, "\u6dde": 10710, "\u6de0": 10711, "\u6de1": 10712, "\u6de4": 10713, "\u6de6": 10714, "\u6dea": 10715, "\u6deb": 10716, "\u6dec": 10717, "\u6dee": 10718, "\u6df1": 10719, "\u6df3": 10720, "\u6df5": 10721, "\u6df6": 10722, "\u6df7": 10723, "\u6df9": 10724, "\u6dfa": 10725, "\u6dfb": 10726, "\u6dfc": 10727, "\u6e05": 10728, "\u6e0a": 10729, "\u6e0c": 10730, "\u6e0d": 10731, "\u6e0e": 10732, "\u6e10": 10733, "\u6e11": 10734, "\u6e14": 10735, "\u6e16": 10736, "\u6e17": 10737, "\u6e19": 10738, "\u6e1a": 10739, "\u6e1d": 10740, "\u6e20": 10741, "\u6e21": 10742, "\u6e23": 10743, "\u6e24": 10744, "\u6e25": 10745, "\u6e26": 10746, "\u6e29": 10747, "\u6e2b": 10748, "\u6e2c": 10749, "\u6e2d": 10750, "\u6e2f": 10751, "\u6e32": 10752, "\u6e34": 10753, "\u6e38": 10754, "\u6e3a": 10755, "\u6e3e": 10756, "\u6e43": 10757, "\u6e44": 10758, "\u6e4d": 10759, "\u6e4e": 10760, "\u6e53": 10761, "\u6e54": 10762, "\u6e56": 10763, "\u6e58": 10764, "\u6e5b": 10765, "\u6e5e": 10766, "\u6e5f": 10767, "\u6e6b": 10768, "\u6e6e": 10769, "\u6e6f": 10770, "\u6e7e": 10771, "\u6e7f": 10772, "\u6e83": 10773, "\u6e85": 10774, "\u6e86": 10775, "\u6e89": 10776, "\u6e8f": 10777, "\u6e90": 10778, "\u6e96": 10779, "\u6e98": 10780, "\u6e9c": 10781, "\u6e9d": 10782, "\u6e9f": 10783, "\u6ea2": 10784, "\u6ea5": 10785, "\u6ea7": 10786, "\u6eaa": 10787, "\u6eaf": 10788, "\u6eb1": 10789, "\u6eb2": 10790, "\u6eb4": 10791, "\u6eb6": 10792, "\u6eb7": 10793, "\u6eba": 10794, "\u6ebb": 10795, "\u6ebd": 10796, "\u6ec1": 10797, "\u6ec2": 10798, "\u6ec4": 10799, "\u6ec5": 10800, "\u6ec7": 10801, "\u6ecb": 10802, "\u6ecc": 10803, "\u6ece": 10804, "\u6ecf": 10805, "\u6ed1": 10806, "\u6ed3": 10807, "\u6ed4": 10808, "\u6ed5": 10809, "\u6ed7": 10810, "\u6eda": 10811, "\u6ede": 10812, "\u6edf": 10813, "\u6ee0": 10814, "\u6ee1": 10815, "\u6ee2": 10816, "\u6ee4": 10817, "\u6ee5": 10818, "\u6ee6": 10819, "\u6ee8": 10820, "\u6ee9": 10821, "\u6eec": 10822, "\u6eef": 10823, "\u6ef2": 10824, "\u6ef4": 10825, "\u6ef7": 10826, "\u6ef8": 10827, "\u6ef9": 10828, "\u6eff": 10829, "\u6f01": 10830, "\u6f02": 10831, "\u6f06": 10832, "\u6f09": 10833, "\u6f0f": 10834, "\u6f13": 10835, "\u6f14": 10836, "\u6f15": 10837, "\u6f1a": 10838, "\u6f20": 10839, "\u6f22": 10840, "\u6f23": 10841, "\u6f24": 10842, "\u6f29": 10843, "\u6f2a": 10844, "\u6f2b": 10845, "\u6f2c": 10846, "\u6f2d": 10847, "\u6f2f": 10848, "\u6f31": 10849, "\u6f32": 10850, "\u6f33": 10851, "\u6f36": 10852, "\u6f38": 10853, "\u6f3e": 10854, "\u6f3f": 10855, "\u6f41": 10856, "\u6f46": 10857, "\u6f47": 10858, "\u6f4b": 10859, "\u6f4d": 10860, "\u6f51": 10861, "\u6f54": 10862, "\u6f58": 10863, "\u6f59": 10864, "\u6f5b": 10865, "\u6f5c": 10866, "\u6f5e": 10867, "\u6f62": 10868, "\u6f64": 10869, "\u6f66": 10870, "\u6f6d": 10871, "\u6f6e": 10872, "\u6f6f": 10873, "\u6f70": 10874, "\u6f72": 10875, "\u6f74": 10876, "\u6f77": 10877, "\u6f78": 10878, "\u6f7a": 10879, "\u6f7c": 10880, "\u6f7f": 10881, "\u6f80": 10882, "\u6f84": 10883, "\u6f86": 10884, "\u6f87": 10885, "\u6f88": 10886, "\u6f89": 10887, "\u6f8c": 10888, "\u6f8d": 10889, "\u6f8e": 10890, "\u6f97": 10891, "\u6f9c": 10892, "\u6fa0": 10893, "\u6fa1": 10894, "\u6fa4": 10895, "\u6fa7": 10896, "\u6fa9": 10897, "\u6fae": 10898, "\u6fb1": 10899, "\u6fb3": 10900, "\u6fb6": 10901, "\u6fb9": 10902, "\u6fc0": 10903, "\u6fc1": 10904, "\u6fc2": 10905, "\u6fc3": 10906, "\u6fc9": 10907, "\u6fd1": 10908, "\u6fd2": 10909, "\u6fd5": 10910, "\u6fd8": 10911, "\u6fdb": 10912, "\u6fde": 10913, "\u6fdf": 10914, "\u6fe0": 10915, "\u6fe1": 10916, "\u6fe4": 10917, "\u6feb": 10918, "\u6fee": 10919, "\u6fef": 10920, "\u6ff0": 10921, "\u6ff1": 10922, "\u6ffa": 10923, "\u6ffc": 10924, "\u6ffe": 10925, "\u7005": 10926, "\u7006": 10927, "\u7009": 10928, "\u700b": 10929, "\u700f": 10930, "\u7011": 10931, "\u7015": 10932, "\u7018": 10933, "\u701a": 10934, "\u701b": 10935, "\u701d": 10936, "\u701f": 10937, "\u7020": 10938, "\u7023": 10939, "\u7027": 10940, "\u7028": 10941, "\u7030": 10942, "\u7032": 10943, "\u7035": 10944, "\u7039": 10945, "\u703e": 10946, "\u7043": 10947, "\u7044": 10948, "\u704c": 10949, "\u704f": 10950, "\u7051": 10951, "\u7055": 10952, "\u7058": 10953, "\u705d": 10954, "\u705e": 10955, "\u7063": 10956, "\u7064": 10957, "\u7067": 10958, "\u706b": 10959, "\u706c": 10960, "\u706d": 10961, "\u706f": 10962, "\u7070": 10963, "\u7075": 10964, "\u7076": 10965, "\u7078": 10966, "\u707c": 10967, "\u707e": 10968, "\u707f": 10969, "\u7080": 10970, "\u7085": 10971, "\u7089": 10972, "\u708a": 10973, "\u708e": 10974, "\u7092": 10975, "\u7094": 10976, "\u7095": 10977, "\u7096": 10978, "\u7099": 10979, "\u709c": 10980, "\u709d": 10981, "\u70ab": 10982, "\u70ac": 10983, "\u70ad": 10984, "\u70ae": 10985, "\u70af": 10986, "\u70b1": 10987, "\u70b3": 10988, "\u70b7": 10989, "\u70b8": 10990, "\u70b9": 10991, "\u70bb": 10992, "\u70bc": 10993, "\u70bd": 10994, "\u70c0": 10995, "\u70c1": 10996, "\u70c2": 10997, "\u70c3": 10998, "\u70c8": 10999, "\u70ca": 11000, "\u70cf": 11001, "\u70d8": 11002, "\u70d9": 11003, "\u70db": 11004, "\u70df": 11005, "\u70e4": 11006, "\u70e6": 11007, "\u70e7": 11008, "\u70e8": 11009, "\u70e9": 11010, "\u70eb": 11011, "\u70ec": 11012, "\u70ed": 11013, "\u70ef": 11014, "\u70f4": 11015, "\u70f7": 11016, "\u70f9": 11017, "\u70fd": 11018, "\u7109": 11019, "\u710a": 11020, "\u7110": 11021, "\u7113": 11022, "\u7115": 11023, "\u7116": 11024, "\u7118": 11025, "\u7119": 11026, "\u711a": 11027, "\u7121": 11028, "\u7126": 11029, "\u712f": 11030, "\u7130": 11031, "\u7131": 11032, "\u7136": 11033, "\u7145": 11034, "\u7149": 11035, "\u714a": 11036, "\u714c": 11037, "\u714e": 11038, "\u7152": 11039, "\u715c": 11040, "\u715e": 11041, "\u7162": 11042, "\u7164": 11043, "\u7165": 11044, "\u7166": 11045, "\u7167": 11046, "\u7168": 11047, "\u7169": 11048, "\u716c": 11049, "\u716e": 11050, "\u7172": 11051, "\u7173": 11052, "\u7178": 11053, "\u717a": 11054, "\u717d": 11055, "\u7184": 11056, "\u718a": 11057, "\u718f": 11058, "\u7192": 11059, "\u7194": 11060, "\u7197": 11061, "\u7198": 11062, "\u7199": 11063, "\u719f": 11064, "\u71a0": 11065, "\u71a8": 11066, "\u71ac": 11067, "\u71b1": 11068, "\u71b3": 11069, "\u71b5": 11070, "\u71b9": 11071, "\u71be": 11072, "\u71c1": 11073, "\u71c3": 11074, "\u71c8": 11075, "\u71ce": 11076, "\u71d2": 11077, "\u71d4": 11078, "\u71d5": 11079, "\u71d9": 11080, "\u71dc": 11081, "\u71df": 11082, "\u71e0": 11083, "\u71e5": 11084, "\u71e6": 11085, "\u71e7": 11086, "\u71ed": 11087, "\u71ee": 11088, "\u71f4": 11089, "\u71f9": 11090, "\u71fc": 11091, "\u71fe": 11092, "\u7206": 11093, "\u720d": 11094, "\u7210": 11095, "\u721b": 11096, "\u721d": 11097, "\u7228": 11098, "\u722a": 11099, "\u722c": 11100, "\u722d": 11101, "\u7230": 11102, "\u7231": 11103, "\u7232": 11104, "\u7235": 11105, "\u7236": 11106, "\u7237": 11107, "\u7238": 11108, "\u7239": 11109, "\u723a": 11110, "\u723b": 11111, "\u723d": 11112, "\u723e": 11113, "\u723f": 11114, "\u7247": 11115, "\u7248": 11116, "\u724c": 11117, "\u724d": 11118, "\u7252": 11119, "\u7256": 11120, "\u7258": 11121, "\u7259": 11122, "\u725b": 11123, "\u725d": 11124, "\u725f": 11125, "\u7261": 11126, "\u7262": 11127, "\u7266": 11128, "\u7267": 11129, "\u7269": 11130, "\u726e": 11131, "\u726f": 11132, "\u7272": 11133, "\u7275": 11134, "\u7279": 11135, "\u727a": 11136, "\u727d": 11137, "\u727e": 11138, "\u727f": 11139, "\u7280": 11140, "\u7281": 11141, "\u7284": 11142, "\u728a": 11143, "\u728b": 11144, "\u728d": 11145, "\u728f": 11146, "\u7292": 11147, "\u7296": 11148, "\u729f": 11149, "\u72a2": 11150, "\u72a7": 11151, "\u72ac": 11152, "\u72ad": 11153, "\u72af": 11154, "\u72b0": 11155, "\u72b4": 11156, "\u72b6": 11157, "\u72b7": 11158, "\u72b8": 11159, "\u72b9": 11160, "\u72c0": 11161, "\u72c1": 11162, "\u72c2": 11163, "\u72c3": 11164, "\u72c4": 11165, "\u72c8": 11166, "\u72cd": 11167, "\u72ce": 11168, "\u72d0": 11169, "\u72d2": 11170, "\u72d7": 11171, "\u72d9": 11172, "\u72de": 11173, "\u72e0": 11174, "\u72e1": 11175, "\u72e8": 11176, "\u72e9": 11177, "\u72ec": 11178, "\u72ed": 11179, "\u72ee": 11180, "\u72ef": 11181, "\u72f0": 11182, "\u72f1": 11183, "\u72f2": 11184, "\u72f3": 11185, "\u72f4": 11186, "\u72f7": 11187, "\u72f8": 11188, "\u72f9": 11189, "\u72fa": 11190, "\u72fb": 11191, "\u72fc": 11192, "\u72fd": 11193, "\u7301": 11194, "\u7303": 11195, "\u730a": 11196, "\u730e": 11197, "\u7313": 11198, "\u7315": 11199, "\u7316": 11200, "\u7317": 11201, "\u7319": 11202, "\u731b": 11203, "\u731c": 11204, "\u731d": 11205, "\u731e": 11206, "\u7321": 11207, "\u7322": 11208, "\u7325": 11209, "\u7329": 11210, "\u732a": 11211, "\u732b": 11212, "\u732c": 11213, "\u732e": 11214, "\u7331": 11215, "\u7334": 11216, "\u7336": 11217, "\u7337": 11218, "\u7338": 11219, "\u7339": 11220, "\u733b": 11221, "\u733e": 11222, "\u733f": 11223, "\u7341": 11224, "\u7344": 11225, "\u7345": 11226, "\u734d": 11227, "\u7350": 11228, "\u7352": 11229, "\u7357": 11230, "\u7360": 11231, "\u7368": 11232, "\u736a": 11233, "\u736b": 11234, "\u736c": 11235, "\u736d": 11236, "\u736f": 11237, "\u7370": 11238, "\u7372": 11239, "\u7375": 11240, "\u7377": 11241, "\u7378": 11242, "\u737a": 11243, "\u737b": 11244, "\u737c": 11245, "\u737e": 11246, "\u7380": 11247, "\u7384": 11248, "\u7387": 11249, "\u7389": 11250, "\u738b": 11251, "\u738e": 11252, "\u7391": 11253, "\u7396": 11254, "\u739b": 11255, "\u739f": 11256, "\u73a2": 11257, "\u73a9": 11258, "\u73ab": 11259, "\u73ae": 11260, "\u73af": 11261, "\u73b0": 11262, "\u73b2": 11263, "\u73b3": 11264, "\u73b7": 11265, "\u73ba": 11266, "\u73bb": 11267, "\u73c0": 11268, "\u73c2": 11269, "\u73c8": 11270, "\u73c9": 11271, "\u73ca": 11272, "\u73cd": 11273, "\u73cf": 11274, "\u73d0": 11275, "\u73d1": 11276, "\u73d9": 11277, "\u73de": 11278, "\u73e0": 11279, "\u73e5": 11280, "\u73e7": 11281, "\u73e9": 11282, "\u73ed": 11283, "\u73f2": 11284, "\u73fe": 11285, "\u7403": 11286, "\u7405": 11287, "\u7406": 11288, "\u7409": 11289, "\u740a": 11290, "\u740f": 11291, "\u7410": 11292, "\u741a": 11293, "\u741b": 11294, "\u7422": 11295, "\u7425": 11296, "\u7426": 11297, "\u7428": 11298, "\u742a": 11299, "\u742c": 11300, "\u742e": 11301, "\u7430": 11302, "\u7433": 11303, "\u7434": 11304, "\u7435": 11305, "\u7436": 11306, "\u743c": 11307, "\u743f": 11308, "\u7441": 11309, "\u744b": 11310, "\u7455": 11311, "\u7457": 11312, "\u7459": 11313, "\u745a": 11314, "\u745b": 11315, "\u745c": 11316, "\u745e": 11317, "\u745f": 11318, "\u7463": 11319, "\u7469": 11320, "\u746a": 11321, "\u746d": 11322, "\u7470": 11323, "\u7476": 11324, "\u7477": 11325, "\u747e": 11326, "\u7480": 11327, "\u7481": 11328, "\u7483": 11329, "\u7487": 11330, "\u7489": 11331, "\u748b": 11332, "\u748e": 11333, "\u7490": 11334, "\u749c": 11335, "\u749e": 11336, "\u74a3": 11337, "\u74a6": 11338, "\u74a7": 11339, "\u74a8": 11340, "\u74a9": 11341, "\u74b0": 11342, "\u74ba": 11343, "\u74bd": 11344, "\u74ca": 11345, "\u74cf": 11346, "\u74d2": 11347, "\u74d4": 11348, "\u74da": 11349, "\u74dc": 11350, "\u74de": 11351, "\u74e0": 11352, "\u74e2": 11353, "\u74e3": 11354, "\u74e4": 11355, "\u74e6": 11356, "\u74ee": 11357, "\u74ef": 11358, "\u74f4": 11359, "\u74f6": 11360, "\u74f7": 11361, "\u74ff": 11362, "\u7504": 11363, "\u750c": 11364, "\u750d": 11365, "\u750f": 11366, "\u7511": 11367, "\u7513": 11368, "\u7518": 11369, "\u7519": 11370, "\u751a": 11371, "\u751c": 11372, "\u751f": 11373, "\u7523": 11374, "\u7525": 11375, "\u7528": 11376, "\u7529": 11377, "\u752b": 11378, "\u752c": 11379, "\u752d": 11380, "\u752f": 11381, "\u7530": 11382, "\u7531": 11383, "\u7532": 11384, "\u7533": 11385, "\u7535": 11386, "\u7537": 11387, "\u7538": 11388, "\u753a": 11389, "\u753b": 11390, "\u753e": 11391, "\u7540": 11392, "\u7545": 11393, "\u7548": 11394, "\u754b": 11395, "\u754c": 11396, "\u754e": 11397, "\u754f": 11398, "\u7554": 11399, "\u7559": 11400, "\u755a": 11401, "\u755b": 11402, "\u755c": 11403, "\u755d": 11404, "\u7562": 11405, "\u7565": 11406, "\u7566": 11407, "\u756a": 11408, "\u756b": 11409, "\u7572": 11410, "\u7574": 11411, "\u7576": 11412, "\u7578": 11413, "\u7579": 11414, "\u757f": 11415, "\u7583": 11416, "\u7586": 11417, "\u7587": 11418, "\u758a": 11419, "\u758b": 11420, "\u758f": 11421, "\u7591": 11422, "\u7592": 11423, "\u7594": 11424, "\u7596": 11425, "\u7597": 11426, "\u7599": 11427, "\u759a": 11428, "\u759d": 11429, "\u759f": 11430, "\u75a0": 11431, "\u75a1": 11432, "\u75a3": 11433, "\u75a4": 11434, "\u75a5": 11435, "\u75ab": 11436, "\u75ac": 11437, "\u75ae": 11438, "\u75af": 11439, "\u75b0": 11440, "\u75b1": 11441, "\u75b2": 11442, "\u75b3": 11443, "\u75b4": 11444, "\u75b5": 11445, "\u75b8": 11446, "\u75b9": 11447, "\u75bc": 11448, "\u75bd": 11449, "\u75be": 11450, "\u75c2": 11451, "\u75c3": 11452, "\u75c4": 11453, "\u75c5": 11454, "\u75c7": 11455, "\u75c8": 11456, "\u75c9": 11457, "\u75ca": 11458, "\u75cd": 11459, "\u75d2": 11460, "\u75d4": 11461, "\u75d5": 11462, "\u75d6": 11463, "\u75d8": 11464, "\u75d9": 11465, "\u75db": 11466, "\u75de": 11467, "\u75e2": 11468, "\u75e3": 11469, "\u75e4": 11470, "\u75e6": 11471, "\u75e7": 11472, "\u75e8": 11473, "\u75ea": 11474, "\u75eb": 11475, "\u75f0": 11476, "\u75f1": 11477, "\u75f4": 11478, "\u75f9": 11479, "\u75fc": 11480, "\u75ff": 11481, "\u7600": 11482, "\u7601": 11483, "\u7602": 11484, "\u7603": 11485, "\u7605": 11486, "\u760a": 11487, "\u760b": 11488, "\u760c": 11489, "\u760d": 11490, "\u7610": 11491, "\u7613": 11492, "\u7615": 11493, "\u7617": 11494, "\u7618": 11495, "\u7619": 11496, "\u761b": 11497, "\u761e": 11498, "\u761f": 11499, "\u7620": 11500, "\u7621": 11501, "\u7622": 11502, "\u7624": 11503, "\u7625": 11504, "\u7626": 11505, "\u7627": 11506, "\u7629": 11507, "\u762a": 11508, "\u762b": 11509, "\u762d": 11510, "\u7630": 11511, "\u7633": 11512, "\u7634": 11513, "\u7635": 11514, "\u7638": 11515, "\u763b": 11516, "\u763c": 11517, "\u763e": 11518, "\u763f": 11519, "\u7640": 11520, "\u7642": 11521, "\u7643": 11522, "\u7646": 11523, "\u7647": 11524, "\u7649": 11525, "\u764c": 11526, "\u764d": 11527, "\u7654": 11528, "\u7656": 11529, "\u7658": 11530, "\u765c": 11531, "\u765e": 11532, "\u765f": 11533, "\u7662": 11534, "\u7663": 11535, "\u7664": 11536, "\u7665": 11537, "\u7667": 11538, "\u7669": 11539, "\u766b": 11540, "\u766c": 11541, "\u766d": 11542, "\u766e": 11543, "\u766f": 11544, "\u7670": 11545, "\u7671": 11546, "\u7672": 11547, "\u7678": 11548, "\u767b": 11549, "\u767c": 11550, "\u767d": 11551, "\u767e": 11552, "\u7682": 11553, "\u7684": 11554, "\u7686": 11555, "\u7687": 11556, "\u7688": 11557, "\u768b": 11558, "\u768e": 11559, "\u7691": 11560, "\u7693": 11561, "\u7696": 11562, "\u7699": 11563, "\u769a": 11564, "\u76a4": 11565, "\u76ae": 11566, "\u76b1": 11567, "\u76b2": 11568, "\u76b4": 11569, "\u76b8": 11570, "\u76ba": 11571, "\u76bf": 11572, "\u76c2": 11573, "\u76c5": 11574, "\u76c6": 11575, "\u76c8": 11576, "\u76ca": 11577, "\u76cd": 11578, "\u76ce": 11579, "\u76cf": 11580, "\u76d0": 11581, "\u76d1": 11582, "\u76d2": 11583, "\u76d4": 11584, "\u76d6": 11585, "\u76d7": 11586, "\u76d8": 11587, "\u76db": 11588, "\u76de": 11589, "\u76df": 11590, "\u76e1": 11591, "\u76e3": 11592, "\u76e4": 11593, "\u76e5": 11594, "\u76e7": 11595, "\u76ee": 11596, "\u76ef": 11597, "\u76f1": 11598, "\u76f2": 11599, "\u76f4": 11600, "\u76f8": 11601, "\u76f9": 11602, "\u76fc": 11603, "\u76fe": 11604, "\u7701": 11605, "\u7704": 11606, "\u7707": 11607, "\u7708": 11608, "\u7709": 11609, "\u770b": 11610, "\u770d": 11611, "\u7719": 11612, "\u771a": 11613, "\u771f": 11614, "\u7720": 11615, "\u7722": 11616, "\u7726": 11617, "\u7728": 11618, "\u7729": 11619, "\u772d": 11620, "\u772f": 11621, "\u7735": 11622, "\u7736": 11623, "\u7737": 11624, "\u7738": 11625, "\u773a": 11626, "\u773c": 11627, "\u7740": 11628, "\u7741": 11629, "\u7743": 11630, "\u7747": 11631, "\u774f": 11632, "\u7750": 11633, "\u7751": 11634, "\u775a": 11635, "\u775b": 11636, "\u775c": 11637, "\u775e": 11638, "\u7761": 11639, "\u7762": 11640, "\u7763": 11641, "\u7765": 11642, "\u7766": 11643, "\u7768": 11644, "\u776b": 11645, "\u776c": 11646, "\u7779": 11647, "\u777d": 11648, "\u777e": 11649, "\u777f": 11650, "\u7780": 11651, "\u7784": 11652, "\u7785": 11653, "\u778c": 11654, "\u778d": 11655, "\u778e": 11656, "\u7791": 11657, "\u7792": 11658, "\u7798": 11659, "\u779e": 11660, "\u779f": 11661, "\u77a0": 11662, "\u77a2": 11663, "\u77a5": 11664, "\u77a7": 11665, "\u77a9": 11666, "\u77aa": 11667, "\u77ac": 11668, "\u77ad": 11669, "\u77b0": 11670, "\u77b3": 11671, "\u77b5": 11672, "\u77bb": 11673, "\u77bc": 11674, "\u77bd": 11675, "\u77bf": 11676, "\u77c7": 11677, "\u77cd": 11678, "\u77d7": 11679, "\u77da": 11680, "\u77db": 11681, "\u77dc": 11682, "\u77e2": 11683, "\u77e3": 11684, "\u77e5": 11685, "\u77e7": 11686, "\u77e9": 11687, "\u77eb": 11688, "\u77ec": 11689, "\u77ed": 11690, "\u77ee": 11691, "\u77ef": 11692, "\u77f3": 11693, "\u77f6": 11694, "\u77f8": 11695, "\u77fd": 11696, "\u77fe": 11697, "\u77ff": 11698, "\u7800": 11699, "\u7801": 11700, "\u7802": 11701, "\u7809": 11702, "\u780c": 11703, "\u780d": 11704, "\u7811": 11705, "\u7812": 11706, "\u7814": 11707, "\u7816": 11708, "\u7817": 11709, "\u7818": 11710, "\u781a": 11711, "\u781c": 11712, "\u781d": 11713, "\u781f": 11714, "\u7823": 11715, "\u7825": 11716, "\u7826": 11717, "\u7827": 11718, "\u7829": 11719, "\u782c": 11720, "\u782d": 11721, "\u7830": 11722, "\u7834": 11723, "\u7837": 11724, "\u7838": 11725, "\u7839": 11726, "\u783a": 11727, "\u783b": 11728, "\u783c": 11729, "\u783e": 11730, "\u7840": 11731, "\u7843": 11732, "\u7845": 11733, "\u7847": 11734, "\u784c": 11735, "\u784e": 11736, "\u7850": 11737, "\u7852": 11738, "\u7855": 11739, "\u7856": 11740, "\u7857": 11741, "\u785d": 11742, "\u7864": 11743, "\u7868": 11744, "\u786a": 11745, "\u786b": 11746, "\u786c": 11747, "\u786d": 11748, "\u786e": 11749, "\u786f": 11750, "\u7877": 11751, "\u787c": 11752, "\u7887": 11753, "\u7889": 11754, "\u788c": 11755, "\u788d": 11756, "\u788e": 11757, "\u7891": 11758, "\u7893": 11759, "\u7897": 11760, "\u7898": 11761, "\u789a": 11762, "\u789b": 11763, "\u789c": 11764, "\u789f": 11765, "\u78a1": 11766, "\u78a3": 11767, "\u78a5": 11768, "\u78a7": 11769, "\u78a9": 11770, "\u78ad": 11771, "\u78b0": 11772, "\u78b1": 11773, "\u78b2": 11774, "\u78b3": 11775, "\u78b4": 11776, "\u78b8": 11777, "\u78b9": 11778, "\u78ba": 11779, "\u78bc": 11780, "\u78be": 11781, "\u78c1": 11782, "\u78c5": 11783, "\u78c9": 11784, "\u78ca": 11785, "\u78cb": 11786, "\u78d0": 11787, "\u78d4": 11788, "\u78d5": 11789, "\u78d9": 11790, "\u78da": 11791, "\u78e3": 11792, "\u78e7": 11793, "\u78e8": 11794, "\u78ec": 11795, "\u78ef": 11796, "\u78f2": 11797, "\u78f4": 11798, "\u78f7": 11799, "\u78fa": 11800, "\u78fd": 11801, "\u7901": 11802, "\u7905": 11803, "\u790e": 11804, "\u7913": 11805, "\u7919": 11806, "\u791e": 11807, "\u7924": 11808, "\u7926": 11809, "\u792a": 11810, "\u792b": 11811, "\u792c": 11812, "\u7931": 11813, "\u7934": 11814, "\u793a": 11815, "\u793b": 11816, "\u793c": 11817, "\u793e": 11818, "\u7940": 11819, "\u7941": 11820, "\u7946": 11821, "\u7948": 11822, "\u7949": 11823, "\u7953": 11824, "\u7956": 11825, "\u7957": 11826, "\u795a": 11827, "\u795b": 11828, "\u795c": 11829, "\u795d": 11830, "\u795e": 11831, "\u795f": 11832, "\u7960": 11833, "\u7962": 11834, "\u7965": 11835, "\u7967": 11836, "\u7968": 11837, "\u796d": 11838, "\u796f": 11839, "\u7977": 11840, "\u7978": 11841, "\u797a": 11842, "\u7980": 11843, "\u7981": 11844, "\u7984": 11845, "\u7985": 11846, "\u798a": 11847, "\u798d": 11848, "\u798e": 11849, "\u798f": 11850, "\u799a": 11851, "\u79a6": 11852, "\u79a7": 11853, "\u79aa": 11854, "\u79ae": 11855, "\u79b0": 11856, "\u79b1": 11857, "\u79b3": 11858, "\u79b9": 11859, "\u79ba": 11860, "\u79bb": 11861, "\u79bd": 11862, "\u79be": 11863, "\u79c0": 11864, "\u79c1": 11865, "\u79c3": 11866, "\u79c6": 11867, "\u79c9": 11868, "\u79cb": 11869, "\u79cd": 11870, "\u79d1": 11871, "\u79d2": 11872, "\u79d5": 11873, "\u79d8": 11874, "\u79df": 11875, "\u79e3": 11876, "\u79e4": 11877, "\u79e6": 11878, "\u79e7": 11879, "\u79e9": 11880, "\u79eb": 11881, "\u79ed": 11882, "\u79ef": 11883, "\u79f0": 11884, "\u79f8": 11885, "\u79fb": 11886, "\u79fd": 11887, "\u7a00": 11888, "\u7a02": 11889, "\u7a03": 11890, "\u7a06": 11891, "\u7a0b": 11892, "\u7a0d": 11893, "\u7a0e": 11894, "\u7a14": 11895, "\u7a17": 11896, "\u7a1a": 11897, "\u7a1e": 11898, "\u7a20": 11899, "\u7a23": 11900, "\u7a2e": 11901, "\u7a31": 11902, "\u7a33": 11903, "\u7a37": 11904, "\u7a39": 11905, "\u7a3b": 11906, "\u7a3c": 11907, "\u7a3d": 11908, "\u7a3f": 11909, "\u7a40": 11910, "\u7a46": 11911, "\u7a4c": 11912, "\u7a4d": 11913, "\u7a4e": 11914, "\u7a51": 11915, "\u7a57": 11916, "\u7a61": 11917, "\u7a62": 11918, "\u7a69": 11919, "\u7a6b": 11920, "\u7a70": 11921, "\u7a74": 11922, "\u7a76": 11923, "\u7a77": 11924, "\u7a78": 11925, "\u7a79": 11926, "\u7a7a": 11927, "\u7a7f": 11928, "\u7a80": 11929, "\u7a81": 11930, "\u7a83": 11931, "\u7a84": 11932, "\u7a86": 11933, "\u7a88": 11934, "\u7a8d": 11935, "\u7a91": 11936, "\u7a92": 11937, "\u7a95": 11938, "\u7a96": 11939, "\u7a97": 11940, "\u7a98": 11941, "\u7a9c": 11942, "\u7a9d": 11943, "\u7a9f": 11944, "\u7aa0": 11945, "\u7aa5": 11946, "\u7aa6": 11947, "\u7aa8": 11948, "\u7aa9": 11949, "\u7aaa": 11950, "\u7aac": 11951, "\u7aad": 11952, "\u7aae": 11953, "\u7ab3": 11954, "\u7ab6": 11955, "\u7aba": 11956, "\u7abf": 11957, "\u7ac4": 11958, "\u7ac5": 11959, "\u7ac7": 11960, "\u7ac8": 11961, "\u7aca": 11962, "\u7acb": 11963, "\u7ad6": 11964, "\u7ad9": 11965, "\u7ade": 11966, "\u7adf": 11967, "\u7ae0": 11968, "\u7ae3": 11969, "\u7ae5": 11970, "\u7ae6": 11971, "\u7aea": 11972, "\u7aed": 11973, "\u7aef": 11974, "\u7af6": 11975, "\u7af9": 11976, "\u7afa": 11977, "\u7afd": 11978, "\u7aff": 11979, "\u7b03": 11980, "\u7b04": 11981, "\u7b06": 11982, "\u7b08": 11983, "\u7b0a": 11984, "\u7b0b": 11985, "\u7b0f": 11986, "\u7b11": 11987, "\u7b14": 11988, "\u7b15": 11989, "\u7b19": 11990, "\u7b1b": 11991, "\u7b1e": 11992, "\u7b20": 11993, "\u7b24": 11994, "\u7b25": 11995, "\u7b26": 11996, "\u7b28": 11997, "\u7b2a": 11998, "\u7b2b": 11999, "\u7b2c": 12000, "\u7b2e": 12001, "\u7b31": 12002, "\u7b33": 12003, "\u7b38": 12004, "\u7b3a": 12005, "\u7b3c": 12006, "\u7b3e": 12007, "\u7b45": 12008, "\u7b46": 12009, "\u7b47": 12010, "\u7b49": 12011, "\u7b4b": 12012, "\u7b4c": 12013, "\u7b4f": 12014, "\u7b50": 12015, "\u7b51": 12016, "\u7b52": 12017, "\u7b54": 12018, "\u7b56": 12019, "\u7b58": 12020, "\u7b5a": 12021, "\u7b5b": 12022, "\u7b5d": 12023, "\u7b60": 12024, "\u7b62": 12025, "\u7b67": 12026, "\u7b6e": 12027, "\u7b71": 12028, "\u7b72": 12029, "\u7b75": 12030, "\u7b77": 12031, "\u7b79": 12032, "\u7b7b": 12033, "\u7b7e": 12034, "\u7b80": 12035, "\u7b85": 12036, "\u7b8b": 12037, "\u7b8d": 12038, "\u7b8f": 12039, "\u7b90": 12040, "\u7b94": 12041, "\u7b95": 12042, "\u7b97": 12043, "\u7b9c": 12044, "\u7b9d": 12045, "\u7ba1": 12046, "\u7ba2": 12047, "\u7ba6": 12048, "\u7ba7": 12049, "\u7ba8": 12050, "\u7ba9": 12051, "\u7baa": 12052, "\u7bab": 12053, "\u7bac": 12054, "\u7bad": 12055, "\u7bb1": 12056, "\u7bb4": 12057, "\u7bb8": 12058, "\u7bc0": 12059, "\u7bc1": 12060, "\u7bc4": 12061, "\u7bc6": 12062, "\u7bc7": 12063, "\u7bc9": 12064, "\u7bcb": 12065, "\u7bcc": 12066, "\u7bd1": 12067, "\u7bd3": 12068, "\u7bd9": 12069, "\u7bda": 12070, "\u7bdd": 12071, "\u7be1": 12072, "\u7be4": 12073, "\u7be5": 12074, "\u7be6": 12075, "\u7be9": 12076, "\u7bea": 12077, "\u7bee": 12078, "\u7bf1": 12079, "\u7bf3": 12080, "\u7bf7": 12081, "\u7bfc": 12082, "\u7bfe": 12083, "\u7c00": 12084, "\u7c07": 12085, "\u7c0b": 12086, "\u7c0c": 12087, "\u7c0d": 12088, "\u7c0f": 12089, "\u7c16": 12090, "\u7c1e": 12091, "\u7c1f": 12092, "\u7c21": 12093, "\u7c23": 12094, "\u7c26": 12095, "\u7c27": 12096, "\u7c2a": 12097, "\u7c2b": 12098, "\u7c38": 12099, "\u7c3d": 12100, "\u7c3e": 12101, "\u7c3f": 12102, "\u7c40": 12103, "\u7c41": 12104, "\u7c43": 12105, "\u7c4c": 12106, "\u7c4d": 12107, "\u7c5c": 12108, "\u7c5f": 12109, "\u7c60": 12110, "\u7c64": 12111, "\u7c69": 12112, "\u7c6a": 12113, "\u7c6c": 12114, "\u7c6e": 12115, "\u7c72": 12116, "\u7c73": 12117, "\u7c74": 12118, "\u7c7b": 12119, "\u7c7c": 12120, "\u7c7d": 12121, "\u7c89": 12122, "\u7c91": 12123, "\u7c92": 12124, "\u7c95": 12125, "\u7c97": 12126, "\u7c98": 12127, "\u7c9c": 12128, "\u7c9d": 12129, "\u7c9e": 12130, "\u7c9f": 12131, "\u7ca2": 12132, "\u7ca4": 12133, "\u7ca5": 12134, "\u7caa": 12135, "\u7cae": 12136, "\u7cb1": 12137, "\u7cb2": 12138, "\u7cb3": 12139, "\u7cb9": 12140, "\u7cbc": 12141, "\u7cbd": 12142, "\u7cbe": 12143, "\u7cc1": 12144, "\u7cc5": 12145, "\u7cc7": 12146, "\u7cc8": 12147, "\u7cca": 12148, "\u7ccc": 12149, "\u7ccd": 12150, "\u7cd5": 12151, "\u7cd6": 12152, "\u7cd7": 12153, "\u7cd9": 12154, "\u7cdc": 12155, "\u7cdd": 12156, "\u7cde": 12157, "\u7cdf": 12158, "\u7ce0": 12159, "\u7ce7": 12160, "\u7ce8": 12161, "\u7cef": 12162, "\u7cf0": 12163, "\u7cf2": 12164, "\u7cf4": 12165, "\u7cf6": 12166, "\u7cf8": 12167, "\u7cf9": 12168, "\u7cfb": 12169, "\u7cfe": 12170, "\u7d00": 12171, "\u7d02": 12172, "\u7d04": 12173, "\u7d05": 12174, "\u7d06": 12175, "\u7d07": 12176, "\u7d08": 12177, "\u7d09": 12178, "\u7d0a": 12179, "\u7d0b": 12180, "\u7d0d": 12181, "\u7d10": 12182, "\u7d13": 12183, "\u7d14": 12184, "\u7d15": 12185, "\u7d17": 12186, "\u7d19": 12187, "\u7d1a": 12188, "\u7d1b": 12189, "\u7d1c": 12190, "\u7d20": 12191, "\u7d21": 12192, "\u7d22": 12193, "\u7d27": 12194, "\u7d2b": 12195, "\u7d2f": 12196, "\u7d30": 12197, "\u7d31": 12198, "\u7d32": 12199, "\u7d33": 12200, "\u7d39": 12201, "\u7d3a": 12202, "\u7d3c": 12203, "\u7d3f": 12204, "\u7d40": 12205, "\u7d42": 12206, "\u7d44": 12207, "\u7d46": 12208, "\u7d4e": 12209, "\u7d50": 12210, "\u7d5d": 12211, "\u7d5e": 12212, "\u7d61": 12213, "\u7d62": 12214, "\u7d66": 12215, "\u7d68": 12216, "\u7d6e": 12217, "\u7d71": 12218, "\u7d72": 12219, "\u7d73": 12220, "\u7d76": 12221, "\u7d77": 12222, "\u7d79": 12223, "\u7d81": 12224, "\u7d83": 12225, "\u7d86": 12226, "\u7d88": 12227, "\u7d89": 12228, "\u7d8f": 12229, "\u7d93": 12230, "\u7d9c": 12231, "\u7d9e": 12232, "\u7da2": 12233, "\u7da3": 12234, "\u7da6": 12235, "\u7dab": 12236, "\u7dac": 12237, "\u7dad": 12238, "\u7dae": 12239, "\u7db0": 12240, "\u7db1": 12241, "\u7db2": 12242, "\u7db3": 12243, "\u7db4": 12244, "\u7db8": 12245, "\u7db9": 12246, "\u7dba": 12247, "\u7dbb": 12248, "\u7dbd": 12249, "\u7dbe": 12250, "\u7dbf": 12251, "\u7dc4": 12252, "\u7dc7": 12253, "\u7dca": 12254, "\u7dcb": 12255, "\u7dd1": 12256, "\u7dd2": 12257, "\u7dd4": 12258, "\u7dd7": 12259, "\u7dd8": 12260, "\u7dd9": 12261, "\u7ddd": 12262, "\u7dde": 12263, "\u7de0": 12264, "\u7de1": 12265, "\u7de3": 12266, "\u7de6": 12267, "\u7de8": 12268, "\u7de9": 12269, "\u7dec": 12270, "\u7def": 12271, "\u7df1": 12272, "\u7df2": 12273, "\u7df4": 12274, "\u7df6": 12275, "\u7df9": 12276, "\u7dfb": 12277, "\u7e08": 12278, "\u7e09": 12279, "\u7e0a": 12280, "\u7e0b": 12281, "\u7e10": 12282, "\u7e11": 12283, "\u7e1b": 12284, "\u7e1d": 12285, "\u7e1e": 12286, "\u7e1f": 12287, "\u7e23": 12288, "\u7e27": 12289, "\u7e2b": 12290, "\u7e2d": 12291, "\u7e2e": 12292, "\u7e31": 12293, "\u7e32": 12294, "\u7e34": 12295, "\u7e35": 12296, "\u7e36": 12297, "\u7e37": 12298, "\u7e39": 12299, "\u7e3b": 12300, "\u7e3d": 12301, "\u7e3e": 12302, "\u7e41": 12303, "\u7e45": 12304, "\u7e46": 12305, "\u7e47": 12306, "\u7e52": 12307, "\u7e54": 12308, "\u7e55": 12309, "\u7e5a": 12310, "\u7e5e": 12311, "\u7e62": 12312, "\u7e69": 12313, "\u7e6a": 12314, "\u7e6b": 12315, "\u7e6d": 12316, "\u7e6e": 12317, "\u7e6f": 12318, "\u7e70": 12319, "\u7e73": 12320, "\u7e79": 12321, "\u7e7c": 12322, "\u7e7d": 12323, "\u7e7e": 12324, "\u7e82": 12325, "\u7e88": 12326, "\u7e8a": 12327, "\u7e8c": 12328, "\u7e8d": 12329, "\u7e8f": 12330, "\u7e93": 12331, "\u7e94": 12332, "\u7e96": 12333, "\u7e98": 12334, "\u7e9b": 12335, "\u7e9c": 12336, "\u7e9f": 12337, "\u7ea0": 12338, "\u7ea1": 12339, "\u7ea2": 12340, "\u7ea3": 12341, "\u7ea4": 12342, "\u7ea5": 12343, "\u7ea6": 12344, "\u7ea7": 12345, "\u7ea8": 12346, "\u7ea9": 12347, "\u7eaa": 12348, "\u7eab": 12349, "\u7eac": 12350, "\u7ead": 12351, "\u7eaf": 12352, "\u7eb0": 12353, "\u7eb1": 12354, "\u7eb2": 12355, "\u7eb3": 12356, "\u7eb5": 12357, "\u7eb6": 12358, "\u7eb7": 12359, "\u7eb8": 12360, "\u7eb9": 12361, "\u7eba": 12362, "\u7ebd": 12363, "\u7ebe": 12364, "\u7ebf": 12365, "\u7ec0": 12366, "\u7ec1": 12367, "\u7ec2": 12368, "\u7ec3": 12369, "\u7ec4": 12370, "\u7ec5": 12371, "\u7ec6": 12372, "\u7ec7": 12373, "\u7ec8": 12374, "\u7ec9": 12375, "\u7eca": 12376, "\u7ecb": 12377, "\u7ecc": 12378, "\u7ecd": 12379, "\u7ece": 12380, "\u7ecf": 12381, "\u7ed0": 12382, "\u7ed1": 12383, "\u7ed2": 12384, "\u7ed3": 12385, "\u7ed4": 12386, "\u7ed5": 12387, "\u7ed7": 12388, "\u7ed8": 12389, "\u7ed9": 12390, "\u7eda": 12391, "\u7edb": 12392, "\u7edc": 12393, "\u7edd": 12394, "\u7ede": 12395, "\u7edf": 12396, "\u7ee0": 12397, "\u7ee1": 12398, "\u7ee2": 12399, "\u7ee3": 12400, "\u7ee5": 12401, "\u7ee6": 12402, "\u7ee7": 12403, "\u7ee8": 12404, "\u7ee9": 12405, "\u7eea": 12406, "\u7eeb": 12407, "\u7eed": 12408, "\u7eee": 12409, "\u7eef": 12410, "\u7ef0": 12411, "\u7ef1": 12412, "\u7ef2": 12413, "\u7ef3": 12414, "\u7ef4": 12415, "\u7ef5": 12416, "\u7ef6": 12417, "\u7ef7": 12418, "\u7ef8": 12419, "\u7efa": 12420, "\u7efb": 12421, "\u7efc": 12422, "\u7efd": 12423, "\u7efe": 12424, "\u7eff": 12425, "\u7f00": 12426, "\u7f01": 12427, "\u7f02": 12428, "\u7f03": 12429, "\u7f04": 12430, "\u7f05": 12431, "\u7f06": 12432, "\u7f07": 12433, "\u7f08": 12434, "\u7f09": 12435, "\u7f0b": 12436, "\u7f0c": 12437, "\u7f0d": 12438, "\u7f0e": 12439, "\u7f0f": 12440, "\u7f11": 12441, "\u7f12": 12442, "\u7f13": 12443, "\u7f14": 12444, "\u7f15": 12445, "\u7f16": 12446, "\u7f17": 12447, "\u7f18": 12448, "\u7f19": 12449, "\u7f1a": 12450, "\u7f1b": 12451, "\u7f1c": 12452, "\u7f1d": 12453, "\u7f1f": 12454, "\u7f20": 12455, "\u7f21": 12456, "\u7f22": 12457, "\u7f23": 12458, "\u7f24": 12459, "\u7f25": 12460, "\u7f26": 12461, "\u7f27": 12462, "\u7f28": 12463, "\u7f29": 12464, "\u7f2a": 12465, "\u7f2b": 12466, "\u7f2c": 12467, "\u7f2d": 12468, "\u7f2e": 12469, "\u7f2f": 12470, "\u7f30": 12471, "\u7f31": 12472, "\u7f32": 12473, "\u7f33": 12474, "\u7f34": 12475, "\u7f35": 12476, "\u7f36": 12477, "\u7f38": 12478, "\u7f3a": 12479, "\u7f42": 12480, "\u7f44": 12481, "\u7f45": 12482, "\u7f4c": 12483, "\u7f4e": 12484, "\u7f50": 12485, "\u7f51": 12486, "\u7f54": 12487, "\u7f55": 12488, "\u7f57": 12489, "\u7f58": 12490, "\u7f5a": 12491, "\u7f5f": 12492, "\u7f61": 12493, "\u7f62": 12494, "\u7f68": 12495, "\u7f69": 12496, "\u7f6a": 12497, "\u7f6e": 12498, "\u7f70": 12499, "\u7f71": 12500, "\u7f72": 12501, "\u7f74": 12502, "\u7f77": 12503, "\u7f79": 12504, "\u7f7e": 12505, "\u7f81": 12506, "\u7f85": 12507, "\u7f86": 12508, "\u7f88": 12509, "\u7f8a": 12510, "\u7f8c": 12511, "\u7f8e": 12512, "\u7f94": 12513, "\u7f9a": 12514, "\u7f9d": 12515, "\u7f9e": 12516, "\u7f9f": 12517, "\u7fa1": 12518, "\u7fa4": 12519, "\u7fa5": 12520, "\u7fa7": 12521, "\u7fa9": 12522, "\u7faf": 12523, "\u7fb0": 12524, "\u7fb2": 12525, "\u7fb8": 12526, "\u7fb9": 12527, "\u7fbc": 12528, "\u7fbd": 12529, "\u7fbf": 12530, "\u7fc1": 12531, "\u7fc5": 12532, "\u7fca": 12533, "\u7fcc": 12534, "\u7fce": 12535, "\u7fd2": 12536, "\u7fd4": 12537, "\u7fd5": 12538, "\u7fd8": 12539, "\u7fdf": 12540, "\u7fe0": 12541, "\u7fe1": 12542, "\u7fe5": 12543, "\u7fe6": 12544, "\u7fe9": 12545, "\u7fee": 12546, "\u7ff0": 12547, "\u7ff1": 12548, "\u7ff3": 12549, "\u7ff9": 12550, "\u7ffb": 12551, "\u7ffc": 12552, "\u8000": 12553, "\u8001": 12554, "\u8003": 12555, "\u8004": 12556, "\u8005": 12557, "\u8006": 12558, "\u800b": 12559, "\u800c": 12560, "\u800d": 12561, "\u8010": 12562, "\u8012": 12563, "\u8014": 12564, "\u8015": 12565, "\u8016": 12566, "\u8017": 12567, "\u8018": 12568, "\u8019": 12569, "\u801c": 12570, "\u8020": 12571, "\u8022": 12572, "\u8025": 12573, "\u8026": 12574, "\u8027": 12575, "\u8028": 12576, "\u8029": 12577, "\u802a": 12578, "\u802c": 12579, "\u802e": 12580, "\u8031": 12581, "\u8033": 12582, "\u8035": 12583, "\u8036": 12584, "\u8037": 12585, "\u8038": 12586, "\u803b": 12587, "\u803d": 12588, "\u803f": 12589, "\u8042": 12590, "\u8043": 12591, "\u8046": 12592, "\u804a": 12593, "\u804b": 12594, "\u804c": 12595, "\u804d": 12596, "\u8052": 12597, "\u8054": 12598, "\u8056": 12599, "\u8058": 12600, "\u805a": 12601, "\u805e": 12602, "\u8069": 12603, "\u806a": 12604, "\u806f": 12605, "\u8070": 12606, "\u8071": 12607, "\u8072": 12608, "\u8073": 12609, "\u8075": 12610, "\u8076": 12611, "\u8077": 12612, "\u8079": 12613, "\u807d": 12614, "\u807e": 12615, "\u807f": 12616, "\u8080": 12617, "\u8083": 12618, "\u8084": 12619, "\u8085": 12620, "\u8086": 12621, "\u8087": 12622, "\u8089": 12623, "\u808b": 12624, "\u808c": 12625, "\u8093": 12626, "\u8096": 12627, "\u8098": 12628, "\u809a": 12629, "\u809b": 12630, "\u809c": 12631, "\u809d": 12632, "\u809f": 12633, "\u80a0": 12634, "\u80a1": 12635, "\u80a2": 12636, "\u80a4": 12637, "\u80a5": 12638, "\u80a9": 12639, "\u80aa": 12640, "\u80ab": 12641, "\u80ad": 12642, "\u80ae": 12643, "\u80af": 12644, "\u80b1": 12645, "\u80b2": 12646, "\u80b4": 12647, "\u80b7": 12648, "\u80ba": 12649, "\u80bc": 12650, "\u80bd": 12651, "\u80be": 12652, "\u80bf": 12653, "\u80c0": 12654, "\u80c1": 12655, "\u80c2": 12656, "\u80c3": 12657, "\u80c4": 12658, "\u80c6": 12659, "\u80cc": 12660, "\u80cd": 12661, "\u80ce": 12662, "\u80d6": 12663, "\u80d7": 12664, "\u80d9": 12665, "\u80da": 12666, "\u80db": 12667, "\u80dc": 12668, "\u80dd": 12669, "\u80de": 12670, "\u80e1": 12671, "\u80e4": 12672, "\u80e5": 12673, "\u80e7": 12674, "\u80e8": 12675, "\u80e9": 12676, "\u80ea": 12677, "\u80eb": 12678, "\u80ec": 12679, "\u80ed": 12680, "\u80ef": 12681, "\u80f0": 12682, "\u80f1": 12683, "\u80f2": 12684, "\u80f3": 12685, "\u80f4": 12686, "\u80f6": 12687, "\u80f8": 12688, "\u80fa": 12689, "\u80fc": 12690, "\u80fd": 12691, "\u8102": 12692, "\u8105": 12693, "\u8106": 12694, "\u8109": 12695, "\u810a": 12696, "\u810d": 12697, "\u810e": 12698, "\u810f": 12699, "\u8110": 12700, "\u8111": 12701, "\u8112": 12702, "\u8113": 12703, "\u8114": 12704, "\u8116": 12705, "\u8118": 12706, "\u811a": 12707, "\u811b": 12708, "\u811e": 12709, "\u812c": 12710, "\u812f": 12711, "\u8131": 12712, "\u8132": 12713, "\u8136": 12714, "\u8138": 12715, "\u8139": 12716, "\u813e": 12717, "\u8146": 12718, "\u8148": 12719, "\u814a": 12720, "\u814b": 12721, "\u814c": 12722, "\u814e": 12723, "\u8150": 12724, "\u8151": 12725, "\u8153": 12726, "\u8154": 12727, "\u8155": 12728, "\u8156": 12729, "\u8159": 12730, "\u815a": 12731, "\u8160": 12732, "\u8161": 12733, "\u8165": 12734, "\u8166": 12735, "\u8167": 12736, "\u8169": 12737, "\u816b": 12738, "\u816d": 12739, "\u816e": 12740, "\u8170": 12741, "\u8171": 12742, "\u8174": 12743, "\u8178": 12744, "\u8179": 12745, "\u817a": 12746, "\u817b": 12747, "\u817c": 12748, "\u817d": 12749, "\u817e": 12750, "\u817f": 12751, "\u8180": 12752, "\u8182": 12753, "\u8188": 12754, "\u818a": 12755, "\u818f": 12756, "\u8191": 12757, "\u8198": 12758, "\u819a": 12759, "\u819b": 12760, "\u819c": 12761, "\u819d": 12762, "\u81a0": 12763, "\u81a3": 12764, "\u81a6": 12765, "\u81a8": 12766, "\u81a9": 12767, "\u81aa": 12768, "\u81b3": 12769, "\u81ba": 12770, "\u81bb": 12771, "\u81bd": 12772, "\u81be": 12773, "\u81bf": 12774, "\u81c0": 12775, "\u81c1": 12776, "\u81c2": 12777, "\u81c3": 12778, "\u81c6": 12779, "\u81c9": 12780, "\u81ca": 12781, "\u81cc": 12782, "\u81cd": 12783, "\u81cf": 12784, "\u81d8": 12785, "\u81da": 12786, "\u81df": 12787, "\u81e0": 12788, "\u81e3": 12789, "\u81e7": 12790, "\u81e8": 12791, "\u81ea": 12792, "\u81ec": 12793, "\u81ed": 12794, "\u81f3": 12795, "\u81f4": 12796, "\u81fa": 12797, "\u81fb": 12798, "\u81fc": 12799, "\u81fe": 12800, "\u8200": 12801, "\u8201": 12802, "\u8202": 12803, "\u8204": 12804, "\u8205": 12805, "\u8206": 12806, "\u8207": 12807, "\u8208": 12808, "\u8209": 12809, "\u820a": 12810, "\u820c": 12811, "\u820d": 12812, "\u8210": 12813, "\u8212": 12814, "\u8214": 12815, "\u821b": 12816, "\u821c": 12817, "\u821e": 12818, "\u821f": 12819, "\u8221": 12820, "\u8222": 12821, "\u8223": 12822, "\u8228": 12823, "\u822a": 12824, "\u822b": 12825, "\u822c": 12826, "\u822d": 12827, "\u822f": 12828, "\u8230": 12829, "\u8231": 12830, "\u8233": 12831, "\u8234": 12832, "\u8235": 12833, "\u8236": 12834, "\u8237": 12835, "\u8238": 12836, "\u8239": 12837, "\u823b": 12838, "\u823e": 12839, "\u8244": 12840, "\u8247": 12841, "\u8249": 12842, "\u824b": 12843, "\u824f": 12844, "\u8258": 12845, "\u8259": 12846, "\u825a": 12847, "\u825f": 12848, "\u8264": 12849, "\u8266": 12850, "\u8268": 12851, "\u826b": 12852, "\u826e": 12853, "\u826f": 12854, "\u8270": 12855, "\u8271": 12856, "\u8272": 12857, "\u8273": 12858, "\u8274": 12859, "\u8277": 12860, "\u8279": 12861, "\u827a": 12862, "\u827d": 12863, "\u827e": 12864, "\u827f": 12865, "\u8282": 12866, "\u8284": 12867, "\u8288": 12868, "\u828a": 12869, "\u828b": 12870, "\u828d": 12871, "\u828e": 12872, "\u828f": 12873, "\u8291": 12874, "\u8292": 12875, "\u8297": 12876, "\u8298": 12877, "\u8299": 12878, "\u829c": 12879, "\u829d": 12880, "\u829f": 12881, "\u82a1": 12882, "\u82a4": 12883, "\u82a5": 12884, "\u82a6": 12885, "\u82a8": 12886, "\u82a9": 12887, "\u82aa": 12888, "\u82ab": 12889, "\u82ac": 12890, "\u82ad": 12891, "\u82ae": 12892, "\u82af": 12893, "\u82b0": 12894, "\u82b1": 12895, "\u82b3": 12896, "\u82b4": 12897, "\u82b7": 12898, "\u82b8": 12899, "\u82b9": 12900, "\u82bb": 12901, "\u82bd": 12902, "\u82be": 12903, "\u82c1": 12904, "\u82c4": 12905, "\u82c7": 12906, "\u82c8": 12907, "\u82ca": 12908, "\u82cb": 12909, "\u82cc": 12910, "\u82cd": 12911, "\u82ce": 12912, "\u82cf": 12913, "\u82d1": 12914, "\u82d2": 12915, "\u82d3": 12916, "\u82d4": 12917, "\u82d5": 12918, "\u82d7": 12919, "\u82d8": 12920, "\u82db": 12921, "\u82dc": 12922, "\u82de": 12923, "\u82df": 12924, "\u82e0": 12925, "\u82e1": 12926, "\u82e3": 12927, "\u82e4": 12928, "\u82e5": 12929, "\u82e6": 12930, "\u82e7": 12931, "\u82eb": 12932, "\u82ef": 12933, "\u82f1": 12934, "\u82f4": 12935, "\u82f7": 12936, "\u82f9": 12937, "\u82fb": 12938, "\u8301": 12939, "\u8302": 12940, "\u8303": 12941, "\u8304": 12942, "\u8305": 12943, "\u8306": 12944, "\u8307": 12945, "\u8308": 12946, "\u8309": 12947, "\u830c": 12948, "\u830e": 12949, "\u830f": 12950, "\u8311": 12951, "\u8314": 12952, "\u8315": 12953, "\u8317": 12954, "\u831a": 12955, "\u831b": 12956, "\u831c": 12957, "\u8327": 12958, "\u8328": 12959, "\u832b": 12960, "\u832c": 12961, "\u832d": 12962, "\u832f": 12963, "\u8331": 12964, "\u8333": 12965, "\u8334": 12966, "\u8335": 12967, "\u8336": 12968, "\u8338": 12969, "\u8339": 12970, "\u833a": 12971, "\u833c": 12972, "\u8340": 12973, "\u8343": 12974, "\u8346": 12975, "\u8347": 12976, "\u8349": 12977, "\u834f": 12978, "\u8350": 12979, "\u8351": 12980,
[...]
