{"vocab_size": 32768, "stoi": {"<|padding|>": 0, "<|unknown|>": 1, "<|bos|>": 2, "<|eos|>": 3, "<|instruct_mark|>": 4, "<|response_mark|>": 5, "<|BD4SUR|>": 6, "\u0000": 7, "\u0001": 8, "\u0002": 9, "\u0003": 10, "\u0004": 11, "\u0005": 12, "\u0006": 13, "\u0007": 14, "\b": 15, "\t": 16, "\n": 17, "\u000b": 18, "\f": 19, "\r": 20, "\u000e": 21, "\u000f": 22, "\u0010": 23, "\u0011": 24, "\u0012": 25, "\u0013": 26, "\u0014": 27, "\u0015": 28, "\u0016": 29, "\u0017": 30, "\u0018": 31, "\u0019": 32, "\u001a": 33, "\u001b": 34, "\u001c": 35, "\u001d": 36, "\u001e": 37, "\u001f": 38, " ": 39, "!": 40, "\"": 41, "#": 42, "$": 43, "%": 44, "&": 45, "'": 46, "(": 47, ")": 48, "*": 49, "+": 50, ",": 51, "-": 52, "-d": 53, "-o": 54, "-r": 55, "-ra": 56, "-ro": 57, ".": 58, "/": 59, "0": 60, "1": 61, "2": 62, "3": 63, "4": 64, "5": 65, "6": 66, "7": 67, "8": 68, "9": 69, ":": 70, ";": 71, "<": 72, "=": 73, ">": 74, "?": 75, "@": 76, "A": 77, "B": 78, "C": 79, "D": 80, "E": 81, "F": 82, "G": 83, "H": 84, "I": 85, "J": 86, "K": 87, "L": 88, "M": 89, "N": 90, "O": 91, "P": 92, "Q": 93, "R": 94, "S": 95, "T": 96, "U": 97, "V": 98, "W": 99, "X": 100, "Y": 101, "Z": 102, "[": 103, "\\": 104, "]": 105, "^": 106, "_": 107, "`": 108, "a": 109, "ab": 110, "abb": 111, "abi": 112, "abil": 113, "abili": 114, "abilit": 115, "abiliti": 116, "abilitie": 117, "abilities": 118, "ability": 119, "abl": 120, "able": 121, "abli": 122, "abo": 123, "abu": 124, "abul": 125, "abula": 126, "ac": 127, "acc": 128, "acce": 129, "accep": 130, "accept": 131, "acco": 132, "ace": 133, "ach": 134, "ache": 135, "achi": 136, "achin": 137, "achine": 138, "aci": 139, "acie": 140, "acies": 141, "acing": 142, "ack": 143, "acket": 144, "act": 145, "acti": 146, "actic": 147, "actio": 148, "action": 149, "activ": 150, "activi": 151, "activit": 152, "acto": 153, "actor": 154, "acy": 155, "ad": 156, "ada": 157, "ade": 158, "ader": 159, "adi": 160, "adia": 161, "adie": 162, "adies": 163, "adin": 164, "ading": 165, "adio": 166, "adioa": 167, "adioac": 168, "adioact": 169, "adioacti": 170, "adioactiv": 171, "adl": 172, "adli": 173, "adlin": 174, "ado": 175, "adow": 176, "adu": 177, "adua": 178, "aduat": 179, "adv": 180, "adva": 181, "advan": 182, "advant": 183, "advanta": 184, "advantag": 185, "advantage": 186, "adve": 187, "adver": 188, "advert": 189, "adverti": 190, "advertis": 191, "ady": 192, "ae": 193, "af": 194, "afe": 195, "afr": 196, "afric": 197, "africa": 198, "after": 199, "ag": 200, "aga": 201, "age": 202, "ageme": 203, "agemen": 204, "agement": 205, "ager": 206, "ages": 207, "agi": 208, "agin": 209, "aging": 210, "ago": 211, "agr": 212, "agre": 213, "agree": 214, "ai": 215, "aid": 216, "ail": 217, "ain": 218, "ainl": 219, "aint": 220, "air": 221, "airs": 222, "ais": 223, "ait": 224, "ak": 225, "ake": 226, "aker": 227, "aki": 228, "akin": 229, "aking": 230, "al": 231, "ala": 232, "alc": 233, "alco": 234, "ale": 235, "ales": 236, "ali": 237, "alia": 238, "alian": 239, "alis": 240, "alism": 241, "alist": 242, "alit": 243, "aliti": 244, "alitie": 245, "alities": 246, "ality": 247, "aliz": 248, "alize": 249, "alizi": 250, "alizin": 251, "alizing": 252, "alk": 253, "all": 254, "alle": 255, "ally": 256, "alo": 257, "alog": 258, "alogu": 259, "als": 260, "alt": 261, "alth": 262, "althi": 263, "althie": 264, "althy": 265, "alu": 266, "alv": 267, "aly": 268, "alys": 269, "am": 270, "ama": 271, "amb": 272, "ame": 273, "amen": 274, "ament": 275, "amer": 276, "ameri": 277, "americ": 278, "america": 279, "ami": 280, "amin": 281, "amina": 282, "aming": 283, "amm": 284, "amo": 285, "amp": 286, "ams": 287, "an": 288, "ana": 289, "anag": 290, "anage": 291, "anal": 292, "analy": 293, "analys": 294, "anc": 295, "ance": 296, "anci": 297, "ancie": 298, "ancies": 299, "ancy": 300, "and": 301, "anda": 302, "andi": 303, "andie": 304, "andl": 305, "andle": 306, "andpa": 307, "ands": 308, "ane": 309, "ang": 310, "ange": 311, "anger": 312, "angh": 313, "angha": 314, "anghai": 315, "ani": 316, "aning": 317, "anis": 318, "aniz": 319, "ank": 320, "anl": 321, "ann": 322, "anne": 323, "anner": 324, "anni": 325, "ans": 326, "ansla": 327, "anslat": 328, "ant": 329, "anta": 330, "antag": 331, "antage": 332, "anti": 333, "antif": 334, "ants": 335, "anu": 336, "any": 337, "ap": 338, "apa": 339, "apan": 340, "ape": 341, "aper": 342, "aph": 343, "apher": 344, "aphi": 345, "aphic": 346, "api": 347, "aping": 348, "apo": 349, "apolo": 350, "apolog": 351, "app": 352, "appe": 353, "appea": 354, "appear": 355, "appen": 356, "appi": 357, "appie": 358, "appr": 359, "appro": 360, "apt": 361, "ar": 362, "ara": 363, "arab": 364, "arabi": 365, "aranc": 366, "arance": 367, "arb": 368, "arc": 369, "arch": 370, "ard": 371, "arde": 372, "arden": 373, "ardi": 374, "ards": 375, "are": 376, "aren": 377, "arent": 378, "arg": 379, "arge": 380, "ari": 381, "arie": 382, "aries": 383, "aril": 384, "arily": 385, "arin": 386, "aring": 387, "arit": 388, "ariti": 389, "aritie": 390, "arities": 391, "arity": 392, "ark": 393, "arket": 394, "arl": 395, "arli": 396, "arly": 397, "arm": 398, "armi": 399, "armin": 400, "arming": 401, "arn": 402, "arnin": 403, "arning": 404, "arr": 405, "arri": 406, "arrie": 407, "arried": 408, "arriv": 409, "art": 410, "arte": 411, "arter": 412, "arti": 413, "artic": 414, "artie": 415, "arties": 416, "artme": 417, "artmen": 418, "artment": 419, "arx": 420, "arxi": 421, "arxis": 422, "ary": 423, "as": 424, "asa": 425, "asan": 426, "asant": 427, "ascul": 428, "asculi": 429, "asculin": 430, "ase": 431, "ash": 432, "asi": 433, "asia": 434, "asin": 435, "asing": 436, "ask": 437, "aso": 438, "ason": 439, "ass": 440, "assi": 441, "assie": 442, "assies": 443, "ast": 444, "aste": 445, "aster": 446, "asti": 447, "astic": 448, "astie": 449, "asties": 450, "asu": 451, "asur": 452, "asure": 453, "at": 454, "ata": 455, "atc": 456, "atch": 457, "ate": 458, "ated": 459, "ately": 460, "ater": 461, "ater-": 462, "ateri": 463, "ateria": 464, "aterial": 465, "atern": 466, "aterni": 467, "aternit": 468, "ates": 469, "ath": 470, "athe": 471, "ather": 472, "athi": 473, "ati": 474, "atic": 475, "atica": 476, "atical": 477, "atin": 478, "ating": 479, "atio": 480, "ation": 481, "ationa": 482, "ational": 483, "ations": 484, "atis": 485, "atisf": 486, "atisfi": 487, "atisfie": 488, "ativ": 489, "ative": 490, "ato": 491, "ator": 492, "atr": 493, "atri": 494, "atric": 495, "atry": 496, "ats": 497, "att": 498, "atte": 499, "atten": 500, "attent": 501, "atter": 502, "atu": 503, "atur": 504, "atura": 505, "ature": 506, "au": 507, "aug": 508, "augh": 509, "aught": 510, "aughte": 511, "aughter": 512, "aur": 513, "aus": 514, "ause": 515, "austr": 516, "austra": 517, "austral": 518, "australi": 519, "australia": 520, "aut": 521, "auti": 522, "auto": 523, "autom": 524, "automa": 525, "automat": 526, "av": 527, "ava": 528, "avail": 529, "ave": 530, "avel": 531, "avele": 532, "avi": 533, "avie": 534, "avies": 535, "avin": 536, "aving": 537, "avo": 538, "avour": 539, "aw": 540, "awa": 541, "ax": 542, "axi": 543, "ay": 544, "ays": 545, "az": 546, "azi": 547, "b": 548, "ba": 549, "bab": 550, "babi": 551, "bac": 552, "bag": 553, "bak": 554, "bal": 555, "ball": 556, "ban": 557, "bas": 558, "bat": 559, "bath": 560, "bb": 561, "bbe": 562, "bber": 563, "be": 564, "bea": 565, "beaut": 566, "bec": 567, "bed": 568, "bee": 569, "beg": 570, "begi": 571, "begin": 572, "beginn": 573, "bel": 574, "belie": 575, "believ": 576, "bell": 577, "ber": 578, "berr": 579, "berri": 580, "berrie": 581, "bet": 582, "bi": 583, "bia": 584, "bic": 585, "bicyc": 586, "bicycl": 587, "bie": 588, "bik": 589, "bil": 590, "bili": 591, "bilit": 592, "biliti": 593, "bilitie": 594, "bilities": 595, "bility": 596, "bin": 597, "bio": 598, "biolo": 599, "biolog": 600, "biot": 601, "bioti": 602, "biotic": 603, "bir": 604, "birth": 605, "bit": 606, "bj": 607, "bje": 608, "bjec": 609, "bject": 610, "bl": 611, "bla": 612, "ble": 613, "bli": 614, "blin": 615, "bling": 616, "blish": 617, "blo": 618, "bloo": 619, "blood": 620, "bloodi": 621, "bloodie": 622, "bly": 623, "bo": 624, "boa": 625, "bod": 626, "bodie": 627, "body": 628, "bon": 629, "boo": 630, "book": 631, "books": 632, "bor": 633, "bot": 634, "bou": 635, "bour": 636, "bow": 637, "box": 638, "br": 639, "bra": 640, "bre": 641, "brea": 642, "break": 643, "bri": 644, "brid": 645, "bridg": 646, "bro": 647, "broth": 648, "brothe": 649, "brother": 650, "bru": 651, "bs": 652, "bt": 653, "btitl": 654, "bu": 655, "buddh": 656, "buddhi": 657, "buddhis": 658, "bui": 659, "buil": 660, "build": 661, "buildi": 662, "buildin": 663, "building": 664, "bul": 665, "bula": 666, "bur": 667, "bus": 668, "busi": 669, "busie": 670, "busin": 671, "busine": 672, "busines": 673, "business": 674, "but": 675, "by": 676, "c": 677, "ca": 678, "cab": 679, "cag": 680, "cal": 681, "call": 682, "cally": 683, "cam": 684, "can": 685, "canad": 686, "canc": 687, "cand": 688, "candl": 689, "cap": 690, "car": 691, "card": 692, "carr": 693, "carri": 694, "carrie": 695, "cas": 696, "case": 697, "cat": 698, "cate": 699, "cati": 700, "catin": 701, "cating": 702, "catio": 703, "cation": 704, "cau": 705, "cause": 706, "cc": 707, "cce": 708, "ccept": 709, "cces": 710, "ccess": 711, "cco": 712, "ccu": 713, "ccupa": 714, "cd": 715, "ce": 716, "cei": 717, "ceiv": 718, "cel": 719, "cem": 720, "cemen": 721, "cen": 722, "cenc": 723, "cence": 724, "cent": 725, "cente": 726, "centr": 727, "centra": 728, "central": 729, "centrat": 730, "cep": 731, "cept": 732, "cer": 733, "cert": 734, "certa": 735, "certai": 736, "certain": 737, "certi": 738, "certif": 739, "certifi": 740, "certific": 741, "certifica": 742, "certificat": 743, "ces": 744, "cess": 745, "cessa": 746, "cessar": 747, "cessary": 748, "cessi": 749, "cessio": 750, "cession": 751, "ch": 752, "cha": 753, "chai": 754, "chair": 755, "chan": 756, "chang": 757, "char": 758, "che": 759, "chee": 760, "cheer": 761, "chemi": 762, "cher": 763, "chi": 764, "chick": 765, "chil": 766, "child": 767, "chin": 768, "chine": 769, "chn": 770, "cho": 771, "chr": 772, "ci": 773, "cia": 774, "cial": 775, "ciali": 776, "cialis": 777, "cian": 778, "cid": 779, "cide": 780, "cie": 781, "cien": 782, "cient": 783, "cienti": 784, "cies": 785, "cific": 786, "cigar": 787, "cin": 788, "cing": 789, "cip": 790, "cis": 791, "cit": 792, "ck": 793, "cke": 794, "cket": 795, "cki": 796, "ckie": 797, "ckl": 798, "cks": 799, "cl": 800, "cla": 801, "clas": 802, "class": 803, "cle": 804, "clea": 805, "clean": 806, "clear": 807, "cli": 808, "clin": 809, "cling": 810, "clo": 811, "clot": 812, "cloth": 813, "clothe": 814, "cloud": 815, "clu": 816, "co": 817, "coa": 818, "coc": 819, "col": 820, "coll": 821, "colle": 822, "colo": 823, "com": 824, "come": 825, "comfo": 826, "comfor": 827, "comfort": 828, "comi": 829, "comin": 830, "coming": 831, "comm": 832, "commo": 833, "comp": 834, "compa": 835, "compl": 836, "comple": 837, "complet": 838, "compu": 839, "comput": 840, "compute": 841, "computer": 842, "con": 843, "conc": 844, "conce": 845, "concen": 846, "concent": 847, "concentr": 848, "concentra": 849, "concentrat": 850, "cond": 851, "condi": 852, "condit": 853, "conditi": 854, "conditio": 855, "condition": 856, "conom": 857, "cont": 858, "conta": 859, "conti": 860, "contin": 861, "contr": 862, "contra": 863, "coo": 864, "cook": 865, "cop": 866, "cor": 867, "cord": 868, "corr": 869, "corre": 870, "correc": 871, "correct": 872, "cos": 873, "cosi": 874, "cosie": 875, "cost": 876, "costl": 877, "cot": 878, "cou": 879, "coun": 880, "count": 881, "countr": 882, "cour": 883, "coura": 884, "courag": 885, "courage": 886, "cours": 887, "court": 888, "cov": 889, "cove": 890, "cover": 891, "cr": 892, "cra": 893, "crat": 894, "crati": 895, "cratic": 896, "cre": 897, "crea": 898, "cream": 899, "creas": 900, "creat": 901, "creati": 902, "cri": 903, "cript": 904, "cris": 905, "criti": 906, "critic": 907, "critici": 908, "cro": 909, "crop": 910, "cru": 911, "cs": 912, "ct": 913, "cta": 914, "ctanc": 915, "cti": 916, "ctio": 917, "ction": 918, "ctiv": 919, "ctive": 920, "ctivi": 921, "ctivit": 922, "ctl": 923, "ctly": 924, "cto": 925, "ctor": 926, "ctori": 927, "ctors": 928, "ctr": 929, "ctri": 930, "ctric": 931, "cts": 932, "ctu": 933, "ctua": 934, "ctuat": 935, "ctur": 936, "cture": 937, "cturi": 938, "cturin": 939, "cturing": 940, "cu": 941, "cul": 942, "cular": 943, "culin": 944, "cult": 945, "cum": 946, "cup": 947, "cur": 948, "curl": 949, "curli": 950, "curlie": 951, "cus": 952, "cut": 953, "cy": 954, "cyc": 955, "cycl": 956, "cycle": 957, "cycli": 958, "cyclin": 959, "cycling": 960, "d": 961, "d-": 962, "d-r": 963, "da": 964, "dam": 965, "damag": 966, "dan": 967, "danc": 968, "dance": 969, "dar": 970, "dat": 971, "dati": 972, "datio": 973, "dation": 974, "day": 975, "days": 976, "db": 977, "dc": 978, "dd": 979, "dde": 980, "dden": 981, "ddhis": 982, "ddl": 983, "de": 984, "dea": 985, "dec": 986, "ded": 987, "dee": 988, "def": 989, "del": 990, "deli": 991, "deliv": 992, "delive": 993, "deliver": 994, "den": 995, "dent": 996, "dents": 997, "deo": 998, "dep": 999, "depen": 1000, "depend": 1001, "der": 1002, "ders": 1003, "derst": 1004, "dersta": 1005, "derstan": 1006, "derstand": 1007, "des": 1008, "descr": 1009, "descri": 1010, "det": 1011, "detai": 1012, "detail": 1013, "dg": 1014, "dge": 1015, "dging": 1016, "dh": 1017, "di": 1018, "dia": 1019, "dian": 1020, "dic": 1021, "dica": 1022, "dicat": 1023, "dicate": 1024, "dict": 1025, "dicti": 1026, "dictio": 1027, "diction": 1028, "die": 1029, "died": 1030, "dies": 1031, "dif": 1032, "diff": 1033, "diffe": 1034, "differ": 1035, "diffi": 1036, "diffic": 1037, "difficu": 1038, "difficul": 1039, "difficult": 1040, "din": 1041, "dina": 1042, "dinar": 1043, "dinari": 1044, "ding": 1045, "dings": 1046, "dio": 1047, "dioac": 1048, "dioact": 1049, "dioacti": 1050, "dioactiv": 1051, "dip": 1052, "diplo": 1053, "diplom": 1054, "diploma": 1055, "dir": 1056, "dire": 1057, "direc": 1058, "direct": 1059, "directo": 1060, "director": 1061, "dirt": 1062, "dirti": 1063, "dirtie": 1064, "dis": 1065, "disa": 1066, "disab": 1067, "disabl": 1068, "disap": 1069, "disapp": 1070, "disc": 1071, "disco": 1072, "discov": 1073, "discove": 1074, "discover": 1075, "dish": 1076, "diso": 1077, "disp": 1078, "diss": 1079, "dissa": 1080, "dissat": 1081, "dissati": 1082, "dissatis": 1083, "dissatisf": 1084, "dissatisfi": 1085, "dissatisfie": 1086, "dist": 1087, "dit": 1088, "diti": 1089, "ditio": 1090, "dition": 1091, "diu": 1092, "dium": 1093, "dl": 1094, "dle": 1095, "dli": 1096, "dlin": 1097, "dling": 1098, "dly": 1099, "dm": 1100, "dn": 1101, "dne": 1102, "dnes": 1103, "dness": 1104, "do": 1105, "doc": 1106, "docto": 1107, "doctor": 1108, "dol": 1109, "dom": 1110, "don": 1111, "doo": 1112, "door": 1113, "dou": 1114, "dow": 1115, "down": 1116, "dp": 1117, "dr": 1118, "dra": 1119, "dre": 1120, "dri": 1121, "drie": 1122, "drin": 1123, "drink": 1124, "dro": 1125, "drop": 1126, "drow": 1127, "drows": 1128, "dru": 1129, "ds": 1130, "du": 1131, "dua": 1132, "duc": 1133, "duca": 1134, "ducat": 1135, "ducati": 1136, "duct": 1137, "dul": 1138, "dus": 1139, "dust": 1140, "dustr": 1141, "dustri": 1142, "dv": 1143, "dva": 1144, "dvan": 1145, "dvant": 1146, "dvanta": 1147, "dvantag": 1148, "dvantage": 1149, "dve": 1150, "dver": 1151, "dvert": 1152, "dverti": 1153, "dvertis": 1154, "dy": 1155, "dyn": 1156, "e": 1157, "ea": 1158, "eable": 1159, "eac": 1160, "each": 1161, "ead": 1162, "eader": 1163, "eadli": 1164, "eadlin": 1165, "eaf": 1166, "eag": 1167, "eak": 1168, "eake": 1169, "eaker": 1170, "eal": 1171, "eali": 1172, "ealis": 1173, "ealt": 1174, "ealth": 1175, "ealthi": 1176, "ealthie": 1177, "ealthy": 1178, "eam": 1179, "ean": 1180, "ear": 1181, "earan": 1182, "earanc": 1183, "earance": 1184, "earl": 1185, "early": 1186, "earn": 1187, "eart": 1188, "earti": 1189, "eartie": 1190, "eas": 1191, "easa": 1192, "easan": 1193, "easant": 1194, "ease": 1195, "easi": 1196, "easin": 1197, "easing": 1198, "easo": 1199, "eason": 1200, "east": 1201, "easte": 1202, "easter": 1203, "easu": 1204, "easur": 1205, "easure": 1206, "eat": 1207, "eate": 1208, "eath": 1209, "eathe": 1210, "eather": 1211, "eati": 1212, "eatur": 1213, "eature": 1214, "eau": 1215, "eav": 1216, "eavi": 1217, "eavie": 1218, "eb": 1219, "ebr": 1220, "ec": 1221, "eca": 1222, "ece": 1223, "eces": 1224, "ecess": 1225, "ecessa": 1226, "ecessar": 1227, "ech": 1228, "echn": 1229, "echni": 1230, "eci": 1231, "ecia": 1232, "ecial": 1233, "eciali": 1234, "eck": 1235, "eco": 1236, "econ": 1237, "econd": 1238, "econo": 1239, "econom": 1240, "ecor": 1241, "ecord": 1242, "ect": 1243, "ecta": 1244, "ectan": 1245, "ectanc": 1246, "ecti": 1247, "ectio": 1248, "ection": 1249, "ectiv": 1250, "ective": 1251, "ectly": 1252, "ecto": 1253, "ector": 1254, "ectr": 1255, "ectri": 1256, "ectric": 1257, "ectro": 1258, "ectu": 1259, "ecycl": 1260, "ed": 1261, "edi": 1262, "edica": 1263, "edit": 1264, "edl": 1265, "edu": 1266, "educ": 1267, "educa": 1268, "educat": 1269, "educati": 1270, "ee": 1271, "eed": 1272, "eek": 1273, "eel": 1274, "een": 1275, "eep": 1276, "eepe": 1277, "eeper": 1278, "eepi": 1279, "eer": 1280, "ees": 1281, "eet": 1282, "eez": 1283, "ef": 1284, "efe": 1285, "efer": 1286, "efere": 1287, "eferen": 1288, "eff": 1289, "effec": 1290, "effect": 1291, "efi": 1292, "efl": 1293, "efu": 1294, "eful": 1295, "eg": 1296, "ega": 1297, "egard": 1298, "egi": 1299, "egin": 1300, "eginn": 1301, "egr": 1302, "egu": 1303, "egul": 1304, "egula": 1305, "egular": 1306, "egulari": 1307, "egularit": 1308, "eh": 1309, "eho": 1310, "ei": 1311, "eig": 1312, "eigh": 1313, "eighb": 1314, "eighbo": 1315, "eighbor": 1316, "eighbou": 1317, "eighbour": 1318, "eight": 1319, "ein": 1320, "eiv": 1321, "ek": 1322, "eke": 1323, "el": 1324, "ela": 1325, "elan": 1326, "eland": 1327, "elat": 1328, "elati": 1329, "elatio": 1330, "elation": 1331, "elativ": 1332, "eld": 1333, "ele": 1334, "elec": 1335, "elect": 1336, "electr": 1337, "electri": 1338, "electric": 1339, "electro": 1340, "eleme": 1341, "elemen": 1342, "element": 1343, "eleph": 1344, "eles": 1345, "eless": 1346, "elf": 1347, "eli": 1348, "elie": 1349, "elies": 1350, "eliest": 1351, "eliev": 1352, "elin": 1353, "elive": 1354, "eliver": 1355, "ell": 1356, "elli": 1357, "ellie": 1358, "ellies": 1359, "ello": 1360, "ellow": 1361, "elo": 1362, "elp": 1363, "els": 1364, "elt": 1365, "elv": 1366, "elve": 1367, "elves": 1368, "ely": 1369, "em": 1370, "ema": 1371, "emat": 1372, "emati": 1373, "ematic": 1374, "ematica": 1375, "ematical": 1376, "emb": 1377, "embe": 1378, "ember": 1379, "eme": 1380, "emen": 1381, "ement": 1382, "ements": 1383, "emi": 1384, "emo": 1385, "emp": 1386, "empl": 1387, "emplo": 1388, "employ": 1389, "ems": 1390, "en": 1391, "ena": 1392, "enc": 1393, "ence": 1394, "enci": 1395, "encie": 1396, "encies": 1397, "encin": 1398, "encing": 1399, "ency": 1400, "end": 1401, "endi": 1402, "endl": 1403, "endli": 1404, "endlie": 1405, "ends": 1406, "ene": 1407, "ener": 1408, "eng": 1409, "enge": 1410, "enger": 1411, "engi": 1412, "engin": 1413, "engine": 1414, "enginee": 1415, "engineer": 1416, "engl": 1417, "engli": 1418, "englis": 1419, "english": 1420, "eni": 1421, "ening": 1422, "enq": 1423, "enqu": 1424, "enqui": 1425, "enquir": 1426, "ens": 1427, "ense": 1428, "ensi": 1429, "ent": 1430, "enta": 1431, "ental": 1432, "ente": 1433, "enten": 1434, "enth": 1435, "enti": 1436, "entl": 1437, "ently": 1438, "entr": 1439, "entra": 1440, "entral": 1441, "entrat": 1442, "ents": 1443, "env": 1444, "envi": 1445, "eo": 1446, "eogra": 1447, "eograp": 1448, "eograph": 1449, "eolog": 1450, "ep": 1451, "epa": 1452, "epar": 1453, "epe": 1454, "epen": 1455, "epend": 1456, "eph": 1457, "epi": 1458, "epl": 1459, "eport": 1460, "ept": 1461, "eq": 1462, "equ": 1463, "er": 1464, "er-": 1465, "era": 1466, "erat": 1467, "erati": 1468, "eratio": 1469, "eration": 1470, "erb": 1471, "erc": 1472, "erci": 1473, "ere": 1474, "erely": 1475, "eren": 1476, "erenc": 1477, "erence": 1478, "erf": 1479, "erful": 1480, "erg": 1481, "erh": 1482, "eri": 1483, "eria": 1484, "erial": 1485, "eric": 1486, "erica": 1487, "erie": 1488, "eries": 1489, "erim": 1490, "erime": 1491, "erimen": 1492, "eriment": 1493, "erimenta": 1494, "erin": 1495, "ering": 1496, "erl": 1497, "erli": 1498, "erlin": 1499, "erm": 1500, "erma": 1501, "erman": 1502, "erme": 1503, "ermen": 1504, "ern": 1505, "erna": 1506, "erni": 1507, "ernit": 1508, "ero": 1509, "erous": 1510, "erp": 1511, "err": 1512, "erri": 1513, "errie": 1514, "erries": 1515, "erry": 1516, "ers": 1517, "erse": 1518, "ersel": 1519, "erso": 1520, "erson": 1521, "erst": 1522, "ersta": 1523, "erstan": 1524, "erstand": 1525, "ert": 1526, "erta": 1527, "ertai": 1528, "ertain": 1529, "erti": 1530, "ertif": 1531, "ertifi": 1532, "ertific": 1533, "ertifica": 1534, "ertificat": 1535, "ertis": 1536, "erv": 1537, "ervi": 1538, "ervic": 1539, "ervie": 1540, "erview": 1541, "erw": 1542, "ery": 1543, "es": 1544, "esc": 1545, "escen": 1546, "escri": 1547, "esd": 1548, "esda": 1549, "esday": 1550, "ese": 1551, "esh": 1552, "esi": 1553, "esid": 1554, "eside": 1555, "esiden": 1556, "esident": 1557, "esis": 1558, "esm": 1559, "esma": 1560, "esman": 1561, "esme": 1562, "esmen": 1563, "eso": 1564, "esp": 1565, "espe": 1566, "espec": 1567, "espect": 1568, "ess": 1569, "essa": 1570, "essar": 1571, "essary": 1572, "essfu": 1573, "essful": 1574, "essi": 1575, "essio": 1576, "ession": 1577, "esso": 1578, "essor": 1579, "est": 1580, "esta": 1581, "ester": 1582, "esti": 1583, "estio": 1584, "estion": 1585, "esu": 1586, "esult": 1587, "et": 1588, "eta": 1589, "etai": 1590, "etail": 1591, "ete": 1592, "eter": 1593, "eth": 1594, "ether": 1595, "eti": 1596, "etic": 1597, "etime": 1598, "etin": 1599, "eting": 1600, "etr": 1601, "etre": 1602, "etric": 1603, "ets": 1604, "ett": 1605, "ette": 1606, "ety": 1607, "eu": 1608, "eur": 1609, "euro": 1610, "europ": 1611, "europe": 1612, "ev": 1613, "eve": 1614, "even": 1615, "event": 1616, "ever": 1617, "evera": 1618, "every": 1619, "evi": 1620, "ew": 1621, "ewa": 1622, "ewar": 1623, "ewe": 1624, "ewer": 1625, "ewi": 1626, "ewo": 1627, "ewor": 1628, "ework": 1629, "ewr": 1630, "ewri": 1631, "ewrit": 1632, "ews": 1633, "ex": 1634, "exa": 1635, "exam": 1636, "exami": 1637, "examin": 1638, "exc": 1639, "exi": 1640, "exis": 1641, "exist": 1642, "exp": 1643, "expe": 1644, "expec": 1645, "expect": 1646, "expecta": 1647, "expen": 1648, "expens": 1649, "exper": 1650, "experi": 1651, "experim": 1652, "experime": 1653, "experimen": 1654, "experiment": 1655, "experimenta": 1656, "ext": 1657, "extr": 1658, "extra": 1659, "ey": 1660, "ez": 1661, "f": 1662, "fa": 1663, "fac": 1664, "fact": 1665, "facti": 1666, "facto": 1667, "factor": 1668, "fai": 1669, "fair": 1670, "fal": 1671, "fam": 1672, "famil": 1673, "far": 1674, "farm": 1675, "fat": 1676, "fathe": 1677, "father": 1678, "fav": 1679, "favo": 1680, "favou": 1681, "favour": 1682, "fax": 1683, "fe": 1684, "fea": 1685, "fec": 1686, "fect": 1687, "fee": 1688, "fel": 1689, "fen": 1690, "fenc": 1691, "fence": 1692, "fer": 1693, "fere": 1694, "feren": 1695, "ferenc": 1696, "ference": 1697, "fes": 1698, "fet": 1699, "ff": 1700, "ffe": 1701, "ffect": 1702, "ffer": 1703, "ffi": 1704, "ffic": 1705, "ffici": 1706, "fficie": 1707, "fficien": 1708, "fficient": 1709, "fficu": 1710, "fficul": 1711, "fficult": 1712, "fi": 1713, "fic": 1714, "fica": 1715, "ficat": 1716, "ficati": 1717, "ficatio": 1718, "fication": 1719, "fici": 1720, "ficie": 1721, "ficien": 1722, "ficient": 1723, "ficul": 1724, "ficult": 1725, "fie": 1726, "fied": 1727, "fies": 1728, "fig": 1729, "fight": 1730, "fil": 1731, "fin": 1732, "fing": 1733, "finge": 1734, "finger": 1735, "fir": 1736, "fire": 1737, "firm": 1738, "first": 1739, "fis": 1740, "fish": 1741, "fit": 1742, "fl": 1743, "fla": 1744, "flat": 1745, "fle": 1746, "flo": 1747, "flow": 1748, "flu": 1749, "fluen": 1750, "fluenc": 1751, "fo": 1752, "fol": 1753, "follo": 1754, "follow": 1755, "foo": 1756, "for": 1757, "forc": 1758, "force": 1759, "fore": 1760, "fores": 1761, "forg": 1762, "form": 1763, "fort": 1764, "fou": 1765, "found": 1766, "fr": 1767, "fra": 1768, "fre": 1769, "free": 1770, "frenc": 1771, "french": 1772, "fres": 1773, "fresh": 1774, "fri": 1775, "frica": 1776, "frie": 1777, "frien": 1778, "friend": 1779, "friendl": 1780, "friendli": 1781, "friendlie": 1782, "fro": 1783, "ft": 1784, "fte": 1785, "fu": 1786, "ful": 1787, "full": 1788, "fully": 1789, "fun": 1790, "funn": 1791, "funni": 1792, "funnie": 1793, "fur": 1794, "furth": 1795, "furthe": 1796, "fy": 1797, "g": 1798, "ga": 1799, "gai": 1800, "gam": 1801, "gan": 1802, "gani": 1803, "ganis": 1804, "ganiz": 1805, "gar": 1806, "gard": 1807, "garde": 1808, "garden": 1809, "gat": 1810, "ge": 1811, "gemen": 1812, "gement": 1813, "gen": 1814, "genc": 1815, "genci": 1816, "gencie": 1817, "gencies": 1818, "gency": 1819, "gentl": 1820, "geo": 1821, "geogr": 1822, "geogra": 1823, "geograp": 1824, "geograph": 1825, "ger": 1826, "germa": 1827, "german": 1828, "ges": 1829, "get": 1830, "gg": 1831, "gh": 1832, "gha": 1833, "ghai": 1834, "ghb": 1835, "ghbo": 1836, "ghbor": 1837, "ghbou": 1838, "ghbour": 1839, "ght": 1840, "ghte": 1841, "ghten": 1842, "ghter": 1843, "gi": 1844, "gia": 1845, "gic": 1846, "gica": 1847, "gical": 1848, "gie": 1849, "gies": 1850, "gin": 1851, "gine": 1852, "ginee": 1853, "gineer": 1854, "ging": 1855, "gir": 1856, "gis": 1857, "gist": 1858, "gistr": 1859, "gistra": 1860, "giv": 1861, "givin": 1862, "giving": 1863, "gl": 1864, "gla": 1865, "gle": 1866, "gli": 1867, "glin": 1868, "gling": 1869, "glish": 1870, "glo": 1871, "gly": 1872, "gn": 1873, "gne": 1874, "go": 1875, "gol": 1876, "gon": 1877, "goo": 1878, "good": 1879, "gou": 1880, "gr": 1881, "gra": 1882, "grad": 1883, "gradu": 1884, "gradua": 1885, "graduat": 1886, "gram": 1887, "gramm": 1888, "gran": 1889, "grand": 1890, "grandp": 1891, "grandpa": 1892, "grap": 1893, "graph": 1894, "graphi": 1895, "graphic": 1896, "graphy": 1897, "gras": 1898, "grass": 1899, "grassi": 1900, "grassie": 1901, "gre": 1902, "gree": 1903, "gri": 1904, "grind": 1905, "gro": 1906, "groc": 1907, "groce": 1908, "grocer": 1909, "grou": 1910, "groun": 1911, "ground": 1912, "gs": 1913, "gu": 1914, "gue": 1915, "gues": 1916, "gui": 1917, "guid": 1918, "gul": 1919, "gula": 1920, "gular": 1921, "gulari": 1922, "gularit": 1923, "gy": 1924, "h": 1925, "ha": 1926, "hab": 1927, "habit": 1928, "had": 1929, "hadow": 1930, "hai": 1931, "hair": 1932, "hal": 1933, "ham": 1934, "han": 1935, "hand": 1936, "handb": 1937, "hang": 1938, "hangh": 1939, "hangha": 1940, "hanghai": 1941, "hap": 1942, "happ": 1943, "happi": 1944, "happie": 1945, "har": 1946, "hard": 1947, "harm": 1948, "hat": 1949, "hav": 1950, "hb": 1951, "hbo": 1952, "hbour": 1953, "he": 1954, "hea": 1955, "head": 1956, "heal": 1957, "healt": 1958, "health": 1959, "hear": 1960, "heart": 1961, "hearti": 1962, "heartie": 1963, "heat": 1964, "heav": 1965, "heavi": 1966, "heavie": 1967, "hee": 1968, "hel": 1969, "hem": 1970, "hen": 1971, "heo": 1972, "her": 1973, "here": 1974, "herm": 1975, "hero": 1976, "heroi": 1977, "hes": 1978, "hi": 1979, "hic": 1980, "hical": 1981, "hick": 1982, "hie": 1983, "hig": 1984, "high": 1985, "hil": 1986, "hild": 1987, "hile": 1988, "hili": 1989, "hin": 1990, "hine": 1991, "hing": 1992, "hip": 1993, "hir": 1994, "hirs": 1995, "hirst": 1996, "hirt": 1997, "his": 1998, "hist": 1999, "histo": 2000, "histor": 2001, "histori": 2002, "hit": 2003, "hiv": 2004, "hive": 2005, "hl": 2006, "hm": 2007, "hme": 2008, "hmen": 2009, "hment": 2010, "hn": 2011, "ho": 2012, "hob": 2013, "hod": 2014, "hoe": 2015, "hol": 2016, "hold": 2017, "holi": 2018, "holic": 2019, "holie": 2020, "holin": 2021, "holing": 2022, "hom": 2023, "home": 2024, "hon": 2025, "hone": 2026, "honi": 2027, "hono": 2028, "honou": 2029, "honour": 2030, "hoo": 2031, "hood": 2032, "hop": 2033, "hor": 2034, "hort": 2035, "hos": 2036, "hospi": 2037, "hospit": 2038, "hospita": 2039, "hospital": 2040, "host": 2041, "hot": 2042, "hoto": 2043, "hotoc": 2044, "hotoco": 2045, "hotocop": 2046, "hotog": 2047, "hotogr": 2048, "hotogra": 2049, "hotograp": 2050, "hotograph": 2051, "hou": 2052, "houg": 2053, "hough": 2054, "hought": 2055, "hous": 2056, "house": 2057, "housew": 2058, "how": 2059, "hr": 2060, "hre": 2061, "hri": 2062, "hrill": 2063, "hro": 2064, "hroug": 2065, "hrough": 2066, "ht": 2067, "hte": 2068, "hten": 2069, "hter": 2070, "hu": 2071, "hum": 2072, "hun": 2073, "hung": 2074, "hungr": 2075, "hur": 2076, "hurr": 2077, "hw": 2078, "hwa": 2079, "hward": 2080, "hy": 2081, "hyp": 2082, "hypo": 2083, "hys": 2084, "hysi": 2085, "hysic": 2086, "i": 2087, "ia": 2088, "ial": 2089, "iali": 2090, "ialis": 2091, "ian": 2092, "ians": 2093, "iar": 2094, "ias": 2095, "iat": 2096, "iatr": 2097, "iatri": 2098, "iatric": 2099, "ib": 2100, "ibi": 2101, "ibil": 2102, "ibili": 2103, "ibilit": 2104, "ibility": 2105, "ibl": 2106, "ible": 2107, "ibu": 2108, "ic": 2109, "ica": 2110, "ical": 2111, "icall": 2112, "ically": 2113, "ican": 2114, "icans": 2115, "icat": 2116, "icate": 2117, "icati": 2118, "icatin": 2119, "icating": 2120, "icatio": 2121, "ication": 2122, "ice": 2123, "ich": 2124, "ici": 2125, "icia": 2126, "ician": 2127, "icie": 2128, "icien": 2129, "icient": 2130, "icin": 2131, "icing": 2132, "ick": 2133, "icke": 2134, "icken": 2135, "icket": 2136, "ickl": 2137, "icl": 2138, "ico": 2139, "icr": 2140, "icro": 2141, "ics": 2142, "ict": 2143, "icti": 2144, "ictio": 2145, "iction": 2146, "ictur": 2147, "icu": 2148, "icul": 2149, "icult": 2150, "icy": 2151, "icycl": 2152, "id": 2153, "ida": 2154, "idd": 2155, "ide": 2156, "idea": 2157, "iden": 2158, "ident": 2159, "ideo": 2160, "idg": 2161, "idge": 2162, "idi": 2163, "iding": 2164, "ids": 2165, "ie": 2166, "iec": 2167, "ied": 2168, "ief": 2169, "ien": 2170, "ienc": 2171, "ience": 2172, "iend": 2173, "iendl": 2174, "iendli": 2175, "iendlie": 2176, "ient": 2177, "ienti": 2178, "ier": 2179, "ies": 2180, "iest": 2181, "iet": 2182, "iev": 2183, "iew": 2184, "iewe": 2185, "iewer": 2186, "if": 2187, "ife": 2188, "iff": 2189, "iffer": 2190, "iffic": 2191, "ifficu": 2192, "ifficul": 2193, "ifficult": 2194, "ifi": 2195, "ific": 2196, "ifica": 2197, "ificat": 2198, "ificati": 2199, "ificatio": 2200, "ification": 2201, "ifie": 2202, "ified": 2203, "ifies": 2204, "ift": 2205, "ify": 2206, "ig": 2207, "iga": 2208, "igh": 2209, "ighb": 2210, "ighbo": 2211, "ighbor": 2212, "ighbou": 2213, "ighbour": 2214, "ight": 2215, "ighte": 2216, "ighten": 2217, "ighter": 2218, "ign": 2219, "igu": 2220, "ik": 2221, "ike": 2222, "iki": 2223, "ikin": 2224, "iking": 2225, "il": 2226, "ila": 2227, "ilar": 2228, "ild": 2229, "ildi": 2230, "ildin": 2231, "ilding": 2232, "ile": 2233, "ili": 2234, "ilia": 2235, "ilies": 2236, "ilit": 2237, "iliti": 2238, "ilitie": 2239, "ilities": 2240, "ility": 2241, "iliz": 2242, "ill": 2243, "ille": 2244, "illi": 2245, "illin": 2246, "illing": 2247, "ills": 2248, "ilo": 2249, "ils": 2250, "ily": 2251, "im": 2252, "ima": 2253, "ime": 2254, "imen": 2255, "iment": 2256, "imenta": 2257, "imet": 2258, "imi": 2259, "imil": 2260, "imila": 2261, "imilar": 2262, "imp": 2263, "impl": 2264, "impli": 2265, "implif": 2266, "impo": 2267, "impor": 2268, "import": 2269, "importa": 2270, "importan": 2271, "impr": 2272, "impro": 2273, "improv": 2274, "in": 2275, "ina": 2276, "inar": 2277, "inari": 2278, "inat": 2279, "inati": 2280, "inatio": 2281, "ination": 2282, "inc": 2283, "ince": 2284, "incer": 2285, "incl": 2286, "inco": 2287, "incom": 2288, "incre": 2289, "increa": 2290, "increas": 2291, "ind": 2292, "inde": 2293, "indi": 2294, "indu": 2295, "indus": 2296, "indust": 2297, "industr": 2298, "industri": 2299, "ine": 2300, "iner": 2301, "ines": 2302, "iness": 2303, "inf": 2304, "info": 2305, "infor": 2306, "ing": 2307, "inge": 2308, "inger": 2309, "ingl": 2310, "ingly": 2311, "ings": 2312, "ini": 2313, "inin": 2314, "ining": 2315, "init": 2316, "ink": 2317, "inkl": 2318, "inl": 2319, "inn": 2320, "inne": 2321, "inner": 2322, "inq": 2323, "inqu": 2324, "inqui": 2325, "inquir": 2326, "ins": 2327, "inst": 2328, "insta": 2329, "instan": 2330, "insti": 2331, "instit": 2332, "institu": 2333, "institut": 2334, "instr": 2335, "instru": 2336, "insu": 2337, "int": 2338, "inte": 2339, "inter": 2340, "interv": 2341, "intervi": 2342, "intervie": 2343, "interview": 2344, "intr": 2345, "introd": 2346, "introdu": 2347, "introduc": 2348, "inv": 2349, "inve": 2350, "invent": 2351, "inves": 2352, "invest": 2353, "invi": 2354, "io": 2355, "ioacti": 2356, "ioactiv": 2357, "iol": 2358, "iolo": 2359, "iolog": 2360, "iology": 2361, "ion": 2362, "iona": 2363, "ional": 2364, "ionar": 2365, "ions": 2366, "ior": 2367, "iot": 2368, "iou": 2369, "ious": 2370, "ip": 2371, "ipe": 2372, "ipl": 2373, "iploma": 2374, "iq": 2375, "iqu": 2376, "ir": 2377, "ird": 2378, "ire": 2379, "irec": 2380, "irect": 2381, "irecto": 2382, "irector": 2383, "iri": 2384, "irin": 2385, "iring": 2386, "irl": 2387, "irm": 2388, "iro": 2389, "iron": 2390, "irr": 2391, "irs": 2392, "irst": 2393, "irt": 2394, "irti": 2395, "irtie": 2396, "is": 2397, "isa": 2398, "isab": 2399, "isap": 2400, "isapp": 2401, "isc": 2402, "isco": 2403, "iscove": 2404, "iscover": 2405, "ise": 2406, "isf": 2407, "ish": 2408, "ishe": 2409, "ishm": 2410, "ishme": 2411, "ishmen": 2412, "ishment": 2413, "isi": 2414, "isin": 2415, "ising": 2416, "isk": 2417, "isl": 2418, "ism": 2419, "iso": 2420, "isp": 2421, "iss": 2422, "issa": 2423, "issat": 2424, "issati": 2425, "issatis": 2426, "issatisf": 2427, "issatisfi": 2428, "issatisfie": 2429, "issi": 2430, "ission": 2431, "ist": 2432, "ista": 2433, "iste": 2434, "isten": 2435, "ister": 2436, "isti": 2437, "istic": 2438, "istica": 2439, "isto": 2440, "istor": 2441, "istori": 2442, "istr": 2443, "istra": 2444, "ists": 2445, "isu": 2446, "it": 2447, "ita": 2448, "ital": 2449, "itali": 2450, "itat": 2451, "ite": 2452, "iter": 2453, "ith": 2454, "iti": 2455, "itic": 2456, "itici": 2457, "itie": 2458, "ities": 2459, "itin": 2460, "iting": 2461, "itio": 2462, "ition": 2463, "ito": 2464, "itor": 2465, "its": 2466, "itt": 2467, "itte": 2468, "itu": 2469, "itua": 2470, "itut": 2471, "ity": 2472, "iu": 2473, "ium": 2474, "iv": 2475, "ive": 2476, "ivel": 2477, "ively": 2478, "iver": 2479, "ivers": 2480, "iversa": 2481, "ives": 2482, "ivi": 2483, "ivin": 2484, "iving": 2485, "ivit": 2486, "ivitie": 2487, "ivities": 2488, "ix": 2489, "ixt": 2490, "iz": 2491, "iza": 2492, "izat": 2493, "izati": 2494, "izatio": 2495, "ization": 2496, "ize": 2497, "izi": 2498, "izin": 2499, "izing": 2500, "j": 2501, "ja": 2502, "jap": 2503, "japa": 2504, "japan": 2505, "je": 2506, "jec": 2507, "ject": 2508, "jectiv": 2509, "jective": 2510, "jo": 2511, "joy": 2512, "ju": 2513, "k": 2514, "ka": 2515, "ke": 2516, "kee": 2517, "keep": 2518, "keeper": 2519, "kel": 2520, "ken": 2521, "ker": 2522, "ket": 2523, "key": 2524, "ki": 2525, "kie": 2526, "kies": 2527, "kil": 2528, "kill": 2529, "kilo": 2530, "kin": 2531, "kind": 2532, "king": 2533, "kit": 2534, "kl": 2535, "kle": 2536, "kli": 2537, "klin": 2538, "kling": 2539, "km": 2540, "kma": 2541, "kn": 2542, "kne": 2543, "kni": 2544, "kno": 2545, "know": 2546, "ks": 2547, "ksh": 2548, "ky": 2549, "l": 2550, "la": 2551, "lab": 2552, "lac": 2553, "lace": 2554, "lad": 2555, "lam": 2556, "lan": 2557, "land": 2558, "lane": 2559, "lant": 2560, "lar": 2561, "lari": 2562, "larit": 2563, "lariti": 2564, "laritie": 2565, "larities": 2566, "larity": 2567, "las": 2568, "lass": 2569, "last": 2570, "lat": 2571, "late": 2572, "lati": 2573, "latin": 2574, "lating": 2575, "latio": 2576, "lation": 2577, "lations": 2578, "lativ": 2579, "lative": 2580, "law": 2581, "lay": 2582, "lb": 2583, "lc": 2584, "lco": 2585, "ld": 2586, "lde": 2587, "lder": 2588, "ldi": 2589, "le": 2590, "lea": 2591, "lean": 2592, "lear": 2593, "leas": 2594, "leav": 2595, "lec": 2596, "lect": 2597, "lectr": 2598, "lectri": 2599, "lectric": 2600, "lectro": 2601, "led": 2602, "lee": 2603, "leep": 2604, "leg": 2605, "lem": 2606, "leme": 2607, "lemen": 2608, "lement": 2609, "len": 2610, "leng": 2611, "lent": 2612, "lep": 2613, "ler": 2614, "les": 2615, "less": 2616, "let": 2617, "leti": 2618, "lev": 2619, "leve": 2620, "lex": 2621, "ley": 2622, "lf": 2623, "li": 2624, "lia": 2625, "lian": 2626, "lic": 2627, "lice": 2628, "lie": 2629, "lied": 2630, "lier": 2631, "lies": 2632, "liest": 2633, "lif": 2634, "lifi": 2635, "lig": 2636, "ligh": 2637, "light": 2638, "lighte": 2639, "lik": 2640, "like": 2641, "lim": 2642, "lin": 2643, "line": 2644, "ling": 2645, "lini": 2646, "linin": 2647, "lining": 2648, "lis": 2649, "lish": 2650, "lism": 2651, "list": 2652, "lit": 2653, "lite": 2654, "liti": 2655, "litie": 2656, "lities": 2657, "lity": 2658, "liv": 2659, "live": 2660, "liver": 2661, "liz": 2662, "lize": 2663, "lizi": 2664, "lizin": 2665, "lizing": 2666, "lk": 2667, "ll": 2668, "lla": 2669, "lle": 2670, "ller": 2671, "lli": 2672, "llie": 2673, "llin": 2674, "lling": 2675, "llo": 2676, "llow": 2677, "lls": 2678, "lly": 2679, "lm": 2680, "lme": 2681, "lo": 2682, "loa": 2683, "loc": 2684, "lock": 2685, "log": 2686, "logi": 2687, "logic": 2688, "logica": 2689, "logical": 2690, "logies": 2691, "logis": 2692, "logist": 2693, "logu": 2694, "logy": 2695, "lom": 2696, "lon": 2697, "lone": 2698, "long": 2699, "loo": 2700, "lood": 2701, "loodie": 2702, "lor": 2703, "los": 2704, "lot": 2705, "loth": 2706, "lothe": 2707, "lou": 2708, "loud": 2709, "lous": 2710, "lov": 2711, "love": 2712, "lovel": 2713, "loveli": 2714, "lovelie": 2715, "low": 2716, "lowe": 2717, "lower": 2718, "loy": 2719, "lp": 2720, "ls": 2721, "lt": 2722, "lth": 2723, "lthi": 2724, "lthie": 2725, "lti": 2726, "ltie": 2727, "lty": 2728, "lu": 2729, "luc": 2730, "luck": 2731, "lucki": 2732, "luckie": 2733, "lue": 2734, "lun": 2735, "lus": 2736, "lusion": 2737, "lv": 2738, "lve": 2739, "lves": 2740, "ly": 2741, "lys": 2742, "lyt": 2743, "m": 2744, "ma": 2745, "mac": 2746, "mach": 2747, "machi": 2748, "machin": 2749, "machine": 2750, "mad": 2751, "mag": 2752, "mai": 2753, "mail": 2754, "main": 2755, "mal": 2756, "man": 2757, "mana": 2758, "manag": 2759, "manage": 2760, "mans": 2761, "mar": 2762, "mark": 2763, "market": 2764, "marr": 2765, "marri": 2766, "marrie": 2767, "marx": 2768, "marxi": 2769, "marxis": 2770, "mas": 2771, "mascul": 2772, "masculi": 2773, "masculin": 2774, "mast": 2775, "master": 2776, "mat": 2777, "mate": 2778, "mater": 2779, "materi": 2780, "materia": 2781, "material": 2782, "math": 2783, "mati": 2784, "matic": 2785, "matica": 2786, "matical": 2787, "mb": 2788, "mba": 2789, "mbe": 2790, "mber": 2791, "me": 2792, "mea": 2793, "mean": 2794, "meas": 2795, "measu": 2796, "measur": 2797, "measure": 2798, "med": 2799, "mel": 2800, "mell": 2801, "mellie": 2802, "mem": 2803, "member": 2804, "men": 2805, "ment": 2806, "menta": 2807, "mental": 2808, "ments": 2809, "mer": 2810, "merc": 2811, "meri": 2812, "meric": 2813, "merica": 2814, "mes": 2815, "mess": 2816, "met": 2817, "meta": 2818, "metr": 2819, "metre": 2820, "metric": 2821, "mi": 2822, "mic": 2823, "micr": 2824, "micro": 2825, "mid": 2826, "mie": 2827, "mies": 2828, "mil": 2829, "mila": 2830, "milar": 2831, "mile": 2832, "mili": 2833, "mill": 2834, "min": 2835, "mina": 2836, "mine": 2837, "ming": 2838, "mini": 2839, "mis": 2840, "misc": 2841, "miss": 2842, "mist": 2843, "mistak": 2844, "misu": 2845, "mm": 2846, "mma": 2847, "mme": 2848, "mmi": 2849, "mmo": 2850, "mn": 2851, "mo": 2852, "mob": 2853, "mod": 2854, "mode": 2855, "mok": 2856, "mon": 2857, "mor": 2858, "more": 2859, "morp": 2860, "morph": 2861, "mos": 2862, "mot": 2863, "mother": 2864, "moto": 2865, "motor": 2866, "mou": 2867, "mour": 2868, "mous": 2869, "mov": 2870, "mp": 2871, "mpa": 2872, "mpe": 2873, "mper": 2874, "mpl": 2875, "mple": 2876, "mpli": 2877, "mplif": 2878, "mplifi": 2879, "mplifie": 2880, "mplo": 2881, "mploy": 2882, "mpo": 2883, "mpor": 2884, "mport": 2885, "mporta": 2886, "mportan": 2887, "mpr": 2888, "mpro": 2889, "mpt": 2890, "mputer": 2891, "ms": 2892, "mu": 2893, "mul": 2894, "mus": 2895, "my": 2896, "n": 2897, "na": 2898, "nab": 2899, "nabl": 2900, "nable": 2901, "nad": 2902, "nag": 2903, "nage": 2904, "nal": 2905, "nali": 2906, "naly": 2907, "nam": 2908, "nan": 2909, "nanc": 2910, "nar": 2911, "nari": 2912, "narie": 2913, "naries": 2914, "nary": 2915, "nas": 2916, "nast": 2917, "nasti": 2918, "nastie": 2919, "nasties": 2920, "nat": 2921, "nate": 2922, "nati": 2923, "natio": 2924, "nation": 2925, "nationa": 2926, "national": 2927, "nav": 2928, "nc": 2929, "nce": 2930, "ncentr": 2931, "ncentra": 2932, "ncentrat": 2933, "ncer": 2934, "nces": 2935, "nch": 2936, "nci": 2937, "ncie": 2938, "ncies": 2939, "ncin": 2940, "ncing": 2941, "ncl": 2942, "nco": 2943, "ncom": 2944, "ncreas": 2945, "nct": 2946, "nctuat": 2947, "ncy": 2948, "nd": 2949, "nda": 2950, "nday": 2951, "ndb": 2952, "nde": 2953, "nder": 2954, "nders": 2955, "nderst": 2956, "ndersta": 2957, "nderstan": 2958, "nderstand": 2959, "ndi": 2960, "ndic": 2961, "ndica": 2962, "ndicat": 2963, "ndin": 2964, "nding": 2965, "nditio": 2966, "ndition": 2967, "ndl": 2968, "ndli": 2969, "ndo": 2970, "nds": 2971, "ndu": 2972, "ndus": 2973, "ndust": 2974, "ndustr": 2975, "ndustri": 2976, "ne": 2977, "nea": 2978, "nec": 2979, "nece": 2980, "neces": 2981, "necess": 2982, "necessa": 2983, "necessar": 2984, "nee": 2985, "nei": 2986, "neig": 2987, "neigh": 2988, "neighb": 2989, "neighbo": 2990, "neighbor": 2991, "neighbou": 2992, "neighbour": 2993, "nel": 2994, "nem": 2995, "ner": 2996, "nes": 2997, "nese": 2998, "ness": 2999, "net": 3000, "nev": 3001, "neve": 3002, "new": 3003, "nex": 3004, "ney": 3005, "nf": 3006, "nfo": 3007, "nfor": 3008, "nforc": 3009, "nforce": 3010, "ng": 3011, "nge": 3012, "nger": 3013, "ngh": 3014, "ngha": 3015, "nghai": 3016, "ngi": 3017, "ngin": 3018, "ngine": 3019, "nginee": 3020, "ngineer": 3021, "ngl": 3022, "ngli": 3023, "nglish": 3024, "ngly": 3025, "ngr": 3026, "ngs": 3027, "ngu": 3028, "nh": 3029, "ni": 3030, "nia": 3031, "nic": 3032, "nie": 3033, "nies": 3034, "nig": 3035, "nigh": 3036, "night": 3037, "nin": 3038, "nine": 3039, "ning": 3040, "nio": 3041, "nis": 3042, "nish": 3043, "nist": 3044, "nit": 3045, "nite": 3046, "niti": 3047, "nities": 3048, "nity": 3049, "niv": 3050, "nive": 3051, "niver": 3052, "nivers": 3053, "niversa": 3054, "niz": 3055, "nk": 3056, "nke": 3057, "nki": 3058, "nkin": 3059, "nkl": 3060, "nl": 3061, "nli": 3062, "nly": 3063, "nm": 3064, "nme": 3065, "nmen": 3066, "nment": 3067, "nn": 3068, "nne": 3069, "nner": 3070, "nni": 3071, "nnie": 3072, "nnies": 3073, "nnin": 3074, "nning": 3075, "nny": 3076, "no": 3077, "nob": 3078, "nom": 3079, "nomi": 3080, "noo": 3081, "nor": 3082, "nort": 3083, "north": 3084, "northw": 3085, "not": 3086, "note": 3087, "noti": 3088, "notif": 3089, "notifi": 3090, "nou": 3091, "noun": 3092, "nov": 3093, "now": 3094, "np": 3095, "nq": 3096, "nqu": 3097, "nqui": 3098, "nquir": 3099, "nquiri": 3100, "nr": 3101, "ns": 3102, "nse": 3103, "nsi": 3104, "nst": 3105, "nsta": 3106, "nsti": 3107, "nstit": 3108, "nstitu": 3109, "nstitut": 3110, "nstr": 3111, "nstru": 3112, "nsu": 3113, "nt": 3114, "nta": 3115, "ntag": 3116, "ntal": 3117, "ntatio": 3118, "ntation": 3119, "nte": 3120, "ntee": 3121, "nten": 3122, "nter": 3123, "nterv": 3124, "ntervi": 3125, "ntervie": 3126, "nterview": 3127, "nth": 3128, "nti": 3129, "ntie": 3130, "ntif": 3131, "ntin": 3132, "nting": 3133, "ntl": 3134, "ntly": 3135, "nto": 3136, "ntr": 3137, "ntra": 3138, "ntri": 3139, "ntrodu": 3140, "ntroduc": 3141, "nts": 3142, "nty": 3143, "nu": 3144, "nui": 3145, "nur": 3146, "nurs": 3147, "nus": 3148, "nut": 3149, "nv": 3150, "nve": 3151, "nves": 3152, "nvest": 3153, "nvi": 3154, "nw": 3155, "nwa": 3156, "nwar": 3157, "nward": 3158, "ny": 3159, "o": 3160, "o-": 3161, "oa": 3162, "oac": 3163, "oactiv": 3164, "oad": 3165, "oat": 3166, "ob": 3167, "oba": 3168, "obab": 3169, "obb": 3170, "obe": 3171, "obi": 3172, "obil": 3173, "obili": 3174, "object": 3175, "obl": 3176, "obo": 3177, "oc": 3178, "oca": 3179, "occ": 3180, "occu": 3181, "occupa": 3182, "oce": 3183, "ocer": 3184, "oci": 3185, "ocia": 3186, "ocial": 3187, "ock": 3188, "ocke": 3189, "oco": 3190, "ocr": 3191, "ocra": 3192, "ocrat": 3193, "oct": 3194, "octo": 3195, "od": 3196, "oda": 3197, "ode": 3198, "odi": 3199, "odie": 3200, "odies": 3201, "odo": 3202, "odu": 3203, "oduc": 3204, "oduct": 3205, "ody": 3206, "oe": 3207, "of": 3208, "off": 3209, "ofi": 3210, "oft": 3211, "og": 3212, "ogi": 3213, "ogic": 3214, "ogica": 3215, "ogical": 3216, "ogis": 3217, "ogr": 3218, "ogra": 3219, "ogram": 3220, "ograp": 3221, "ograph": 3222, "ographi": 3223, "ogu": 3224, "ogue": 3225, "ogy": 3226, "oh": 3227, "oi": 3228, "oic": 3229, "oil": 3230, "oin": 3231, "oint": 3232, "ois": 3233, "ok": 3234, "oke": 3235, "oken": 3236, "oker": 3237, "oki": 3238, "okin": 3239, "oking": 3240, "oks": 3241, "ol": 3242, "ola": 3243, "old": 3244, "ole": 3245, "oli": 3246, "olic": 3247, "olin": 3248, "oling": 3249, "olit": 3250, "olitic": 3251, "oll": 3252, "olle": 3253, "ollo": 3254, "olo": 3255, "olog": 3256, "ologi": 3257, "ologic": 3258, "ologica": 3259, "ological": 3260, "ologie": 3261, "ologies": 3262, "ologis": 3263, "ology": 3264, "olu": 3265, "olv": 3266, "oly": 3267, "om": 3268, "oma": 3269, "oman": 3270, "omat": 3271, "ome": 3272, "omen": 3273, "omet": 3274, "omfort": 3275, "omi": 3276, "omin": 3277, "oming": 3278, "omm": 3279, "ommo": 3280, "omo": 3281, "omp": 3282, "ompa": 3283, "omplet": 3284, "ompute": 3285, "omputer": 3286, "omy": 3287, "on": 3288, "ona": 3289, "onal": 3290, "onar": 3291, "onatio": 3292, "onation": 3293, "onc": 3294, "once": 3295, "oncent": 3296, "oncentr": 3297, "oncentra": 3298, "oncentrat": 3299, "ond": 3300, "onde": 3301, "onditi": 3302, "onditio": 3303, "ondition": 3304, "one": 3305, "ones": 3306, "ong": 3307, "oni": 3308, "onic": 3309, "onin": 3310, "oning": 3311, "onl": 3312, "ono": 3313, "onou": 3314, "ons": 3315, "ont": 3316, "onta": 3317, "onti": 3318, "ontin": 3319, "ontr": 3320, "ony": 3321, "oo": 3322, "ood": 3323, "ook": 3324, "ooks": 3325, "ool": 3326, "oom": 3327, "oon": 3328, "oor": 3329, "oot": 3330, "ooth": 3331, "op": 3332, "ope": 3333, "open": 3334, "oper": 3335, "opera": 3336, "operat": 3337, "operati": 3338, "operatio": 3339, "operation": 3340, "oph": 3341, "ophi": 3342, "opho": 3343, "ophone": 3344, "opi": 3345, "opic": 3346, "ops": 3347, "opt": 3348, "opti": 3349, "opy": 3350, "or": 3351, "ora": 3352, "orat": 3353, "oratio": 3354, "oration": 3355, "orc": 3356, "orce": 3357, "ord": 3358, "orde": 3359, "order": 3360, "ordi": 3361, "ordin": 3362, "ordina": 3363, "ordinar": 3364, "ordinari": 3365, "ore": 3366, "ores": 3367, "org": 3368, "orga": 3369, "organ": 3370, "organi": 3371, "organis": 3372, "organiz": 3373, "ori": 3374, "oria": 3375, "orie": 3376, "ories": 3377, "ork": 3378, "orking": 3379, "orm": 3380, "orn": 3381, "orp": 3382, "orph": 3383, "orr": 3384, "orre": 3385, "orrect": 3386, "orri": 3387, "orrie": 3388, "orro": 3389, "orrow": 3390, "ors": 3391, "ort": 3392, "orta": 3393, "orth": 3394, "orthw": 3395, "orts": 3396, "ortu": 3397, "ortun": 3398, "ory": 3399, "os": 3400, "ose": 3401, "osi": 3402, "osie": 3403, "osin": 3404, "osing": 3405, "osit": 3406, "osp": 3407, "ospita": 3408, "ospital": 3409, "oss": 3410, "ossi": 3411, "ossib": 3412, "ossibl": 3413, "ost": 3414, "ot": 3415, "ota": 3416, "otar": 3417, "ote": 3418, "oth": 3419, "othe": 3420, "other": 3421, "othes": 3422, "oti": 3423, "otic": 3424, "otif": 3425, "oto": 3426, "otocop": 3427, "otog": 3428, "otogr": 3429, "otogra": 3430, "otograp": 3431, "otograph": 3432, "otor": 3433, "ots": 3434, "ott": 3435, "ou": 3436, "ouc": 3437, "ouch": 3438, "oud": 3439, "oug": 3440, "ough": 3441, "ought": 3442, "oul": 3443, "ould": 3444, "oun": 3445, "ounc": 3446, "ound": 3447, "oundin": 3448, "ounding": 3449, "ount": 3450, "our": 3451, "oura": 3452, "ourage": 3453, "ourc": 3454, "ource": 3455, "ouri": 3456, "ouris": 3457, "ours": 3458, "ourse": 3459, "oursel": 3460, "ourt": 3461, "ous": 3462, "ouse": 3463, "ousi": 3464, "ousin": 3465, "ousing": 3466, "out": 3467, "outh": 3468, "ov": 3469, "ove": 3470, "ovel": 3471, "oveli": 3472, "ovelie": 3473, "over": 3474, "overh": 3475, "ovi": 3476, "ovie": 3477, "ovin": 3478, "oving": 3479, "ow": 3480, "owe": 3481, "ower": 3482, "owi": 3483, "owl": 3484, "own": 3485, "ows": 3486, "ox": 3487, "oxi": 3488, "oy": 3489, "oya": 3490, "p": 3491, "pa": 3492, "pac": 3493, "pace": 3494, "paci": 3495, "pag": 3496, "pai": 3497, "pain": 3498, "pair": 3499, "pal": 3500, "pan": 3501, "pant": 3502, "pap": 3503, "pape": 3504, "paper": 3505, "par": 3506, "para": 3507, "pare": 3508, "paren": 3509, "parent": 3510, "park": 3511, "part": 3512, "parti": 3513, "partic": 3514, "partme": 3515, "partmen": 3516, "partment": 3517, "pas": 3518, "pass": 3519, "past": 3520, "pat": 3521, "path": 3522, "pati": 3523, "pay": 3524, "pe": 3525, "pea": 3526, "peac": 3527, "peak": 3528, "pear": 3529, "pec": 3530, "peci": 3531, "pecia": 3532, "pecial": 3533, "peciali": 3534, "pect": 3535, "pecta": 3536, "ped": 3537, "pel": 3538, "pen": 3539, "pend": 3540, "pens": 3541, "per": 3542, "pera": 3543, "perat": 3544, "perati": 3545, "peratio": 3546, "peration": 3547, "peri": 3548, "perim": 3549, "perime": 3550, "perimen": 3551, "periment": 3552, "perimenta": 3553, "perm": 3554, "pers": 3555, "perso": 3556, "person": 3557, "pet": 3558, "ph": 3559, "pha": 3560, "phan": 3561, "phe": 3562, "pher": 3563, "phi": 3564, "phic": 3565, "phil": 3566, "phili": 3567, "pho": 3568, "phon": 3569, "phone": 3570, "phot": 3571, "photo": 3572, "photoc": 3573, "photoco": 3574, "photocop": 3575, "photog": 3576, "photogr": 3577, "photogra": 3578, "photograp": 3579, "photograph": 3580, "phy": 3581, "phys": 3582, "physi": 3583, "physic": 3584, "pi": 3585, "pic": 3586, "pick": 3587, "pictur": 3588, "pid": 3589, "pie": 3590, "pies": 3591, "pin": 3592, "ping": 3593, "pip": 3594, "pir": 3595, "pis": 3596, "pit": 3597, "pita": 3598, "pital": 3599, "pitali": 3600, "pl": 3601, "pla": 3602, "plac": 3603, "place": 3604, "plan": 3605, "plant": 3606, "plas": 3607, "play": 3608, "ple": 3609, "plea": 3610, "pleas": 3611, "please": 3612, "plet": 3613, "pli": 3614, "plie": 3615, "plif": 3616, "plifie": 3617, "plin": 3618, "plo": 3619, "ploy": 3620, "plu": 3621, "ply": 3622, "po": 3623, "poi": 3624, "poin": 3625, "point": 3626, "pok": 3627, "poke": 3628, "pol": 3629, "poli": 3630, "polic": 3631, "police": 3632, "polit": 3633, "politi": 3634, "politic": 3635, "pon": 3636, "poo": 3637, "por": 3638, "port": 3639, "porta": 3640, "portan": 3641, "ports": 3642, "pos": 3643, "posi": 3644, "posit": 3645, "positi": 3646, "poss": 3647, "possi": 3648, "possib": 3649, "possibl": 3650, "post": 3651, "pot": 3652, "pou": 3653, "poun": 3654, "pp": 3655, "ppe": 3656, "pper": 3657, "ppi": 3658, "ppie": 3659, "ppl": 3660, "ppo": 3661, "ppr": 3662, "ppro": 3663, "pr": 3664, "pra": 3665, "prac": 3666, "pract": 3667, "practi": 3668, "pre": 3669, "prepar": 3670, "pres": 3671, "press": 3672, "pressi": 3673, "pret": 3674, "pri": 3675, "prin": 3676, "print": 3677, "pris": 3678, "pro": 3679, "prob": 3680, "proba": 3681, "probab": 3682, "proces": 3683, "process": 3684, "prod": 3685, "produ": 3686, "produc": 3687, "product": 3688, "prof": 3689, "profes": 3690, "profess": 3691, "profit": 3692, "prog": 3693, "progr": 3694, "progra": 3695, "program": 3696, "pron": 3697, "pronou": 3698, "pronoun": 3699, "prop": 3700, "prot": 3701, "prov": 3702, "prove": 3703, "provi": 3704, "provin": 3705, "proving": 3706, "ps": 3707, "pst": 3708, "pstick": 3709, "psy": 3710, "psyc": 3711, "psych": 3712, "psycho": 3713, "psychol": 3714, "pt": 3715, "pte": 3716, "pter": 3717, "pti": 3718, "ptio": 3719, "ption": 3720, "pu": 3721, "pub": 3722, "publ": 3723, "publi": 3724, "public": 3725, "pun": 3726, "punctu": 3727, "punctua": 3728, "punctuat": 3729, "pur": 3730, "put": 3731, "pute": 3732, "py": 3733, "q": 3734, "qu": 3735, "qua": 3736, "quanti": 3737, "quantif": 3738, "que": 3739, "qui": 3740, "quir": 3741, "quiri": 3742, "quirin": 3743, "quiring": 3744, "r": 3745, "r-": 3746, "ra": 3747, "rab": 3748, "rabl": 3749, "rable": 3750, "rac": 3751, "ract": 3752, "racti": 3753, "rad": 3754, "rade": 3755, "radi": 3756, "radio": 3757, "radioa": 3758, "radioac": 3759, "radioact": 3760, "radioacti": 3761, "radioactiv": 3762, "radu": 3763, "radua": 3764, "raduat": 3765, "rag": 3766, "rage": 3767, "rai": 3768, "rain": 3769, "ral": 3770, "rali": 3771, "ram": 3772, "ramm": 3773, "ran": 3774, "ranc": 3775, "rance": 3776, "rand": 3777, "randpa": 3778, "rang": 3779, "rans": 3780, "ransla": 3781, "ranslat": 3782, "rant": 3783, "rap": 3784, "raph": 3785, "rapher": 3786, "raphi": 3787, "raphic": 3788, "rapi": 3789, "rar": 3790, "ras": 3791, "rass": 3792, "rassie": 3793, "rat": 3794, "rate": 3795, "rati": 3796, "ratic": 3797, "ratio": 3798, "ration": 3799, "rative": 3800, "rav": 3801, "rave": 3802, "ravel": 3803, "raw": 3804, "ray": 3805, "rb": 3806, "rbi": 3807, "rc": 3808, "rce": 3809, "rch": 3810, "rci": 3811, "rd": 3812, "rda": 3813, "rde": 3814, "rder": 3815, "rdi": 3816, "rdin": 3817, "rdina": 3818, "rdinar": 3819, "rdinari": 3820, "rds": 3821, "re": 3822, "rea": 3823, "read": 3824, "reak": 3825, "real": 3826, "reali": 3827, "realis": 3828, "ream": 3829, "reas": 3830, "reaso": 3831, "reason": 3832, "reat": 3833, "rec": 3834, "reco": 3835, "record": 3836, "rect": 3837, "rector": 3838, "recycl": 3839, "red": 3840, "ree": 3841, "reed": 3842, "ref": 3843, "refe": 3844, "refer": 3845, "refere": 3846, "referen": 3847, "reg": 3848, "regard": 3849, "regu": 3850, "regul": 3851, "regula": 3852, "regular": 3853, "regulari": 3854, "regularit": 3855, "rei": 3856, "rel": 3857, "rela": 3858, "relat": 3859, "relati": 3860, "relatio": 3861, "relation": 3862, "relativ": 3863, "rely": 3864, "rem": 3865, "reme": 3866, "remen": 3867, "rement": 3868, "ren": 3869, "renc": 3870, "rence": 3871, "rent": 3872, "reo": 3873, "rep": 3874, "repa": 3875, "repl": 3876, "report": 3877, "res": 3878, "rese": 3879, "resh": 3880, "resi": 3881, "reside": 3882, "residen": 3883, "resident": 3884, "resp": 3885, "respec": 3886, "respect": 3887, "ress": 3888, "ressi": 3889, "rest": 3890, "result": 3891, "ret": 3892, "reta": 3893, "rett": 3894, "rev": 3895, "reve": 3896, "rew": 3897, "rewr": 3898, "rewrit": 3899, "rf": 3900, "rfu": 3901, "rful": 3902, "rg": 3903, "rga": 3904, "rgan": 3905, "rgani": 3906, "rganis": 3907, "rganiz": 3908, "rge": 3909, "rgi": 3910, "rh": 3911, "rho": 3912, "ri": 3913, "ria": 3914, "rial": 3915, "rian": 3916, "rib": 3917, "ric": 3918, "rica": 3919, "rical": 3920, "rican": 3921, "rici": 3922, "rid": 3923, "ride": 3924, "ridg": 3925, "ridge": 3926, "rie": 3927, "ried": 3928, "rien": 3929, "riend": 3930, "riendl": 3931, "riendli": 3932, "riendlie": 3933, "rier": 3934, "ries": 3935, "riest": 3936, "rig": 3937, "righ": 3938, "right": 3939, "ril": 3940, "rill": 3941, "rily": 3942, "rim": 3943, "rime": 3944, "rimen": 3945, "riment": 3946, "rimenta": 3947, "rin": 3948, "ring": 3949, "rink": 3950, "rint": 3951, "rip": 3952, "ris": 3953, "rise": 3954, "risi": 3955, "risin": 3956, "rising": 3957, "rist": 3958, "rit": 3959, "rite": 3960, "riti": 3961, "ritici": 3962, "ritie": 3963, "rities": 3964, "riting": 3965, "rity": 3966, "riv": 3967, "rive": 3968, "riz": 3969, "rk": 3970, "rke": 3971, "rki": 3972, "rkin": 3973, "rking": 3974, "rks": 3975, "rl": 3976, "rli": 3977, "rlie": 3978, "rlin": 3979, "rly": 3980, "rm": 3981, "rma": 3982, "rman": 3983, "rme": 3984, "rmen": 3985, "rmi": 3986, "rmin": 3987, "rming": 3988, "rms": 3989, "rmy": 3990, "rn": 3991, "rna": 3992, "rne": 3993, "rni": 3994, "rnin": 3995, "rning": 3996, "ro": 3997, "roa": 3998, "road": 3999, "rob": 4000, "roba": 4001, "robab": 4002, "robber": 4003, "roc": 4004, "roce": 4005, "rocer": 4006, "rocess": 4007, "rock": 4008, "rod": 4009, "rodu": 4010, "roduc": 4011, "roduct": 4012, "rof": 4013, "rofess": 4014, "rofi": 4015, "rog": 4016, "rogr": 4017, "rogra": 4018, "rogram": 4019, "rol": 4020, "rom": 4021, "ron": 4022, "rong": 4023, "roni": 4024, "ronic": 4025, "ronoun": 4026, "roo": 4027, "room": 4028, "rop": 4029, "rope": 4030, "roph": 4031, "ropi": 4032, "ror": 4033, "ros": 4034, "rot": 4035, "rote": 4036, "rother": 4037, "rou": 4038, "roug": 4039, "rough": 4040, "roun": 4041, "round": 4042, "rous": 4043, "rov": 4044, "rove": 4045, "rovi": 4046, "roving": 4047, "row": 4048, "rows": 4049, "rp": 4050, "rph": 4051, "rpo": 4052, "rpr": 4053, "rr": 4054, "rra": 4055, "rre": 4056, "rri": 4057, "rrie": 4058, "rried": 4059, "rries": 4060, "rro": 4061, "rround": 4062, "rrow": 4063, "rry": 4064, "rs": 4065, "rse": 4066, "rsel": 4067, "rsi": 4068, "rsin": 4069, "rsing": 4070, "rso": 4071, "rson": 4072, "rst": 4073, "rstand": 4074, "rt": 4075, "rta": 4076, "rtai": 4077, "rtain": 4078, "rte": 4079, "rter": 4080, "rth": 4081, "rthe": 4082, "rther": 4083, "rthw": 4084, "rti": 4085, "rtic": 4086, "rtie": 4087, "rties": 4088, "rtif": 4089, "rtifi": 4090, "rtific": 4091, "rtifica": 4092, "rtificat": 4093, "rtis": 4094, "rtment": 4095, "rto": 4096, "rts": 4097, "rtu": 4098, "rtun": 4099, "rty": 4100, "ru": 4101, "ruc": 4102, "ruct": 4103, "ructu": 4104, "ructur": 4105, "ructure": 4106, "rue": 4107, "rug": 4108, "rui": 4109, "rul": 4110, "rum": 4111, "run": 4112, "rus": 4113, "russia": 4114, "rv": 4115, "rve": 4116, "rvi": 4117, "rvie": 4118, "rview": 4119, "rw": 4120, "rwa": 4121, "rx": 4122, "rxi": 4123, "rxis": 4124, "ry": 4125, "s": 4126, "sa": 4127, "sab": 4128, "sad": 4129, "saf": 4130, "sag": 4131, "sai": 4132, "sain": 4133, "saint": 4134, "sal": 4135, "sale": 4136, "sales": 4137, "san": 4138, "sant": 4139, "sap": 4140, "sapp": 4141, "sar": 4142, "sary": 4143, "sat": 4144, "sati": 4145, "satis": 4146, "satisf": 4147, "satisfi": 4148, "satisfie": 4149, "satu": 4150, "satur": 4151, "sau": 4152, "sc": 4153, "sch": 4154, "sci": 4155, "scie": 4156, "scien": 4157, "scient": 4158, "scienti": 4159, "sco": 4160, "scot": 4161, "scover": 4162, "scr": 4163, "scri": 4164, "script": 4165, "scu": 4166, "sculin": 4167, "sd": 4168, "sda": 4169, "sday": 4170, "se": 4171, "sea": 4172, "seas": 4173, "sec": 4174, "seco": 4175, "secon": 4176, "second": 4177, "sed": 4178, "see": 4179, "sel": 4180, "self": 4181, "selv": 4182, "selve": 4183, "selves": 4184, "sem": 4185, "sement": 4186, "semi": 4187, "sen": 4188, "senger": 4189, "sens": 4190, "sent": 4191, "ser": 4192, "serv": 4193, "servi": 4194, "servic": 4195, "ses": 4196, "set": 4197, "sev": 4198, "seve": 4199, "seven": 4200, "sevent": 4201, "sew": 4202, "sf": 4203, "sg": 4204, "sh": 4205, "sha": 4206, "shad": 4207, "shadow": 4208, "sham": 4209, "shan": 4210, "shang": 4211, "shangh": 4212, "shangha": 4213, "shanghai": 4214, "shar": 4215, "she": 4216, "shi": 4217, "ship": 4218, "shir": 4219, "shirt": 4220, "shm": 4221, "shme": 4222, "shmen": 4223, "shment": 4224, "sho": 4225, "shop": 4226, "shor": 4227, "short": 4228, "si": 4229, "sia": 4230, "sian": 4231, "sib": 4232, "sibl": 4233, "sible": 4234, "sic": 4235, "sica": 4236, "sical": 4237, "sid": 4238, "side": 4239, "sident": 4240, "sie": 4241, "sier": 4242, "sies": 4243, "siest": 4244, "sig": 4245, "sign": 4246, "sil": 4247, "sim": 4248, "simi": 4249, "simil": 4250, "simila": 4251, "similar": 4252, "simp": 4253, "simpl": 4254, "simpli": 4255, "simplif": 4256, "sin": 4257, "sinc": 4258, "since": 4259, "sincer": 4260, "sine": 4261, "sines": 4262, "siness": 4263, "sing": 4264, "singl": 4265, "sio": 4266, "sion": 4267, "sis": 4268, "sist": 4269, "sit": 4270, "site": 4271, "siti": 4272, "situat": 4273, "siv": 4274, "sive": 4275, "six": 4276, "sixt": 4277, "sk": 4278, "ska": 4279, "ski": 4280, "skil": 4281, "skill": 4282, "sl": 4283, "sla": 4284, "sle": 4285, "slee": 4286, "sleep": 4287, "sleepi": 4288, "sm": 4289, "sma": 4290, "sman": 4291, "sme": 4292, "smel": 4293, "smell": 4294, "smelli": 4295, "smellie": 4296, "smen": 4297, "smo": 4298, "smok": 4299, "sn": 4300, "sne": 4301, "sno": 4302, "snow": 4303, "so": 4304, "soc": 4305, "soci": 4306, "socia": 4307, "social": 4308, "sof": 4309, "soft": 4310, "sol": 4311, "som": 4312, "some": 4313, "son": 4314, "sona": 4315, "sop": 4316, "soph": 4317, "sor": 4318, "sorr": 4319, "sou": 4320, "sour": 4321, "sourc": 4322, "source": 4323, "sout": 4324, "south": 4325, "sp": 4326, "spa": 4327, "spac": 4328, "space": 4329, "spe": 4330, "spea": 4331, "speak": 4332, "spec": 4333, "speci": 4334, "specia": 4335, "special": 4336, "speciali": 4337, "spect": 4338, "spen": 4339, "spi": 4340, "spic": 4341, "spit": 4342, "spital": 4343, "spo": 4344, "spok": 4345, "spoke": 4346, "spor": 4347, "sport": 4348, "sports": 4349, "ss": 4350, "ssa": 4351, "ssar": 4352, "ssat": 4353, "ssati": 4354, "ssatis": 4355, "ssatisf": 4356, "ssatisfi": 4357, "ssatisfie": 4358, "sse": 4359, "ssen": 4360, "ssenge": 4361, "ssenger": 4362, "ssi": 4363, "ssib": 4364, "ssie": 4365, "ssin": 4366, "ssio": 4367, "ssion": 4368, "ssm": 4369, "sso": 4370, "ssu": 4371, "st": 4372, "sta": 4373, "stab": 4374, "stai": 4375, "stair": 4376, "stairs": 4377, "stan": 4378, "stand": 4379, "star": 4380, "stat": 4381, "state": 4382, "states": 4383, "stati": 4384, "ste": 4385, "stem": 4386, "sten": 4387, "ster": 4388, "sti": 4389, "stic": 4390, "stie": 4391, "sties": 4392, "stin": 4393, "sting": 4394, "stio": 4395, "stion": 4396, "stit": 4397, "stitu": 4398, "stitut": 4399, "stl": 4400, "stli": 4401, "stm": 4402, "sto": 4403, "stom": 4404, "ston": 4405, "stor": 4406, "store": 4407, "stori": 4408, "storie": 4409, "storm": 4410, "str": 4411, "stra": 4412, "strali": 4413, "stralia": 4414, "strang": 4415, "stre": 4416, "stress": 4417, "stri": 4418, "stro": 4419, "stron": 4420, "strong": 4421, "stru": 4422, "struc": 4423, "struct": 4424, "structu": 4425, "structur": 4426, "structure": 4427, "sts": 4428, "stu": 4429, "stud": 4430, "stw": 4431, "stwa": 4432, "stwar": 4433, "stward": 4434, "sty": 4435, "styl": 4436, "su": 4437, "sua": 4438, "sual": 4439, "sub": 4440, "subtit": 4441, "subtitl": 4442, "suc": 4443, "succ": 4444, "succe": 4445, "succes": 4446, "success": 4447, "suf": 4448, "suff": 4449, "sul": 4450, "sult": 4451, "sultan": 4452, "sun": 4453, "sund": 4454, "sunn": 4455, "sunnie": 4456, "sup": 4457, "supe": 4458, "super": 4459, "superm": 4460, "supers": 4461, "supp": 4462, "sur": 4463, "sura": 4464, "suranc": 4465, "surance": 4466, "sure": 4467, "surpri": 4468, "surpris": 4469, "surrou": 4470, "surroun": 4471, "surround": 4472, "sus": 4473, "sw": 4474, "swe": 4475, "swi": 4476, "swo": 4477, "swom": 4478, "sy": 4479, "syc": 4480, "sych": 4481, "sychol": 4482, "sys": 4483, "syst": 4484, "syste": 4485, "system": 4486, "t": 4487, "t-": 4488, "ta": 4489, "tab": 4490, "tabl": 4491, "table": 4492, "tac": 4493, "tag": 4494, "tage": 4495, "tai": 4496, "tail": 4497, "tain": 4498, "tair": 4499, "tak": 4500, "take": 4501, "taking": 4502, "tal": 4503, "tali": 4504, "talit": 4505, "tall": 4506, "tally": 4507, "tam": 4508, "tami": 4509, "tamin": 4510, "tan": 4511, "tanc": 4512, "tance": 4513, "tand": 4514, "tant": 4515, "tar": 4516, "tari": 4517, "taries": 4518, "tary": 4519, "tat": 4520, "tate": 4521, "tati": 4522, "tatio": 4523, "tation": 4524, "tax": 4525, "tb": 4526, "tc": 4527, "tch": 4528, "td": 4529, "te": 4530, "tea": 4531, "teac": 4532, "teach": 4533, "team": 4534, "tec": 4535, "tech": 4536, "techn": 4537, "techni": 4538, "ted": 4539, "tee": 4540, "teen": 4541, "teer": 4542, "tel": 4543, "tele": 4544, "tely": 4545, "tem": 4546, "temp": 4547, "ten": 4548, "tena": 4549, "tens": 4550, "tensi": 4551, "tent": 4552, "ter": 4553, "teri": 4554, "teria": 4555, "terial": 4556, "tern": 4557, "ternit": 4558, "terr": 4559, "tert": 4560, "terv": 4561, "tervi": 4562, "tervie": 4563, "terview": 4564, "tery": 4565, "tes": 4566, "tew": 4567, "tf": 4568, "tfu": 4569, "tful": 4570, "th": 4571, "tha": 4572, "than": 4573, "the": 4574, "them": 4575, "theo": 4576, "ther": 4577, "therm": 4578, "thes": 4579, "thi": 4580, "thic": 4581, "thie": 4582, "thin": 4583, "thing": 4584, "thir": 4585, "thirs": 4586, "thirst": 4587, "thl": 4588, "tho": 4589, "thou": 4590, "thoug": 4591, "though": 4592, "thought": 4593, "thr": 4594, "thro": 4595, "throug": 4596, "through": 4597, "thu": 4598, "thw": 4599, "thward": 4600, "thy": 4601, "ti": 4602, "tia": 4603, "tib": 4604, "tibi": 4605, "tic": 4606, "tica": 4607, "tical": 4608, "tici": 4609, "tick": 4610, "tie": 4611, "tier": 4612, "ties": 4613, "tiest": 4614, "tif": 4615, "tifi": 4616, "tific": 4617, "tifica": 4618, "tificat": 4619, "tifie": 4620, "tified": 4621, "tifies": 4622, "tig": 4623, "til": 4624, "tim": 4625, "time": 4626, "tin": 4627, "ting": 4628, "tio": 4629, "tion": 4630, "tiona": 4631, "tional": 4632, "tions": 4633, "tis": 4634, "tisf": 4635, "tisfie": 4636, "tist": 4637, "tit": 4638, "titu": 4639, "titut": 4640, "tiv": 4641, "tive": 4642, "tivel": 4643, "tively": 4644, "tivi": 4645, "tivit": 4646, "tiviti": 4647, "tivitie": 4648, "tivities": 4649, "tivity": 4650, "tl": 4651, "tla": 4652, "tle": 4653, "tles": 4654, "tless": 4655, "tli": 4656, "tlin": 4657, "tling": 4658, "tly": 4659, "tm": 4660, "tme": 4661, "tmen": 4662, "tment": 4663, "tn": 4664, "tne": 4665, "to": 4666, "toc": 4667, "tod": 4668, "tog": 4669, "togr": 4670, "togra": 4671, "tograp": 4672, "tograph": 4673, "tol": 4674, "tom": 4675, "toma": 4676, "ton": 4677, "tone": 4678, "toni": 4679, "too": 4680, "toot": 4681, "tooth": 4682, "top": 4683, "tor": 4684, "tore": 4685, "tori": 4686, "torie": 4687, "tories": 4688, "torm": 4689, "tors": 4690, "tory": 4691, "tou": 4692, "tour": 4693, "touri": 4694, "touris": 4695, "tow": 4696, "tr": 4697, "tra": 4698, "trac": 4699, "tract": 4700, "trad": 4701, "trade": 4702, "tradi": 4703, "trai": 4704, "train": 4705, "tral": 4706, "trali": 4707, "tralia": 4708, "tran": 4709, "trans": 4710, "transl": 4711, "transla": 4712, "translat": 4713, "trat": 4714, "trate": 4715, "trav": 4716, "trave": 4717, "travel": 4718, "tre": 4719, "tres": 4720, "tress": 4721, "tri": 4722, "tribut": 4723, "tric": 4724, "trical": 4725, "trie": 4726, "tro": 4727, "trod": 4728, "troduc": 4729, "tron": 4730, "trop": 4731, "tru": 4732, "truc": 4733, "truct": 4734, "tructu": 4735, "tructur": 4736, "tructure": 4737, "try": 4738, "ts": 4739, "tsm": 4740, "tt": 4741, "tta": 4742, "tte": 4743, "tten": 4744, "tter": 4745, "tti": 4746, "ttl": 4747, "ttle": 4748, "tu": 4749, "tua": 4750, "tuat": 4751, "tud": 4752, "tum": 4753, "tun": 4754, "tur": 4755, "tura": 4756, "ture": 4757, "turi": 4758, "turing": 4759, "turn": 4760, "tut": 4761, "tw": 4762, "twa": 4763, "twar": 4764, "tward": 4765, "twards": 4766, "twe": 4767, "twi": 4768, "ty": 4769, "tyl": 4770, "typ": 4771, "type": 4772, "u": 4773, "ua": 4774, "ual": 4775, "uali": 4776, "uall": 4777, "ually": 4778, "uantif": 4779, "uar": 4780, "uat": 4781, "uate": 4782, "uati": 4783, "uatio": 4784, "uation": 4785, "ub": 4786, "ubl": 4787, "ubli": 4788, "ubt": 4789, "ubtitl": 4790, "uc": 4791, "uca": 4792, "ucat": 4793, "ucc": 4794, "ucce": 4795, "ucces": 4796, "uccess": 4797, "uch": 4798, "uck": 4799, "ucki": 4800, "uckie": 4801, "uct": 4802, "uctu": 4803, "uctur": 4804, "ucture": 4805, "ud": 4806, "udd": 4807, "uddhis": 4808, "ude": 4809, "udi": 4810, "ue": 4811, "uen": 4812, "ues": 4813, "uest": 4814, "uf": 4815, "uff": 4816, "ug": 4817, "ugg": 4818, "ugh": 4819, "ught": 4820, "ughter": 4821, "ui": 4822, "uid": 4823, "uil": 4824, "uild": 4825, "uildin": 4826, "uilding": 4827, "uin": 4828, "uing": 4829, "uir": 4830, "uiri": 4831, "uiring": 4832, "uis": 4833, "uit": 4834, "ul": 4835, "ula": 4836, "ular": 4837, "ulari": 4838, "ularit": 4839, "ulat": 4840, "ulati": 4841, "ulatio": 4842, "ulation": 4843, "uld": 4844, "ule": 4845, "uli": 4846, "ull": 4847, "ully": 4848, "ult": 4849, "ulti": 4850, "um": 4851, "uma": 4852, "umb": 4853, "ume": 4854, "umen": 4855, "ument": 4856, "umm": 4857, "umo": 4858, "ump": 4859, "un": 4860, "una": 4861, "unc": 4862, "unci": 4863, "unct": 4864, "unctua": 4865, "unctuat": 4866, "und": 4867, "unde": 4868, "under": 4869, "unders": 4870, "underst": 4871, "understa": 4872, "understan": 4873, "understand": 4874, "undi": 4875, "unding": 4876, "une": 4877, "ung": 4878, "unh": 4879, "unhapp": 4880, "uni": 4881, "unis": 4882, "unit": 4883, "univer": 4884, "univers": 4885, "unk": 4886, "unl": 4887, "unluck": 4888, "unn": 4889, "unne": 4890, "unni": 4891, "unnie": 4892, "unnies": 4893, "uns": 4894, "unt": 4895, "unte": 4896, "unti": 4897, "untr": 4898, "up": 4899, "upe": 4900, "uper": 4901, "upp": 4902, "ur": 4903, "ura": 4904, "urable": 4905, "ural": 4906, "uran": 4907, "urance": 4908, "urat": 4909, "urc": 4910, "urce": 4911, "urd": 4912, "ure": 4913, "ures": 4914, "uri": 4915, "urin": 4916, "uring": 4917, "uris": 4918, "url": 4919, "urn": 4920, "urni": 4921, "uro": 4922, "urp": 4923, "urpris": 4924, "urr": 4925, "urroun": 4926, "urround": 4927, "urs": 4928, "urse": 4929, "ursing": 4930, "urt": 4931, "urth": 4932, "us": 4933, "usa": 4934, "use": 4935, "ush": 4936, "usi": 4937, "usie": 4938, "usin": 4939, "usine": 4940, "usines": 4941, "usiness": 4942, "using": 4943, "uss": 4944, "ussi": 4945, "ust": 4946, "ustr": 4947, "ustral": 4948, "ustrali": 4949, "ustralia": 4950, "usu": 4951, "usua": 4952, "usual": 4953, "ut": 4954, "ute": 4955, "uter": 4956, "uth": 4957, "uti": 4958, "utio": 4959, "ution": 4960, "uto": 4961, "utom": 4962, "utomat": 4963, "v": 4964, "va": 4965, "vac": 4966, "val": 4967, "valu": 4968, "van": 4969, "vant": 4970, "vanta": 4971, "vantag": 4972, "vantage": 4973, "vat": 4974, "ve": 4975, "vel": 4976, "veli": 4977, "vely": 4978, "ven": 4979, "vent": 4980, "ver": 4981, "verh": 4982, "veries": 4983, "vers": 4984, "verse": 4985, "vert": 4986, "vertis": 4987, "very": 4988, "ves": 4989, "vest": 4990, "vi": 4991, "vic": 4992, "vid": 4993, "vide": 4994, "video": 4995, "vie": 4996, "vies": 4997, "view": 4998, "viewe": 4999, "viewer": 5000, "vil": 5001, "vill": 5002, "vin": 5003, "ving": 5004, "vio": 5005, "vis": 5006, "visi": 5007, "vit": 5008, "vita": 5009, "viti": 5010, "vities": 5011, "vo": 5012, "vol": 5013, "vou": 5014, "w": 5015, "wa": 5016, "wai": 5017, "wait": 5018, "wak": 5019, "wal": 5020, "war": 5021, "ward": 5022, "wards": 5023, "was": 5024, "wash": 5025, "wat": 5026, "wate": 5027, "water": 5028, "water-": 5029, "way": 5030, "we": 5031, "wea": 5032, "weal": 5033, "wealt": 5034, "wealth": 5035, "wed": 5036, "wee": 5037, "week": 5038, "wel": 5039, "wer": 5040, "wes": 5041, "west": 5042, "wh": 5043, "wha": 5044, "whe": 5045, "wher": 5046, "where": 5047, "whi": 5048, "whil": 5049, "who": 5050, "wi": 5051, "wid": 5052, "wide": 5053, "wil": 5054, "will": 5055, "willi": 5056, "willin": 5057, "willing": 5058, "win": 5059, "wind": 5060, "wis": 5061, "wit": 5062, "wl": 5063, "wn": 5064, "wo": 5065, "wok": 5066, "woke": 5067, "wom": 5068, "woma": 5069, "woman": 5070, "wome": 5071, "women": 5072, "woo": 5073, "wood": 5074, "wor": 5075, "word": 5076, "work": 5077, "workin": 5078, "working": 5079, "wort": 5080, "worth": 5081, "wr": 5082, "wri": 5083, "writ": 5084, "write": 5085, "writin": 5086, "writing": 5087, "ws": 5088, "x": 5089, "xa": 5090, "xam": 5091, "xc": 5092, "xe": 5093, "xer": 5094, "xi": 5095, "xic": 5096, "xica": 5097, "xis": 5098, "xist": 5099, "xp": 5100, "xpe": 5101, "xpec": 5102, "xpect": 5103, "xpecta": 5104, "xpen": 5105, "xpens": 5106, "xper": 5107, "xperi": 5108, "xperim": 5109, "xperime": 5110, "xperimen": 5111, "xperiment": 5112, "xperimenta": 5113, "xt": 5114, "xtr": 5115, "xtra": 5116, "y": 5117, "ya": 5118, "yb": 5119, "yc": 5120, "ych": 5121, "ycl": 5122, "ycle": 5123, "ycli": 5124, "yclin": 5125, "ycling": 5126, "yd": 5127, "ye": 5128, "yg": 5129, "yi": 5130, "yin": 5131, "ying": 5132, "yl": 5133, "ym": 5134, "yme": 5135, "yn": 5136, "yo": 5137, "you": 5138, "your": 5139, "yp": 5140, "ype": 5141, "ypo": 5142, "ys": 5143, "ysi": 5144, "yst": 5145, "yste": 5146, "ystem": 5147, "yt": 5148, "yti": 5149, "ytic": 5150, "yw": 5151, "z": 5152, "za": 5153, "zat": 5154, "zati": 5155, "zatio": 5156, "zation": 5157, "ze": 5158, "zer": 5159, "zi": 5160, "zin": 5161, "zing": 5162, "zo": 5163, "zoo": 5164, "{": 5165, "|": 5166, "}": 5167, "~": 5168, "\u007f": 5169, "\u0080": 5170, "\u0081": 5171, "\u0082": 5172, "\u0083": 5173, "\u0084": 5174, "\u0085": 5175, "\u0086": 5176, "\u0087": 5177, "\u0088": 5178, "\u0089": 5179, "\u008a": 5180, "\u008b": 5181, "\u008c": 5182, "\u008d": 5183, "\u008e": 5184, "\u008f": 5185, "\u0090": 5186, "\u0091": 5187, "\u0092": 5188, "\u0093": 5189, "\u0094": 5190, "\u0095": 5191, "\u0096": 5192, "\u0097": 5193, "\u0098": 5194, "\u0099": 5195, "\u009a": 5196, "\u009b": 5197, "\u009c": 5198, "\u009d": 5199, "\u009e": 5200, "\u009f": 5201, "\u00a0": 5202, "\u00a1": 5203, "\u00a2": 5204, "\u00a3": 5205, "\u00a4": 5206, "\u00a5": 5207, "\u00a6": 5208, "\u00a7": 5209, "\u00a8": 5210, "\u00a9": 5211, "\u00aa": 5212, "\u00ab": 5213, "\u00ac": 5214, "\u00ad": 5215, "\u00ae": 5216, "\u00af": 5217, "\u00b0": 5218, "\u00b1": 5219, "\u00b2": 5220, "\u00b3": 5221, "\u00b4": 5222, "\u00b5": 5223, "\u00b6": 5224, "\u00b7": 5225, "\u00b8": 5226, "\u00b9": 5227, "\u00ba": 5228, "\u00bb": 5229, "\u00bc": 5230, "\u00bd": 5231, "\u00be": 5232, "\u00bf": 5233, "\u00c0": 5234, "\u00c1": 5235, "\u00c2": 5236, "\u00c3": 5237, "\u00c4": 5238, "\u00c5": 5239, "\u00c6": 5240, "\u00c7": 5241, "\u00c8": 5242, "\u00c9": 5243, "\u00ca": 5244, "\u00cb": 5245, "\u00cc": 5246, "\u00cd": 5247, "\u00ce": 5248, "\u00cf": 5249, "\u00d0": 5250, "\u00d1": 5251, "\u00d2": 5252, "\u00d3": 5253, "\u00d4": 5254, "\u00d5": 5255, "\u00d6": 5256, "\u00d7": 5257, "\u00d8": 5258, "\u00d9": 5259, "\u00da": 5260, "\u00db": 5261, "\u00dc": 5262, "\u00dd": 5263, "\u00de": 5264, "\u00df": 5265, "\u00e0": 5266, "\u00e1": 5267, "\u00e2": 5268, "\u00e3": 5269, "\u00e4": 5270, "\u00e5": 5271, "\u00e6": 5272, "\u00e7": 5273, "\u00e8": 5274, "\u00e9": 5275, "\u00ea": 5276, "\u00eb": 5277, "\u00ec": 5278, "\u00ed": 5279, "\u00ee": 5280, "\u00ef": 5281, "\u00f0": 5282, "\u00f1": 5283, "\u00f2": 5284, "\u00f3": 5285, "\u00f4": 5286, "\u00f5": 5287, "\u00f6": 5288, "\u00f7": 5289, "\u00f8": 5290, "\u00f9": 5291, "\u00fa": 5292, "\u00fb": 5293, "\u00fc": 5294, "\u00fd": 5295, "\u00fe": 5296, "\u00ff": 5297, "\u0100": 5298, "\u0101": 5299, "\u0102": 5300, "\u0103": 5301, "\u0104": 5302, "\u0105": 5303, "\u0106": 5304, "\u0107": 5305, "\u0108": 5306, "\u0109": 5307, "\u010a": 5308, "\u010b": 5309, "\u010c": 5310, "\u010d": 5311, "\u010e": 5312, "\u010f": 5313, "\u0110": 5314, "\u0111": 5315, "\u0112": 5316, "\u0113": 5317, "\u0114": 5318, "\u0115": 5319, "\u0116": 5320, "\u0117": 5321, "\u0118": 5322, "\u0119": 5323, "\u011a": 5324, "\u011b": 5325, "\u011c": 5326, "\u011d": 5327, "\u011e": 5328, "\u011f": 5329, "\u0120": 5330, "\u0121": 5331, "\u0122": 5332, "\u0123": 5333, "\u0124": 5334, "\u0125": 5335, "\u0126": 5336, "\u0127": 5337, "\u0128": 5338, "\u0129": 5339, "\u012a": 5340, "\u012b": 5341, "\u012c": 5342, "\u012d": 5343, "\u012e": 5344, "\u012f": 5345, "\u0130": 5346, "\u0131": 5347, "\u0132": 5348, "\u0133": 5349, "\u0134": 5350, "\u0135": 5351, "\u0136": 5352, "\u0137": 5353, "\u0138": 5354, "\u0139": 5355, "\u013a": 5356, "\u013b": 5357, "\u013c": 5358, "\u013d": 5359, "\u013e": 5360, "\u013f": 5361, "\u0140": 5362, "\u0141": 5363, "\u0142": 5364, "\u0143": 5365, "\u0144": 5366, "\u0145": 5367, "\u0146": 5368, "\u0147": 5369, "\u0148": 5370, "\u0149": 5371, "\u014a": 5372, "\u014b": 5373, "\u014c": 5374, "\u014d": 5375, "\u014e": 5376, "\u014f": 5377, "\u0150": 5378, "\u0151": 5379, "\u0152": 5380, "\u0153": 5381, "\u0154": 5382, "\u0155": 5383, "\u0156": 5384, "\u0157": 5385, "\u0158": 5386, "\u0159": 5387, "\u015a": 5388, "\u015b": 5389, "\u015c": 5390, "\u015d": 5391, "\u015e": 5392, "\u015f": 5393, "\u0160": 5394, "\u0161": 5395, "\u0162": 5396, "\u0163": 5397, "\u0164": 5398, "\u0165": 5399, "\u0166": 5400, "\u0167": 5401, "\u0168": 5402, "\u0169": 5403, "\u016a": 5404, "\u016b": 5405, "\u016c": 5406, "\u016d": 5407, "\u016e": 5408, "\u016f": 5409, "\u0170": 5410, "\u0171": 5411, "\u0172": 5412, "\u0173": 5413, "\u0174": 5414, "\u0175": 5415, "\u0176": 5416, "\u0177": 5417, "\u0178": 5418, "\u0179": 5419, "\u017a": 5420, "\u017b": 5421, "\u017c": 5422, "\u017d": 5423, "\u017e": 5424, "\u017f": 5425, "\u0180": 5426, "\u0181": 5427, "\u0182": 5428, "\u0183": 5429, "\u0184": 5430, "\u0185": 5431, "\u0186": 5432, "\u0187": 5433, "\u0188": 5434, "\u0189": 5435, "\u018a": 5436, "\u018b": 5437, "\u018c": 5438, "\u018d": 5439, "\u018e": 5440, "\u018f": 5441, "\u0190": 5442, "\u0191": 5443, "\u0192": 5444, "\u0193": 5445, "\u0194": 5446, "\u0195": 5447, "\u0196": 5448, "\u0197": 5449, "\u0198": 5450, "\u0199": 5451, "\u019a": 5452, "\u019b": 5453, "\u019c": 5454, "\u019d": 5455, "\u019e": 5456, "\u019f": 5457, "\u01a0": 5458, "\u01a1": 5459, "\u01a2": 5460, "\u01a3": 5461, "\u01a4": 5462, "\u01a5": 5463, "\u01a6": 5464, "\u01a7": 5465, "\u01a8": 5466, "\u01a9": 5467, "\u01aa": 5468, "\u01ab": 5469, "\u01ac": 5470, "\u01ad": 5471, "\u01ae": 5472, "\u01af": 5473, "\u01b0": 5474, "\u01b1": 5475, "\u01b2": 5476, "\u01b3": 5477, "\u01b4": 5478, "\u01b5": 5479, "\u01b6": 5480, "\u01b7": 5481, "\u01b8": 5482, "\u01b9": 5483, "\u01ba": 5484, "\u01bb": 5485, "\u01bc": 5486, "\u01bd": 5487, "\u01be": 5488, "\u01bf": 5489, "\u01c0": 5490, "\u01c1": 5491, "\u01c2": 5492, "\u01c3": 5493, "\u01c4": 5494, "\u01c5": 5495, "\u01c6": 5496, "\u01c7": 5497, "\u01c8": 5498, "\u01c9": 5499, "\u01ca": 5500, "\u01cb": 5501, "\u01cc": 5502, "\u01cd": 5503, "\u01ce": 5504, "\u01cf": 5505, "\u01d0": 5506, "\u01d1": 5507, "\u01d2": 5508, "\u01d3": 5509, "\u01d4": 5510, "\u01d5": 5511, "\u01d6": 5512, "\u01d7": 5513, "\u01d8": 5514, "\u01d9": 5515, "\u01da": 5516, "\u01db": 5517, "\u01dc": 5518, "\u01dd": 5519, "\u01de": 5520, "\u01df": 5521, "\u01e0": 5522, "\u01e1": 5523, "\u01e2": 5524, "\u01e3": 5525, "\u01e4": 5526, "\u01e5": 5527, "\u01e6": 5528, "\u01e7": 5529, "\u01e8": 5530, "\u01e9": 5531, "\u01ea": 5532, "\u01eb": 5533, "\u01ec": 5534, "\u01ed": 5535, "\u01ee": 5536, "\u01ef": 5537, "\u01f0": 5538, "\u01f1": 5539, "\u01f2": 5540, "\u01f3": 5541, "\u01f4": 5542, "\u01f5": 5543, "\u01f6": 5544, "\u01f7": 5545, "\u01f8": 5546, "\u01f9": 5547, "\u01fa": 5548, "\u01fb": 5549, "\u01fc": 5550, "\u01fd": 5551, "\u01fe": 5552, "\u01ff": 5553, "\u0200": 5554, "\u0201": 5555, "\u0202": 5556, "\u0203": 5557, "\u0204": 5558, "\u0205": 5559, "\u0206": 5560, "\u0207": 5561, "\u0208": 5562, "\u0209": 5563, "\u020a": 5564, "\u020b": 5565, "\u020c": 5566, "\u020d": 5567, "\u020e": 5568, "\u020f": 5569, "\u0210": 5570, "\u0211": 5571, "\u0212": 5572, "\u0213": 5573, "\u0214": 5574, "\u0215": 5575, "\u0216": 5576, "\u0217": 5577, "\u0218": 5578, "\u0219": 5579, "\u021a": 5580, "\u021b": 5581, "\u021c": 5582, "\u021d": 5583, "\u021e": 5584, "\u021f": 5585, "\u0220": 5586, "\u0221": 5587, "\u0222": 5588, "\u0223": 5589, "\u0224": 5590, "\u0225": 5591, "\u0226": 5592, "\u0227": 5593, "\u0228": 5594, "\u0229": 5595, "\u022a": 5596, "\u022b": 5597, "\u022c": 5598, "\u022d": 5599, "\u022e": 5600, "\u022f": 5601, "\u0230": 5602, "\u0231": 5603, "\u0232": 5604, "\u0233": 5605, "\u0234": 5606, "\u0235": 5607, "\u0236": 5608, "\u0237": 5609, "\u0238": 5610, "\u0239": 5611, "\u023a": 5612, "\u023b": 5613, "\u023c": 5614, "\u023d": 5615, "\u023e": 5616, "\u023f": 5617, "\u0240": 5618, "\u0241": 5619, "\u0242": 5620, "\u0243": 5621, "\u0244": 5622, "\u0245": 5623, "\u0246": 5624, "\u0247": 5625, "\u0248": 5626, "\u0249": 5627, "\u024a": 5628, "\u024b": 5629, "\u024c": 5630, "\u024d": 5631, "\u024e": 5632, "\u024f": 5633, "\u0250": 5634, "\u0251": 5635, "\u0252": 5636, "\u0253": 5637, "\u0254": 5638, "\u0255": 5639, "\u0256": 5640, "\u0257": 5641, "\u0258": 5642, "\u0259": 5643, "\u025a": 5644, "\u025b": 5645, "\u025c": 5646, "\u025d": 5647, "\u025e": 5648, "\u025f": 5649, "\u0260": 5650, "\u0261": 5651, "\u0262": 5652, "\u0263": 5653, "\u0264": 5654, "\u0265": 5655, "\u0266": 5656, "\u0267": 5657, "\u0268": 5658, "\u0269": 5659, "\u026a": 5660, "\u026b": 5661, "\u026c": 5662, "\u026d": 5663, "\u026e": 5664, "\u026f": 5665, "\u0270": 5666, "\u0271": 5667, "\u0272": 5668, "\u0273": 5669, "\u0274": 5670, "\u0275": 5671, "\u0276": 5672, "\u0277": 5673, "\u0278": 5674, "\u0279": 5675, "\u027a": 5676, "\u027b": 5677, "\u027c": 5678, "\u027d": 5679, "\u027e": 5680, "\u027f": 5681, "\u0280": 5682, "\u0281": 5683, "\u0282": 5684, "\u0283": 5685, "\u0284": 5686, "\u0285": 5687, "\u0286": 5688, "\u0287": 5689, "\u0288": 5690, "\u0289": 5691, "\u028a": 5692, "\u028b": 5693, "\u028c": 5694, "\u028d": 5695, "\u028e": 5696, "\u028f": 5697, "\u0290": 5698, "\u0291": 5699, "\u0292": 5700, "\u0293": 5701, "\u0294": 5702, "\u0295": 5703, "\u0296": 5704, "\u0297": 5705, "\u0298": 5706, "\u0299": 5707, "\u029a": 5708, "\u029b": 5709, "\u029c": 5710, "\u029d": 5711, "\u029e": 5712, "\u029f": 5713, "\u02a0": 5714, "\u02a1": 5715, "\u02a2": 5716, "\u02a3": 5717, "\u02a4": 5718, "\u02a5": 5719, "\u02a6": 5720, "\u02a7": 5721, "\u02a8": 5722, "\u02a9": 5723, "\u02aa": 5724, "\u02ab": 5725, "\u02ac": 5726, "\u02ad": 5727, "\u02ae": 5728, "\u02af": 5729, "\u02b0": 5730, "\u02b1": 5731, "\u02b2": 5732, "\u02b3": 5733, "\u02b4": 5734, "\u02b5": 5735, "\u02b6": 5736, "\u02b7": 5737, "\u02b8": 5738, "\u02b9": 5739, "\u02ba": 5740, "\u02bb": 5741, "\u02bc": 5742, "\u02bd": 5743, "\u02be": 5744, "\u02bf": 5745, "\u02c0": 5746, "\u02c1": 5747, "\u02c2": 5748, "\u02c3": 5749, "\u02c4": 5750, "\u02c5": 5751, "\u02c6": 5752, "\u02c7": 5753, "\u02c8": 5754, "\u02c9": 5755, "\u02ca": 5756, "\u02cb": 5757, "\u02cc": 5758, "\u02cd": 5759, "\u02ce": 5760, "\u02cf": 5761, "\u02d0": 5762, "\u02d1": 5763, "\u02d2": 5764, "\u02d3": 5765, "\u02d4": 5766, "\u02d5": 5767, "\u02d6": 5768, "\u02d7": 5769, "\u02d8": 5770, "\u02d9": 5771, "\u02da": 5772, "\u02db": 5773, "\u02dc": 5774, "\u02dd": 5775, "\u02de": 5776, "\u02df": 5777, "\u02e0": 5778, "\u02e1": 5779, "\u02e2": 5780, "\u02e3": 5781, "\u02e4": 5782, "\u02e5": 5783, "\u02e6": 5784, "\u02e7": 5785, "\u02e8": 5786, "\u02e9": 5787, "\u02ea": 5788, "\u02eb": 5789, "\u02ec": 5790, "\u02ed": 5791, "\u02ee": 5792, "\u02ef": 5793, "\u02f0": 5794, "\u02f1": 5795, "\u02f2": 5796, "\u02f3": 5797, "\u02f4": 5798, "\u02f5": 5799, "\u02f6": 5800, "\u02f7": 5801, "\u02f8": 5802, "\u02f9": 5803, "\u02fa": 5804, "\u02fb": 5805, "\u02fc": 5806, "\u02fd": 5807, "\u02fe": 5808, "\u02ff": 5809, "\u0300": 5810, "\u0301": 5811, "\u0302": 5812, "\u0303": 5813, "\u0304": 5814, "\u0305": 5815, "\u0306": 5816, "\u0307": 5817, "\u0308": 5818, "\u0309": 5819, "\u030a": 5820, "\u030b": 5821, "\u030c": 5822, "\u030d": 5823, "\u030e": 5824, "\u030f": 5825, "\u0310": 5826, "\u0311": 5827, "\u0312": 5828, "\u0313": 5829, "\u0314": 5830, "\u0315": 5831, "\u0316": 5832, "\u0317": 5833, "\u0318": 5834, "\u0319": 5835, "\u031a": 5836, "\u031b": 5837, "\u031c": 5838, "\u031d": 5839, "\u031e": 5840, "\u031f": 5841, "\u0320": 5842, "\u0321": 5843, "\u0322": 5844, "\u0323": 5845, "\u0324": 5846, "\u0325": 5847, "\u0326": 5848, "\u0327": 5849, "\u0328": 5850, "\u0329": 5851, "\u032a": 5852, "\u032b": 5853, "\u032c": 5854, "\u032d": 5855, "\u032e": 5856, "\u032f": 5857, "\u0330": 5858, "\u0331": 5859, "\u0332": 5860, "\u0333": 5861, "\u0334": 5862, "\u0335": 5863, "\u0336": 5864, "\u0337": 5865, "\u0338": 5866, "\u0339": 5867, "\u033a": 5868, "\u033b": 5869, "\u033c": 5870, "\u033d": 5871, "\u033e": 5872, "\u033f": 5873, "\u0340": 5874, "\u0341": 5875, "\u0342": 5876, "\u0343": 5877, "\u0344": 5878, "\u0345": 5879, "\u0346": 5880, "\u0347": 5881, "\u0348": 5882, "\u0349": 5883, "\u034a": 5884, "\u034b": 5885, "\u034c": 5886, "\u034d": 5887, "\u034e": 5888, "\u034f": 5889, "\u0350": 5890, "\u0351": 5891, "\u0352": 5892, "\u0353": 5893, "\u0354": 5894, "\u0355": 5895, "\u0356": 5896, "\u0357": 5897, "\u0358": 5898, "\u0359": 5899, "\u035a": 5900, "\u035b": 5901, "\u035c": 5902, "\u035d": 5903, "\u035e": 5904, "\u035f": 5905, "\u0360": 5906, "\u0361": 5907, "\u0362": 5908, "\u0363": 5909, "\u0364": 5910, "\u0365": 5911, "\u0366": 5912, "\u0367": 5913, "\u0368": 5914, "\u0369": 5915, "\u036a": 5916, "\u036b": 5917, "\u036c": 5918, "\u036d": 5919, "\u036e": 5920, "\u036f": 5921, "\u0370": 5922, "\u0371": 5923, "\u0372": 5924, "\u0373": 5925, "\u0374": 5926, "\u0375": 5927, "\u0376": 5928, "\u0377": 5929, "\u0378": 5930, "\u0379": 5931, "\u037a": 5932, "\u037b": 5933, "\u037c": 5934, "\u037d": 5935, "\u037e": 5936, "\u037f": 5937, "\u0380": 5938, "\u0381": 5939, "\u0382": 5940, "\u0383": 5941, "\u0384": 5942, "\u0385": 5943, "\u0386": 5944, "\u0387": 5945, "\u0388": 5946, "\u0389": 5947, "\u038a": 5948, "\u038b": 5949, "\u038c": 5950, "\u038d": 5951, "\u038e": 5952, "\u038f": 5953, "\u0390": 5954, "\u0391": 5955, "\u0392": 5956, "\u0393": 5957, "\u0394": 5958, "\u0395": 5959, "\u0396": 5960, "\u0397": 5961, "\u0398": 5962, "\u0399": 5963, "\u039a": 5964, "\u039b": 5965, "\u039c": 5966, "\u039d": 5967, "\u039e": 5968, "\u039f": 5969, "\u03a0": 5970, "\u03a1": 5971, "\u03a2": 5972, "\u03a3": 5973, "\u03a4": 5974, "\u03a5": 5975, "\u03a6": 5976, "\u03a7": 5977, "\u03a8": 5978, "\u03a9": 5979, "\u03aa": 5980, "\u03ab": 5981, "\u03ac": 5982, "\u03ad": 5983, "\u03ae": 5984, "\u03af": 5985, "\u03b0": 5986, "\u03b1": 5987, "\u03b2": 5988, "\u03b3": 5989, "\u03b4": 5990, "\u03b5": 5991, "\u03b6": 5992, "\u03b7": 5993, "\u03b8": 5994, "\u03b9": 5995, "\u03ba": 5996, "\u03bb": 5997, "\u03bc": 5998, "\u03bd": 5999, "\u03be": 6000, "\u03bf": 6001, "\u03c0": 6002, "\u03c1": 6003, "\u03c2": 6004, "\u03c3": 6005, "\u03c4": 6006, "\u03c5": 6007, "\u03c6": 6008, "\u03c7": 6009, "\u03c8": 6010, "\u03c9": 6011, "\u03ca": 6012, "\u03cb": 6013, "\u03cc": 6014, "\u03cd": 6015, "\u03ce": 6016, "\u03cf": 6017, "\u03d0": 6018, "\u03d1": 6019, "\u03d2": 6020, "\u03d3": 6021, "\u03d4": 6022, "\u03d5": 6023, "\u03d6": 6024, "\u03d7": 6025, "\u03d8": 6026, "\u03d9": 6027, "\u03da": 6028, "\u03db": 6029, "\u03dc": 6030, "\u03dd": 6031, "\u03de": 6032, "\u03df": 6033, "\u03e0": 6034, "\u03e1": 6035, "\u03e2": 6036, "\u03e3": 6037, "\u03e4": 6038, "\u03e5": 6039, "\u03e6": 6040, "\u03e7": 6041, "\u03e8": 6042, "\u03e9": 6043, "\u03ea": 6044, "\u03eb": 6045, "\u03ec": 6046, "\u03ed": 6047, "\u03ee": 6048, "\u03ef": 6049, "\u03f0": 6050, "\u03f1": 6051, "\u03f2": 6052, "\u03f3": 6053, "\u03f4": 6054, "\u03f5": 6055, "\u03f6": 6056, "\u03f7": 6057, "\u03f8": 6058, "\u03f9": 6059, "\u03fa": 6060, "\u03fb": 6061, "\u03fc": 6062, "\u03fd": 6063, "\u03fe": 6064, "\u03ff": 6065, "\u0400": 6066, "\u0401": 6067, "\u0402": 6068, "\u0403": 6069, "\u0404": 6070, "\u0405": 6071, "\u0406": 6072, "\u0407": 6073, "\u0408": 6074, "\u0409": 6075, "\u040a": 6076, "\u040b": 6077, "\u040c": 6078, "\u040d": 6079, "\u040e": 6080, "\u040f": 6081, "\u0410": 6082, "\u0411": 6083, "\u0412": 6084, "\u0413": 6085, "\u0414": 6086, "\u0415": 6087, "\u0416": 6088, "\u0417": 6089, "\u0418": 6090, "\u0419": 6091, "\u041a": 6092, "\u041b": 6093, "\u041c": 6094, "\u041d": 6095, "\u041e": 6096, "\u041f": 6097, "\u0420": 6098, "\u0421": 6099, "\u0422": 6100, "\u0423": 6101, "\u0424": 6102, "\u0425": 6103, "\u0426": 6104, "\u0427": 6105, "\u0428": 6106, "\u0429": 6107, "\u042a": 6108, "\u042b": 6109, "\u042c": 6110, "\u042d": 6111, "\u042e": 6112, "\u042f": 6113, "\u0430": 6114, "\u0431": 6115, "\u0432": 6116, "\u0433": 6117, "\u0434": 6118, "\u0435": 6119, "\u0436": 6120, "\u0437": 6121, "\u0438": 6122, "\u0439": 6123, "\u043a": 6124, "\u043b": 6125, "\u043c": 6126, "\u043d": 6127, "\u043e": 6128, "\u043f": 6129, "\u0440": 6130, "\u0441": 6131, "\u0442": 6132, "\u0443": 6133, "\u0444": 6134, "\u0445": 6135, "\u0446": 6136, "\u0447": 6137, "\u0448": 6138, "\u0449": 6139, "\u044a": 6140, "\u044b": 6141, "\u044c": 6142, "\u044d": 6143, "\u044e": 6144, "\u044f": 6145, "\u0450": 6146, "\u0451": 6147, "\u0452": 6148, "\u0453": 6149, "\u0454": 6150, "\u0455": 6151, "\u0456": 6152, "\u0457": 6153, "\u0458": 6154, "\u0459": 6155, "\u045a": 6156, "\u045b": 6157, "\u045c": 6158, "\u045d": 6159, "\u045e": 6160, "\u045f": 6161, "\u0460": 6162, "\u0461": 6163, "\u0462": 6164, "\u0463": 6165, "\u0464": 6166, "\u0465": 6167, "\u0466": 6168, "\u0467": 6169, "\u0468": 6170, "\u0469": 6171, "\u046a": 6172, "\u046b": 6173, "\u046c": 6174, "\u046d": 6175, "\u046e": 6176, "\u046f": 6177, "\u0470": 6178, "\u0471": 6179, "\u0472": 6180, "\u0473": 6181, "\u0474": 6182, "\u0475": 6183, "\u0476": 6184, "\u0477": 6185, "\u0478": 6186, "\u0479": 6187, "\u047a": 6188, "\u047b": 6189, "\u047c": 6190, "\u047d": 6191, "\u047e": 6192, "\u047f": 6193, "\u0480": 6194, "\u0481": 6195, "\u0482": 6196, "\u0483": 6197, "\u0484": 6198, "\u0485": 6199, "\u0486": 6200, "\u0487": 6201, "\u0488": 6202, "\u0489": 6203, "\u048a": 6204, "\u048b": 6205, "\u048c": 6206, "\u048d": 6207, "\u048e": 6208, "\u048f": 6209, "\u0490": 6210, "\u0491": 6211, "\u0492": 6212, "\u0493": 6213, "\u0494": 6214, "\u0495": 6215, "\u0496": 6216, "\u0497": 6217, "\u0498": 6218, "\u0499": 6219, "\u049a": 6220, "\u049b": 6221, "\u049c": 6222, "\u049d": 6223, "\u049e": 6224, "\u049f": 6225, "\u04a0": 6226, "\u04a1": 6227, "\u04a2": 6228, "\u04a3": 6229, "\u04a4": 6230, "\u04a5": 6231, "\u04a6": 6232, "\u04a7": 6233, "\u04a8": 6234, "\u04a9": 6235, "\u04aa": 6236, "\u04ab": 6237, "\u04ac": 6238, "\u04ad": 6239, "\u04ae": 6240, "\u04af": 6241, "\u04b0": 6242, "\u04b1": 6243, "\u04b2": 6244, "\u04b3": 6245, "\u04b4": 6246, "\u04b5": 6247, "\u04b6": 6248, "\u04b7": 6249, "\u04b8": 6250, "\u04b9": 6251, "\u04ba": 6252, "\u04bb": 6253, "\u04bc": 6254, "\u04bd": 6255, "\u04be": 6256, "\u04bf": 6257, "\u04c0": 6258, "\u04c1": 6259, "\u04c2": 6260, "\u04c3": 6261, "\u04c4": 6262, "\u04c5": 6263, "\u04c6": 6264, "\u04c7": 6265, "\u04c8": 6266, "\u04c9": 6267, "\u04ca": 6268, "\u04cb": 6269, "\u04cc": 6270, "\u04cd": 6271, "\u04ce": 6272, "\u04cf": 6273, "\u04d0": 6274, "\u04d1": 6275, "\u04d2": 6276, "\u04d3": 6277, "\u04d4": 6278, "\u04d5": 6279, "\u04d6": 6280, "\u04d7": 6281, "\u04d8": 6282, "\u04d9": 6283, "\u04da": 6284, "\u04db": 6285, "\u04dc": 6286, "\u04dd": 6287, "\u04de": 6288, "\u04df": 6289, "\u04e0": 6290, "\u04e1": 6291, "\u04e2": 6292, "\u04e3": 6293, "\u04e4": 6294, "\u04e5": 6295, "\u04e6": 6296, "\u04e7": 6297, "\u04e8": 6298, "\u04e9": 6299, "\u04ea": 6300, "\u04eb": 6301, "\u04ec": 6302, "\u04ed": 6303, "\u04ee": 6304, "\u04ef": 6305, "\u04f0": 6306, "\u04f1": 6307, "\u04f2": 6308, "\u04f3": 6309, "\u04f4": 6310, "\u04f5": 6311, "\u04f6": 6312, "\u04f7": 6313, "\u04f8": 6314, "\u04f9": 6315, "\u04fa": 6316, "\u04fb": 6317, "\u04fc": 6318, "\u04fd": 6319, "\u04fe": 6320, "\u04ff": 6321, "\u2000": 6322, "\u2001": 6323, "\u2002": 6324, "\u2003": 6325, "\u2004": 6326, "\u2005": 6327, "\u2006": 6328, "\u2007": 6329, "\u2008": 6330, "\u2009": 6331, "\u200a": 6332, "\u200b": 6333, "\u200c": 6334, "\u200d": 6335, "\u200e": 6336, "\u200f": 6337, "\u2010": 6338, "\u2011": 6339, "\u2012": 6340, "\u2013": 6341, "\u2014": 6342, "\u2015": 6343, "\u2016": 6344, "\u2017": 6345, "\u2018": 6346, "\u2019": 6347, "\u201a": 6348, "\u201b": 6349, "\u201c": 6350, "\u201d": 6351, "\u201e": 6352, "\u201f": 6353, "\u2020": 6354, "\u2021": 6355, "\u2022": 6356, "\u2023": 6357, "\u2024": 6358, "\u2025": 6359, "\u2026": 6360, "\u2027": 6361, "\u2028": 6362, "\u2029": 6363, "\u202a": 6364, "\u202b": 6365, "\u202c": 6366, "\u202d": 6367, "\u202e": 6368, "\u202f": 6369, "\u2030": 6370, "\u2031": 6371, "\u2032": 6372, "\u2033": 6373, "\u2034": 6374, "\u2035": 6375, "\u2036": 6376, "\u2037": 6377, "\u2038": 6378, "\u2039": 6379, "\u203a": 6380, "\u203b": 6381, "\u203c": 6382, "\u203d": 6383, "\u203e": 6384, "\u203f": 6385, "\u2040": 6386, "\u2041": 6387, "\u2042": 6388, "\u2043": 6389, "\u2044": 6390, "\u2045": 6391, "\u2046": 6392, "\u2047": 6393, "\u2048": 6394, "\u2049": 6395, "\u204a": 6396, "\u204b": 6397, "\u204c": 6398, "\u204d": 6399, "\u204e": 6400, "\u204f": 6401, "\u2050": 6402, "\u2051": 6403, "\u2052": 6404, "\u2053": 6405, "\u2054": 6406, "\u2055": 6407, "\u2056": 6408, "\u2057": 6409, "\u2058": 6410, "\u2059": 6411, "\u205a": 6412, "\u205b": 6413, "\u205c": 6414, "\u205d": 6415, "\u205e": 6416, "\u205f": 6417, "\u2060": 6418, "\u2061": 6419, "\u2062": 6420, "\u2063": 6421, "\u2064": 6422, "\u2065": 6423, "\u2066": 6424, "\u2067": 6425, "\u2068": 6426, "\u2069": 6427, "\u206a": 6428, "\u206b": 6429, "\u206c": 6430, "\u206d": 6431, "\u206e": 6432, "\u206f": 6433, "\u2070": 6434, "\u2071": 6435, "\u2072": 6436, "\u2073": 6437, "\u2074": 6438, "\u2075": 6439, "\u2076": 6440, "\u2077": 6441, "\u2078": 6442, "\u2079": 6443, "\u207a": 6444, "\u207b": 6445, "\u207c": 6446, "\u207d": 6447, "\u207e": 6448, "\u207f": 6449, "\u2080": 6450, "\u2081": 6451, "\u2082": 6452, "\u2083": 6453, "\u2084": 6454, "\u2085": 6455, "\u2086": 6456, "\u2087": 6457, "\u2088": 6458, "\u2089": 6459, "\u208a": 6460, "\u208b": 6461, "\u208c": 6462, "\u208d": 6463, "\u208e": 6464, "\u208f": 6465, "\u2090": 6466, "\u2091": 6467, "\u2092": 6468, "\u2093": 6469, "\u2094": 6470, "\u2095": 6471, "\u2096": 6472, "\u2097": 6473, "\u2098": 6474, "\u2099": 6475, "\u209a": 6476, "\u209b": 6477, "\u209c": 6478, "\u209d": 6479, "\u209e": 6480, "\u209f": 6481, "\u20a0": 6482, "\u20a1": 6483, "\u20a2": 6484, "\u20a3": 6485, "\u20a4": 6486, "\u20a5": 6487, "\u20a6": 6488, "\u20a7": 6489, "\u20a8": 6490, "\u20a9": 6491, "\u20aa": 6492, "\u20ab": 6493, "\u20ac": 6494, "\u20ad": 6495, "\u20ae": 6496, "\u20af": 6497, "\u20b0": 6498, "\u20b1": 6499, "\u20b2": 6500, "\u20b3": 6501, "\u20b4": 6502, "\u20b5": 6503, "\u20b6": 6504, "\u20b7": 6505, "\u20b8": 6506, "\u20b9": 6507, "\u20ba": 6508, "\u20bb": 6509, "\u20bc": 6510, "\u20bd": 6511, "\u20be": 6512, "\u20bf": 6513, "\u20c0": 6514, "\u20c1": 6515, "\u20c2": 6516, "\u20c3": 6517, "\u20c4": 6518, "\u20c5": 6519, "\u20c6": 6520, "\u20c7": 6521, "\u20c8": 6522, "\u20c9": 6523, "\u20ca": 6524, "\u20cb": 6525, "\u20cc": 6526, "\u20cd": 6527, "\u20ce": 6528, "\u20cf": 6529, "\u20d0": 6530, "\u20d1": 6531, "\u20d2": 6532, "\u20d3": 6533, "\u20d4": 6534, "\u20d5": 6535, "\u20d6": 6536, "\u20d7": 6537, "\u20d8": 6538, "\u20d9": 6539, "\u20da": 6540, "\u20db": 6541, "\u20dc": 6542, "\u20dd": 6543, "\u20de": 6544, "\u20df": 6545, "\u20e0": 6546, "\u20e1": 6547, "\u20e2": 6548, "\u20e3": 6549, "\u20e4": 6550, "\u20e5": 6551, "\u20e6": 6552, "\u20e7": 6553, "\u20e8": 6554, "\u20e9": 6555, "\u20ea": 6556, "\u20eb": 6557, "\u20ec": 6558, "\u20ed": 6559, "\u20ee": 6560, "\u20ef": 6561, "\u20f0": 6562, "\u20f1": 6563, "\u20f2": 6564, "\u20f3": 6565, "\u20f4": 6566, "\u20f5": 6567, "\u20f6": 6568, "\u20f7": 6569, "\u20f8": 6570, "\u20f9": 6571, "\u20fa": 6572, "\u20fb": 6573, "\u20fc": 6574, "\u20fd": 6575, "\u20fe": 6576, "\u20ff": 6577, "\u2100": 6578, "\u2101": 6579, "\u2102": 6580, "\u2103": 6581, "\u2104": 6582, "\u2105": 6583, "\u2106": 6584, "\u2107": 6585, "\u2108": 6586, "\u2109": 6587, "\u210a": 6588, "\u210b": 6589, "\u210c": 6590, "\u210d": 6591, "\u210e": 6592, "\u210f": 6593, "\u2110": 6594, "\u2111": 6595, "\u2112": 6596, "\u2113": 6597, "\u2114": 6598, "\u2115": 6599, "\u2116": 6600, "\u2117": 6601, "\u2118": 6602, "\u2119": 6603, "\u211a": 6604, "\u211b": 6605, "\u211c": 6606, "\u211d": 6607, "\u211e": 6608, "\u211f": 6609, "\u2120": 6610, "\u2121": 6611, "\u2122": 6612, "\u2123": 6613, "\u2124": 6614, "\u2125": 6615, "\u2126": 6616, "\u2127": 6617, "\u2128": 6618, "\u2129": 6619, "\u212a": 6620, "\u212b": 6621, "\u212c": 6622, "\u212d": 6623, "\u212e": 6624, "\u212f": 6625, "\u2130": 6626, "\u2131": 6627, "\u2132": 6628, "\u2133": 6629, "\u2134": 6630, "\u2135": 6631, "\u2136": 6632, "\u2137": 6633, "\u2138": 6634, "\u2139": 6635, "\u213a": 6636, "\u213b": 6637, "\u213c": 6638, "\u213d": 6639, "\u213e": 6640, "\u213f": 6641, "\u2140": 6642, "\u2141": 6643, "\u2142": 6644, "\u2143": 6645, "\u2144": 6646, "\u2145": 6647, "\u2146": 6648, "\u2147": 6649, "\u2148": 6650, "\u2149": 6651, "\u214a": 6652, "\u214b": 6653, "\u214c": 6654, "\u214d": 6655, "\u214e": 6656, "\u214f": 6657, "\u2150": 6658, "\u2151": 6659, "\u2152": 6660, "\u2153": 6661, "\u2154": 6662, "\u2155": 6663, "\u2156": 6664, "\u2157": 6665, "\u2158": 6666, "\u2159": 6667, "\u215a": 6668, "\u215b": 6669, "\u215c": 6670, "\u215d": 6671, "\u215e": 6672, "\u215f": 6673, "\u2160": 6674, "\u2161": 6675, "\u2162": 6676, "\u2163": 6677, "\u2164": 6678, "\u2165": 6679, "\u2166": 6680, "\u2167": 6681, "\u2168": 6682, "\u2169": 6683, "\u216a": 6684, "\u216b": 6685, "\u216c": 6686, "\u216d": 6687, "\u216e": 6688, "\u216f": 6689, "\u2170": 6690, "\u2171": 6691, "\u2172": 6692, "\u2173": 6693, "\u2174": 6694, "\u2175": 6695, "\u2176": 6696, "\u2177": 6697, "\u2178": 6698, "\u2179": 6699, "\u217a": 6700, "\u217b": 6701, "\u217c": 6702, "\u217d": 6703, "\u217e": 6704, "\u217f": 6705, "\u2180": 6706, "\u2181": 6707, "\u2182": 6708, "\u2183": 6709, "\u2184": 6710, "\u2185": 6711, "\u2186": 6712, "\u2187": 6713, "\u2188": 6714, "\u2189": 6715, "\u218a": 6716, "\u218b": 6717, "\u218c": 6718, "\u218d": 6719, "\u218e": 6720, "\u218f": 6721, "\u2190": 6722, "\u2191": 6723, "\u2192": 6724, "\u2193": 6725, "\u2194": 6726, "\u2195": 6727, "\u2196": 6728, "\u2197": 6729, "\u2198": 6730, "\u2199": 6731, "\u219a": 6732, "\u219b": 6733, "\u219c": 6734, "\u219d": 6735, "\u219e": 6736, "\u219f": 6737, "\u21a0": 6738, "\u21a1": 6739, "\u21a2": 6740, "\u21a3": 6741, "\u21a4": 6742, "\u21a5": 6743, "\u21a6": 6744, "\u21a7": 6745, "\u21a8": 6746, "\u21a9": 6747, "\u21aa": 6748, "\u21ab": 6749, "\u21ac": 6750, "\u21ad": 6751, "\u21ae": 6752, "\u21af": 6753, "\u21b0": 6754, "\u21b1": 6755, "\u21b2": 6756, "\u21b3": 6757, "\u21b4": 6758, "\u21b5": 6759, "\u21b6": 6760, "\u21b7": 6761, "\u21b8": 6762, "\u21b9": 6763, "\u21ba": 6764, "\u21bb": 6765, "\u21bc": 6766, "\u21bd": 6767, "\u21be": 6768, "\u21bf": 6769, "\u21c0": 6770, "\u21c1": 6771, "\u21c2": 6772, "\u21c3": 6773, "\u21c4": 6774, "\u21c5": 6775, "\u21c6": 6776, "\u21c7": 6777, "\u21c8": 6778, "\u21c9": 6779, "\u21ca": 6780, "\u21cb": 6781, "\u21cc": 6782, "\u21cd": 6783, "\u21ce": 6784, "\u21cf": 6785, "\u21d0": 6786, "\u21d1": 6787, "\u21d2": 6788, "\u21d3": 6789, "\u21d4": 6790, "\u21d5": 6791, "\u21d6": 6792, "\u21d7": 6793, "\u21d8": 6794, "\u21d9": 6795, "\u21da": 6796, "\u21db": 6797, "\u21dc": 6798, "\u21dd": 6799, "\u21de": 6800, "\u21df": 6801, "\u21e0": 6802, "\u21e1": 6803, "\u21e2": 6804, "\u21e3": 6805, "\u21e4": 6806, "\u21e5": 6807, "\u21e6": 6808, "\u21e7": 6809, "\u21e8": 6810, "\u21e9": 6811, "\u21ea": 6812, "\u21eb": 6813, "\u21ec": 6814, "\u21ed": 6815, "\u21ee": 6816, "\u21ef": 6817, "\u21f0": 6818, "\u21f1": 6819, "\u21f2": 6820, "\u21f3": 6821, "\u21f4": 6822, "\u21f5": 6823, "\u21f6": 6824, "\u21f7": 6825, "\u21f8": 6826, "\u21f9": 6827, "\u21fa": 6828, "\u21fb": 6829, "\u21fc": 6830, "\u21fd": 6831, "\u21fe": 6832, "\u21ff": 6833, "\u2200": 6834, "\u2201": 6835, "\u2202": 6836, "\u2203": 6837, "\u2204": 6838, "\u2205": 6839, "\u2206": 6840, "\u2207": 6841, "\u2208": 6842, "\u2209": 6843, "\u220a": 6844, "\u220b": 6845, "\u220c": 6846, "\u220d": 6847, "\u220e": 6848, "\u220f": 6849, "\u2210": 6850, "\u2211": 6851, "\u2212": 6852, "\u2213": 6853, "\u2214": 6854, "\u2215": 6855, "\u2216": 6856, "\u2217": 6857, "\u2218": 6858, "\u2219": 6859, "\u221a": 6860, "\u221b": 6861, "\u221c": 6862, "\u221d": 6863, "\u221e": 6864, "\u221f": 6865, "\u2220": 6866, "\u2221": 6867, "\u2222": 6868, "\u2223": 6869, "\u2224": 6870, "\u2225": 6871, "\u2226": 6872, "\u2227": 6873, "\u2228": 6874, "\u2229": 6875, "\u222a": 6876, "\u222b": 6877, "\u222c": 6878, "\u222d": 6879, "\u222e": 6880, "\u222f": 6881, "\u2230": 6882, "\u2231": 6883, "\u2232": 6884, "\u2233": 6885, "\u2234": 6886, "\u2235": 6887, "\u2236": 6888, "\u2237": 6889, "\u2238": 6890, "\u2239": 6891, "\u223a": 6892, "\u223b": 6893, "\u223c": 6894, "\u223d": 6895, "\u223e": 6896, "\u223f": 6897, "\u2240": 6898, "\u2241": 6899, "\u2242": 6900, "\u2243": 6901, "\u2244": 6902, "\u2245": 6903, "\u2246": 6904, "\u2247": 6905, "\u2248": 6906, "\u2249": 6907, "\u224a": 6908, "\u224b": 6909, "\u224c": 6910, "\u224d": 6911, "\u224e": 6912, "\u224f": 6913, "\u2250": 6914, "\u2251": 6915, "\u2252": 6916, "\u2253": 6917, "\u2254": 6918, "\u2255": 6919, "\u2256": 6920, "\u2257": 6921, "\u2258": 6922, "\u2259": 6923, "\u225a": 6924, "\u225b": 6925, "\u225c": 6926, "\u225d": 6927, "\u225e": 6928, "\u225f": 6929, "\u2260": 6930, "\u2261": 6931, "\u2262": 6932, "\u2263": 6933, "\u2264": 6934, "\u2265": 6935, "\u2266": 6936, "\u2267": 6937, "\u2268": 6938, "\u2269": 6939, "\u226a": 6940, "\u226b": 6941, "\u226c": 6942, "\u226d": 6943, "\u226e": 6944, "\u226f": 6945, "\u2270": 6946, "\u2271": 6947, "\u2272": 6948, "\u2273": 6949, "\u2274": 6950, "\u2275": 6951, "\u2276": 6952, "\u2277": 6953, "\u2278": 6954, "\u2279": 6955, "\u227a": 6956, "\u227b": 6957, "\u227c": 6958, "\u227d": 6959, "\u227e": 6960, "\u227f": 6961, "\u2280": 6962, "\u2281": 6963, "\u2282": 6964, "\u2283": 6965, "\u2284": 6966, "\u2285": 6967, "\u2286": 6968, "\u2287": 6969, "\u2288": 6970, "\u2289": 6971, "\u228a": 6972, "\u228b": 6973, "\u228c": 6974, "\u228d": 6975, "\u228e": 6976, "\u228f": 6977, "\u2290": 6978, "\u2291": 6979, "\u2292": 6980, "\u2293": 6981, "\u2294": 6982, "\u2295": 6983, "\u2296": 6984, "\u2297": 6985, "\u2298": 6986, "\u2299": 6987, "\u229a": 6988, "\u229b": 6989, "\u229c": 6990, "\u229d": 6991, "\u229e": 6992, "\u229f": 6993, "\u22a0": 6994, "\u22a1": 6995, "\u22a2": 6996, "\u22a3": 6997, "\u22a4": 6998, "\u22a5": 6999, "\u22a6": 7000, "\u22a7": 7001, "\u22a8": 7002, "\u22a9": 7003, "\u22aa": 7004, "\u22ab": 7005, "\u22ac": 7006, "\u22ad": 7007, "\u22ae": 7008, "\u22af": 7009, "\u22b0": 7010, "\u22b1": 7011, "\u22b2": 7012, "\u22b3": 7013, "\u22b4": 7014, "\u22b5": 7015, "\u22b6": 7016, "\u22b7": 7017, "\u22b8": 7018, "\u22b9": 7019, "\u22ba": 7020, "\u22bb": 7021, "\u22bc": 7022, "\u22bd": 7023, "\u22be": 7024, "\u22bf": 7025, "\u22c0": 7026, "\u22c1": 7027, "\u22c2": 7028, "\u22c3": 7029, "\u22c4": 7030, "\u22c5": 7031, "\u22c6": 7032, "\u22c7": 7033, "\u22c8": 7034, "\u22c9": 7035, "\u22ca": 7036, "\u22cb": 7037, "\u22cc": 7038, "\u22cd": 7039, "\u22ce": 7040, "\u22cf": 7041, "\u22d0": 7042, "\u22d1": 7043, "\u22d2": 7044, "\u22d3": 7045, "\u22d4": 7046, "\u22d5": 7047, "\u22d6": 7048, "\u22d7": 7049, "\u22d8": 7050, "\u22d9": 7051, "\u22da": 7052, "\u22db": 7053, "\u22dc": 7054, "\u22dd": 7055, "\u22de": 7056, "\u22df": 7057, "\u22e0": 7058, "\u22e1": 7059, "\u22e2": 7060, "\u22e3": 7061, "\u22e4": 7062, "\u22e5": 7063, "\u22e6": 7064, "\u22e7": 7065, "\u22e8": 7066, "\u22e9": 7067, "\u22ea": 7068, "\u22eb": 7069, "\u22ec": 7070, "\u22ed": 7071, "\u22ee": 7072, "\u22ef": 7073, "\u22f0": 7074, "\u22f1": 7075, "\u22f2": 7076, "\u22f3": 7077, "\u22f4": 7078, "\u22f5": 7079, "\u22f6": 7080, "\u22f7": 7081, "\u22f8": 7082, "\u22f9": 7083, "\u22fa": 7084, "\u22fb": 7085, "\u22fc": 7086, "\u22fd": 7087, "\u22fe": 7088, "\u22ff": 7089, "\u2300": 7090, "\u2301": 7091, "\u2302": 7092, "\u2303": 7093, "\u2304": 7094, "\u2305": 7095, "\u2306": 7096, "\u2307": 7097, "\u2308": 7098, "\u2309": 7099, "\u230a": 7100, "\u230b": 7101, "\u230c": 7102, "\u230d": 7103, "\u230e": 7104, "\u230f": 7105, "\u2310": 7106, "\u2311": 7107, "\u2312": 7108, "\u2313": 7109, "\u2314": 7110, "\u2315": 7111, "\u2316": 7112, "\u2317": 7113, "\u2318": 7114, "\u2319": 7115, "\u231a": 7116, "\u231b": 7117, "\u231c": 7118, "\u231d": 7119, "\u231e": 7120, "\u231f": 7121, "\u2320": 7122, "\u2321": 7123, "\u2322": 7124, "\u2323": 7125, "\u2324": 7126, "\u2325": 7127, "\u2326": 7128, "\u2327": 7129, "\u2328": 7130, "\u2329": 7131, "\u232a": 7132, "\u232b": 7133, "\u232c": 7134, "\u232d": 7135, "\u232e": 7136, "\u232f": 7137, "\u2330": 7138, "\u2331": 7139, "\u2332": 7140, "\u2333": 7141, "\u2334": 7142, "\u2335": 7143, "\u2336": 7144, "\u2337": 7145, "\u2338": 7146, "\u2339": 7147, "\u233a": 7148, "\u233b": 7149, "\u233c": 7150, "\u233d": 7151, "\u233e": 7152, "\u233f": 7153, "\u2340": 7154, "\u2341": 7155, "\u2342": 7156, "\u2343": 7157, "\u2344": 7158, "\u2345": 7159, "\u2346": 7160, "\u2347": 7161, "\u2348": 7162, "\u2349": 7163, "\u234a": 7164, "\u234b": 7165, "\u234c": 7166, "\u234d": 7167, "\u234e": 7168, "\u234f": 7169, "\u2350": 7170, "\u2351": 7171, "\u2352": 7172, "\u2353": 7173, "\u2354": 7174, "\u2355": 7175, "\u2356": 7176, "\u2357": 7177, "\u2358": 7178, "\u2359": 7179, "\u235a": 7180, "\u235b": 7181, "\u235c": 7182, "\u235d": 7183, "\u235e": 7184, "\u235f": 7185, "\u2360": 7186, "\u2361": 7187, "\u2362": 7188, "\u2363": 7189, "\u2364": 7190, "\u2365": 7191, "\u2366": 7192, "\u2367": 7193, "\u2368": 7194, "\u2369": 7195, "\u236a": 7196, "\u236b": 7197, "\u236c": 7198, "\u236d": 7199, "\u236e": 7200, "\u236f": 7201, "\u2370": 7202, "\u2371": 7203, "\u2372": 7204, "\u2373": 7205, "\u2374": 7206, "\u2375": 7207, "\u2376": 7208, "\u2377": 7209, "\u2378": 7210, "\u2379": 7211, "\u237a": 7212, "\u237b": 7213, "\u237c": 7214, "\u237d": 7215, "\u237e": 7216, "\u237f": 7217, "\u2380": 7218, "\u2381": 7219, "\u2382": 7220, "\u2383": 7221, "\u2384": 7222, "\u2385": 7223, "\u2386": 7224, "\u2387": 7225, "\u2388": 7226, "\u2389": 7227, "\u238a": 7228, "\u238b": 7229, "\u238c": 7230, "\u238d": 7231, "\u238e": 7232, "\u238f": 7233, "\u2390": 7234, "\u2391": 7235, "\u2392": 7236, "\u2393": 7237, "\u2394": 7238, "\u2395": 7239, "\u2396": 7240, "\u2397": 7241, "\u2398": 7242, "\u2399": 7243, "\u239a": 7244, "\u239b": 7245, "\u239c": 7246, "\u239d": 7247, "\u239e": 7248, "\u239f": 7249, "\u23a0": 7250, "\u23a1": 7251, "\u23a2": 7252, "\u23a3": 7253, "\u23a4": 7254, "\u23a5": 7255, "\u23a6": 7256, "\u23a7": 7257, "\u23a8": 7258, "\u23a9": 7259, "\u23aa": 7260, "\u23ab": 7261, "\u23ac": 7262, "\u23ad": 7263, "\u23ae": 7264, "\u23af": 7265, "\u23b0": 7266, "\u23b1": 7267, "\u23b2": 7268, "\u23b3": 7269, "\u23b4": 7270, "\u23b5": 7271, "\u23b6": 7272, "\u23b7": 7273, "\u23b8": 7274, "\u23b9": 7275, "\u23ba": 7276, "\u23bb": 7277, "\u23bc": 7278, "\u23bd": 7279, "\u23be": 7280, "\u23bf": 7281, "\u23c0": 7282, "\u23c1": 7283, "\u23c2": 7284, "\u23c3": 7285, "\u23c4": 7286, "\u23c5": 7287, "\u23c6": 7288, "\u23c7": 7289, "\u23c8": 7290, "\u23c9": 7291, "\u23ca": 7292, "\u23cb": 7293, "\u23cc": 7294, "\u23cd": 7295, "\u23ce": 7296, "\u23cf": 7297, "\u23d0": 7298, "\u23d1": 7299, "\u23d2": 7300, "\u23d3": 7301, "\u23d4": 7302, "\u23d5": 7303, "\u23d6": 7304, "\u23d7": 7305, "\u23d8": 7306, "\u23d9": 7307, "\u23da": 7308, "\u23db": 7309, "\u23dc": 7310, "\u23dd": 7311, "\u23de": 7312, "\u23df": 7313, "\u23e0": 7314, "\u23e1": 7315, "\u23e2": 7316, "\u23e3": 7317, "\u23e4": 7318, "\u23e5": 7319, "\u23e6": 7320, "\u23e7": 7321, "\u23e8": 7322, "\u23e9": 7323, "\u23ea": 7324, "\u23eb": 7325, "\u23ec": 7326, "\u23ed": 7327, "\u23ee": 7328, "\u23ef": 7329, "\u23f0": 7330, "\u23f1": 7331, "\u23f2": 7332, "\u23f3": 7333, "\u23f4": 7334, "\u23f5": 7335, "\u23f6": 7336, "\u23f7": 7337, "\u23f8": 7338, "\u23f9": 7339, "\u23fa": 7340, "\u23fb": 7341, "\u23fc": 7342, "\u23fd": 7343, "\u23fe": 7344, "\u23ff": 7345, "\u2400": 7346, "\u2401": 7347, "\u2402": 7348, "\u2403": 7349, "\u2404": 7350, "\u2405": 7351, "\u2406": 7352, "\u2407": 7353, "\u2408": 7354, "\u2409": 7355, "\u240a": 7356, "\u240b": 7357, "\u240c": 7358, "\u240d": 7359, "\u240e": 7360, "\u240f": 7361, "\u2410": 7362, "\u2411": 7363, "\u2412": 7364, "\u2413": 7365, "\u2414": 7366, "\u2415": 7367, "\u2416": 7368, "\u2417": 7369, "\u2418": 7370, "\u2419": 7371, "\u241a": 7372, "\u241b": 7373, "\u241c": 7374, "\u241d": 7375, "\u241e": 7376, "\u241f": 7377, "\u2420": 7378, "\u2421": 7379, "\u2422": 7380, "\u2423": 7381, "\u2424": 7382, "\u2425": 7383, "\u2426": 7384, "\u2427": 7385, "\u2428": 7386, "\u2429": 7387, "\u242a": 7388, "\u242b": 7389, "\u242c": 7390, "\u242d": 7391, "\u242e": 7392, "\u242f": 7393, "\u2430": 7394, "\u2431": 7395, "\u2432": 7396, "\u2433": 7397, "\u2434": 7398, "\u2435": 7399, "\u2436": 7400, "\u2437": 7401, "\u2438": 7402, "\u2439": 7403, "\u243a": 7404, "\u243b": 7405, "\u243c": 7406, "\u243d": 7407, "\u243e": 7408, "\u243f": 7409, "\u2440": 7410, "\u2441": 7411, "\u2442": 7412, "\u2443": 7413, "\u2444": 7414, "\u2445": 7415, "\u2446": 7416, "\u2447": 7417, "\u2448": 7418, "\u2449": 7419, "\u244a": 7420, "\u244b": 7421, "\u244c": 7422, "\u244d": 7423, "\u244e": 7424, "\u244f": 7425, "\u2450": 7426, "\u2451": 7427, "\u2452": 7428, "\u2453": 7429, "\u2454": 7430, "\u2455": 7431, "\u2456": 7432, "\u2457": 7433, "\u2458": 7434, "\u2459": 7435, "\u245a": 7436, "\u245b": 7437, "\u245c": 7438, "\u245d": 7439, "\u245e": 7440, "\u245f": 7441, "\u2460": 7442, "\u2461": 7443, "\u2462": 7444, "\u2463": 7445, "\u2464": 7446, "\u2465": 7447, "\u2466": 7448, "\u2467": 7449, "\u2468": 7450, "\u2469": 7451, "\u246a": 7452, "\u246b": 7453, "\u246c": 7454, "\u246d": 7455, "\u246e": 7456, "\u246f": 7457, "\u2470": 7458, "\u2471": 7459, "\u2472": 7460, "\u2473": 7461, "\u2474": 7462, "\u2475": 7463, "\u2476": 7464, "\u2477": 7465, "\u2478": 7466, "\u2479": 7467, "\u247a": 7468, "\u247b": 7469, "\u247c": 7470, "\u247d": 7471, "\u247e": 7472, "\u247f": 7473, "\u2480": 7474, "\u2481": 7475, "\u2482": 7476, "\u2483": 7477, "\u2484": 7478, "\u2485": 7479, "\u2486": 7480, "\u2487": 7481, "\u2488": 7482, "\u2489": 7483, "\u248a": 7484, "\u248b": 7485, "\u248c": 7486, "\u248d": 7487, "\u248e": 7488, "\u248f": 7489, "\u2490": 7490, "\u2491": 7491, "\u2492": 7492, "\u2493": 7493, "\u2494": 7494, "\u2495": 7495, "\u2496": 7496, "\u2497": 7497, "\u2498": 7498, "\u2499": 7499, "\u249a": 7500, "\u249b": 7501, "\u249c": 7502, "\u249d": 7503, "\u249e": 7504, "\u249f": 7505, "\u24a0": 7506, "\u24a1": 7507, "\u24a2": 7508, "\u24a3": 7509, "\u24a4": 7510, "\u24a5": 7511, "\u24a6": 7512, "\u24a7": 7513, "\u24a8": 7514, "\u24a9": 7515, "\u24aa": 7516, "\u24ab": 7517, "\u24ac": 7518, "\u24ad": 7519, "\u24ae": 7520, "\u24af": 7521, "\u24b0": 7522, "\u24b1": 7523, "\u24b2": 7524, "\u24b3": 7525, "\u24b4": 7526, "\u24b5": 7527, "\u24b6": 7528, "\u24b7": 7529, "\u24b8": 7530, "\u24b9": 7531, "\u24ba": 7532, "\u24bb": 7533, "\u24bc": 7534, "\u24bd": 7535, "\u24be": 7536, "\u24bf": 7537, "\u24c0": 7538, "\u24c1": 7539, "\u24c2": 7540, "\u24c3": 7541, "\u24c4": 7542, "\u24c5": 7543, "\u24c6": 7544, "\u24c7": 7545, "\u24c8": 7546, "\u24c9": 7547, "\u24ca": 7548, "\u24cb": 7549, "\u24cc": 7550, "\u24cd": 7551, "\u24ce": 7552, "\u24cf": 7553, "\u24d0": 7554, "\u24d1": 7555, "\u24d2": 7556, "\u24d3": 7557, "\u24d4": 7558, "\u24d5": 7559, "\u24d6": 7560, "\u24d7": 7561, "\u24d8": 7562, "\u24d9": 7563, "\u24da": 7564, "\u24db": 7565, "\u24dc": 7566, "\u24dd": 7567, "\u24de": 7568, "\u24df": 7569, "\u24e0": 7570, "\u24e1": 7571, "\u24e2": 7572, "\u24e3": 7573, "\u24e4": 7574, "\u24e5": 7575, "\u24e6": 7576, "\u24e7": 7577, "\u24e8": 7578, "\u24e9": 7579, "\u24ea": 7580, "\u24eb": 7581, "\u24ec": 7582, "\u24ed": 7583, "\u24ee": 7584, "\u24ef": 7585, "\u24f0": 7586, "\u24f1": 7587, "\u24f2": 7588, "\u24f3": 7589, "\u24f4": 7590, "\u24f5": 7591, "\u24f6": 7592, "\u24f7": 7593, "\u24f8": 7594, "\u24f9": 7595, "\u24fa": 7596, "\u24fb": 7597, "\u24fc": 7598, "\u24fd": 7599, "\u24fe": 7600, "\u24ff": 7601, "\u2500": 7602, "\u2501": 7603, "\u2502": 7604, "\u2503": 7605, "\u2504": 7606, "\u2505": 7607, "\u2506": 7608, "\u2507": 7609, "\u2508": 7610, "\u2509": 7611, "\u250a": 7612, "\u250b": 7613, "\u250c": 7614, "\u250d": 7615, "\u250e": 7616, "\u250f": 7617, "\u2510": 7618, "\u2511": 7619, "\u2512": 7620, "\u2513": 7621, "\u2514": 7622, "\u2515": 7623, "\u2516": 7624, "\u2517": 7625, "\u2518": 7626, "\u2519": 7627, "\u251a": 7628, "\u251b": 7629, "\u251c": 7630, "\u251d": 7631, "\u251e": 7632, "\u251f": 7633, "\u2520": 7634, "\u2521": 7635, "\u2522": 7636, "\u2523": 7637, "\u2524": 7638, "\u2525": 7639, "\u2526": 7640, "\u2527": 7641, "\u2528": 7642, "\u2529": 7643, "\u252a": 7644, "\u252b": 7645, "\u252c": 7646, "\u252d": 7647, "\u252e": 7648, "\u252f": 7649, "\u2530": 7650, "\u2531": 7651, "\u2532": 7652, "\u2533": 7653, "\u2534": 7654, "\u2535": 7655, "\u2536": 7656, "\u2537": 7657, "\u2538": 7658, "\u2539": 7659, "\u253a": 7660, "\u253b": 7661, "\u253c": 7662, "\u253d": 7663, "\u253e": 7664, "\u253f": 7665, "\u2540": 7666, "\u2541": 7667, "\u2542": 7668, "\u2543": 7669, "\u2544": 7670, "\u2545": 7671, "\u2546": 7672, "\u2547": 7673, "\u2548": 7674, "\u2549": 7675, "\u254a": 7676, "\u254b": 7677, "\u254c": 7678, "\u254d": 7679, "\u254e": 7680, "\u254f": 7681, "\u2550": 7682, "\u2551": 7683, "\u2552": 7684, "\u2553": 7685, "\u2554": 7686, "\u2555": 7687, "\u2556": 7688, "\u2557": 7689, "\u2558": 7690, "\u2559": 7691, "\u255a": 7692, "\u255b": 7693, "\u255c": 7694, "\u255d": 7695, "\u255e": 7696, "\u255f": 7697, "\u2560": 7698, "\u2561": 7699, "\u2562": 7700, "\u2563": 7701, "\u2564": 7702, "\u2565": 7703, "\u2566": 7704, "\u2567": 7705, "\u2568": 7706, "\u2569": 7707, "\u256a": 7708, "\u256b": 7709, "\u256c": 7710, "\u256d": 7711, "\u256e": 7712, "\u256f": 7713, "\u2570": 7714, "\u2571": 7715, "\u2572": 7716, "\u2573": 7717, "\u2574": 7718, "\u2575": 7719, "\u2576": 7720, "\u2577": 7721, "\u2578": 7722, "\u2579": 7723, "\u257a": 7724, "\u257b": 7725, "\u257c": 7726, "\u257d": 7727, "\u257e": 7728, "\u257f": 7729, "\u2580": 7730, "\u2581": 7731, "\u2582": 7732, "\u2583": 7733, "\u2584": 7734, "\u2585": 7735, "\u2586": 7736, "\u2587": 7737, "\u2588": 7738, "\u2589": 7739, "\u258a": 7740, "\u258b": 7741, "\u258c": 7742, "\u258d": 7743, "\u258e": 7744, "\u258f": 7745, "\u2590": 7746, "\u2591": 7747, "\u2592": 7748, "\u2593": 7749, "\u2594": 7750, "\u2595": 7751, "\u2596": 7752, "\u2597": 7753, "\u2598": 7754, "\u2599": 7755, "\u259a": 7756, "\u259b": 7757, "\u259c": 7758, "\u259d": 7759, "\u259e": 7760, "\u259f": 7761, "\u25a0": 7762, "\u25a1": 7763, "\u25a2": 7764, "\u25a3": 7765, "\u25a4": 7766, "\u25a5": 7767, "\u25a6": 7768, "\u25a7": 7769, "\u25a8": 7770, "\u25a9": 7771, "\u25aa": 7772, "\u25ab": 7773, "\u25ac": 7774, "\u25ad": 7775, "\u25ae": 7776, "\u25af": 7777, "\u25b0": 7778, "\u25b1": 7779, "\u25b2": 7780, "\u25b3": 7781, "\u25b4": 7782, "\u25b5": 7783, "\u25b6": 7784, "\u25b7": 7785, "\u25b8": 7786, "\u25b9": 7787, "\u25ba": 7788, "\u25bb": 7789, "\u25bc": 7790, "\u25bd": 7791, "\u25be": 7792, "\u25bf": 7793, "\u25c0": 7794, "\u25c1": 7795, "\u25c2": 7796, "\u25c3": 7797, "\u25c4": 7798, "\u25c5": 7799, "\u25c6": 7800, "\u25c7": 7801, "\u25c8": 7802, "\u25c9": 7803, "\u25ca": 7804, "\u25cb": 7805, "\u25cc": 7806, "\u25cd": 7807, "\u25ce": 7808, "\u25cf": 7809, "\u25d0": 7810, "\u25d1": 7811, "\u25d2": 7812, "\u25d3": 7813, "\u25d4": 7814, "\u25d5": 7815, "\u25d6": 7816, "\u25d7": 7817, "\u25d8": 7818, "\u25d9": 7819, "\u25da": 7820, "\u25db": 7821, "\u25dc": 7822, "\u25dd": 7823, "\u25de": 7824, "\u25df": 7825, "\u25e0": 7826, "\u25e1": 7827, "\u25e2": 7828, "\u25e3": 7829, "\u25e4": 7830, "\u25e5": 7831, "\u25e6": 7832, "\u25e7": 7833, "\u25e8": 7834, "\u25e9": 7835, "\u25ea": 7836, "\u25eb": 7837, "\u25ec": 7838, "\u25ed": 7839, "\u25ee": 7840, "\u25ef": 7841, "\u25f0": 7842, "\u25f1": 7843, "\u25f2": 7844, "\u25f3": 7845, "\u25f4": 7846, "\u25f5": 7847, "\u25f6": 7848, "\u25f7": 7849, "\u25f8": 7850, "\u25f9": 7851, "\u25fa": 7852, "\u25fb": 7853, "\u25fc": 7854, "\u25fd": 7855, "\u25fe": 7856, "\u25ff": 7857, "\u2600": 7858, "\u2601": 7859, "\u2602": 7860, "\u2603": 7861, "\u2604": 7862, "\u2605": 7863, "\u2606": 7864, "\u2607": 7865, "\u2608": 7866, "\u2609": 7867, "\u260a": 7868, "\u260b": 7869, "\u260c": 7870, "\u260d": 7871, "\u260e": 7872, "\u260f": 7873, "\u2610": 7874, "\u2611": 7875, "\u2612": 7876, "\u2613": 7877, "\u2614": 7878, "\u2615": 7879, "\u2616": 7880, "\u2617": 7881, "\u2618": 7882, "\u2619": 7883, "\u261a": 7884, "\u261b": 7885, "\u261c": 7886, "\u261d": 7887, "\u261e": 7888, "\u261f": 7889, "\u2620": 7890, "\u2621": 7891, "\u2622": 7892, "\u2623": 7893, "\u2624": 7894, "\u2625": 7895, "\u2626": 7896, "\u2627": 7897, "\u2628": 7898, "\u2629": 7899, "\u262a": 7900, "\u262b": 7901, "\u262c": 7902, "\u262d": 7903, "\u262e": 7904, "\u262f": 7905, "\u2630": 7906, "\u2631": 7907, "\u2632": 7908, "\u2633": 7909, "\u2634": 7910, "\u2635": 7911, "\u2636": 7912, "\u2637": 7913, "\u2638": 7914, "\u2639": 7915, "\u263a": 7916, "\u263b": 7917, "\u263c": 7918, "\u263d": 7919, "\u263e": 7920, "\u263f": 7921, "\u2640": 7922, "\u2641": 7923, "\u2642": 7924, "\u2643": 7925, "\u2644": 7926, "\u2645": 7927, "\u2646": 7928, "\u2647": 7929, "\u2648": 7930, "\u2649": 7931, "\u264a": 7932, "\u264b": 7933, "\u264c": 7934, "\u264d": 7935, "\u264e": 7936, "\u264f": 7937, "\u2650": 7938, "\u2651": 7939, "\u2652": 7940, "\u2653": 7941, "\u2654": 7942, "\u2655": 7943, "\u2656": 7944, "\u2657": 7945, "\u2658": 7946, "\u2659": 7947, "\u265a": 7948, "\u265b": 7949, "\u265c": 7950, "\u265d": 7951, "\u265e": 7952, "\u265f": 7953, "\u2660": 7954, "\u2661": 7955, "\u2662": 7956, "\u2663": 7957, "\u2664": 7958, "\u2665": 7959, "\u2666": 7960, "\u2667": 7961, "\u2668": 7962, "\u2669": 7963, "\u266a": 7964, "\u266b": 7965, "\u266c": 7966, "\u266d": 7967, "\u266e": 7968, "\u266f": 7969, "\u2670": 7970, "\u2671": 7971, "\u2672": 7972, "\u2673": 7973, "\u2674": 7974, "\u2675": 7975, "\u2676": 7976, "\u2677": 7977, "\u2678": 7978, "\u2679": 7979, "\u267a": 7980, "\u267b": 7981, "\u267c": 7982, "\u267d": 7983, "\u267e": 7984, "\u267f": 7985, "\u2680": 7986, "\u2681": 7987, "\u2682": 7988, "\u2683": 7989, "\u2684": 7990, "\u2685": 7991, "\u2686": 7992, "\u2687": 7993, "\u2688": 7994, "\u2689": 7995, "\u268a": 7996, "\u268b": 7997, "\u268c": 7998, "\u268d": 7999, "\u268e": 8000, "\u268f": 8001, "\u2690": 8002, "\u2691": 8003, "\u2692": 8004, "\u2693": 8005, "\u2694": 8006, "\u2695": 8007, "\u2696": 8008, "\u2697": 8009, "\u2698": 8010, "\u2699": 8011, "\u269a": 8012, "\u269b": 8013, "\u269c": 8014, "\u269d": 8015, "\u269e": 8016, "\u269f": 8017, "\u26a0": 8018, "\u26a1": 8019, "\u26a2": 8020, "\u26a3": 8021, "\u26a4": 8022, "\u26a5": 8023, "\u26a6": 8024, "\u26a7": 8025, "\u26a8": 8026, "\u26a9": 8027, "\u26aa": 8028, "\u26ab": 8029, "\u26ac": 8030, "\u26ad": 8031, "\u26ae": 8032, "\u26af": 8033, "\u26b0": 8034, "\u26b1": 8035, "\u26b2": 8036, "\u26b3": 8037, "\u26b4": 8038, "\u26b5": 8039, "\u26b6": 8040, "\u26b7": 8041, "\u26b8": 8042, "\u26b9": 8043, "\u26ba": 8044, "\u26bb": 8045, "\u26bc": 8046, "\u26bd": 8047, "\u26be": 8048, "\u26bf": 8049, "\u26c0": 8050, "\u26c1": 8051, "\u26c2": 8052, "\u26c3": 8053, "\u26c4": 8054, "\u26c5": 8055, "\u26c6": 8056, "\u26c7": 8057, "\u26c8": 8058, "\u26c9": 8059, "\u26ca": 8060, "\u26cb": 8061, "\u26cc": 8062, "\u26cd": 8063, "\u26ce": 8064, "\u26cf": 8065, "\u26d0": 8066, "\u26d1": 8067, "\u26d2": 8068, "\u26d3": 8069, "\u26d4": 8070, "\u26d5": 8071, "\u26d6": 8072, "\u26d7": 8073, "\u26d8": 8074, "\u26d9": 8075, "\u26da": 8076, "\u26db": 8077, "\u26dc": 8078, "\u26dd": 8079, "\u26de": 8080, "\u26df": 8081, "\u26e0": 8082, "\u26e1": 8083, "\u26e2": 8084, "\u26e3": 8085, "\u26e4": 8086, "\u26e5": 8087, "\u26e6": 8088, "\u26e7": 8089, "\u26e8": 8090, "\u26e9": 8091, "\u26ea": 8092, "\u26eb": 8093, "\u26ec": 8094, "\u26ed": 8095, "\u26ee": 8096, "\u26ef": 8097, "\u26f0": 8098, "\u26f1": 8099, "\u26f2": 8100, "\u26f3": 8101, "\u26f4": 8102, "\u26f5": 8103, "\u26f6": 8104, "\u26f7": 8105, "\u26f8": 8106, "\u26f9": 8107, "\u26fa": 8108, "\u26fb": 8109, "\u26fc": 8110, "\u26fd": 8111, "\u26fe": 8112, "\u26ff": 8113, "\u2700": 8114, "\u2701": 8115, "\u2702": 8116, "\u2703": 8117, "\u2704": 8118, "\u2705": 8119, "\u2706": 8120, "\u2707": 8121, "\u2708": 8122, "\u2709": 8123, "\u270a": 8124, "\u270b": 8125, "\u270c": 8126, "\u270d": 8127, "\u270e": 8128, "\u270f": 8129, "\u2710": 8130, "\u2711": 8131, "\u2712": 8132, "\u2713": 8133, "\u2714": 8134, "\u2715": 8135, "\u2716": 8136, "\u2717": 8137, "\u2718": 8138, "\u2719": 8139, "\u271a": 8140, "\u271b": 8141, "\u271c": 8142, "\u271d": 8143, "\u271e": 8144, "\u271f": 8145, "\u2720": 8146, "\u2721": 8147, "\u2722": 8148, "\u2723": 8149, "\u2724": 8150, "\u2725": 8151, "\u2726": 8152, "\u2727": 8153, "\u2728": 8154, "\u2729": 8155, "\u272a": 8156, "\u272b": 8157, "\u272c": 8158, "\u272d": 8159, "\u272e": 8160, "\u272f": 8161, "\u2730": 8162, "\u2731": 8163, "\u2732": 8164, "\u2733": 8165, "\u2734": 8166, "\u2735": 8167, "\u2736": 8168, "\u2737": 8169, "\u2738": 8170, "\u2739": 8171, "\u273a": 8172, "\u273b": 8173, "\u273c": 8174, "\u273d": 8175, "\u273e": 8176, "\u273f": 8177, "\u2740": 8178, "\u2741": 8179, "\u2742": 8180, "\u2743": 8181, "\u2744": 8182, "\u2745": 8183, "\u2746": 8184, "\u2747": 8185, "\u2748": 8186, "\u2749": 8187, "\u274a": 8188, "\u274b": 8189, "\u274c": 8190, "\u274d": 8191, "\u274e": 8192, "\u274f": 8193, "\u2750": 8194, "\u2751": 8195, "\u2752": 8196, "\u2753": 8197, "\u2754": 8198, "\u2755": 8199, "\u2756": 8200, "\u2757": 8201, "\u2758": 8202, "\u2759": 8203, "\u275a": 8204, "\u275b": 8205, "\u275c": 8206, "\u275d": 8207, "\u275e": 8208, "\u275f": 8209, "\u2760": 8210, "\u2761": 8211, "\u2762": 8212, "\u2763": 8213, "\u2764": 8214, "\u2765": 8215, "\u2766": 8216, "\u2767": 8217, "\u2768": 8218, "\u2769": 8219, "\u276a": 8220, "\u276b": 8221, "\u276c": 8222, "\u276d": 8223, "\u276e": 8224, "\u276f": 8225, "\u2770": 8226, "\u2771": 8227, "\u2772": 8228, "\u2773": 8229, "\u2774": 8230, "\u2775": 8231, "\u2776": 8232, "\u2777": 8233, "\u2778": 8234, "\u2779": 8235, "\u277a": 8236, "\u277b": 8237, "\u277c": 8238, "\u277d": 8239, "\u277e": 8240, "\u277f": 8241, "\u2780": 8242, "\u2781": 8243, "\u2782": 8244, "\u2783": 8245, "\u2784": 8246, "\u2785": 8247, "\u2786": 8248, "\u2787": 8249, "\u2788": 8250, "\u2789": 8251, "\u278a": 8252, "\u278b": 8253, "\u278c": 8254, "\u278d": 8255, "\u278e": 8256, "\u278f": 8257, "\u2790": 8258, "\u2791": 8259, "\u2792": 8260, "\u2793": 8261, "\u2794": 8262, "\u2795": 8263, "\u2796": 8264, "\u2797": 8265, "\u2798": 8266, "\u2799": 8267, "\u279a": 8268, "\u279b": 8269, "\u279c": 8270, "\u279d": 8271, "\u279e": 8272, "\u279f": 8273, "\u27a0": 8274, "\u27a1": 8275, "\u27a2": 8276, "\u27a3": 8277, "\u27a4": 8278, "\u27a5": 8279, "\u27a6": 8280, "\u27a7": 8281, "\u27a8": 8282, "\u27a9": 8283, "\u27aa": 8284, "\u27ab": 8285, "\u27ac": 8286, "\u27ad": 8287, "\u27ae": 8288, "\u27af": 8289, "\u27b0": 8290, "\u27b1": 8291, "\u27b2": 8292, "\u27b3": 8293, "\u27b4": 8294, "\u27b5": 8295, "\u27b6": 8296, "\u27b7": 8297, "\u27b8": 8298, "\u27b9": 8299, "\u27ba": 8300, "\u27bb": 8301, "\u27bc": 8302, "\u27bd": 8303, "\u27be": 8304, "\u27bf": 8305, "\u27c0": 8306, "\u27c1": 8307, "\u27c2": 8308, "\u27c3": 8309, "\u27c4": 8310, "\u27c5": 8311, "\u27c6": 8312, "\u27c7": 8313, "\u27c8": 8314, "\u27c9": 8315, "\u27ca": 8316, "\u27cb": 8317, "\u27cc": 8318, "\u27cd": 8319, "\u27ce": 8320, "\u27cf": 8321, "\u27d0": 8322, "\u27d1": 8323, "\u27d2": 8324, "\u27d3": 8325, "\u27d4": 8326, "\u27d5": 8327, "\u27d6": 8328, "\u27d7": 8329, "\u27d8": 8330, "\u27d9": 8331, "\u27da": 8332, "\u27db": 8333, "\u27dc": 8334, "\u27dd": 8335, "\u27de": 8336, "\u27df": 8337, "\u27e0": 8338, "\u27e1": 8339, "\u27e2": 8340, "\u27e3": 8341, "\u27e4": 8342, "\u27e5": 8343, "\u27e6": 8344, "\u27e7": 8345, "\u27e8": 8346, "\u27e9": 8347, "\u27ea": 8348, "\u27eb": 8349, "\u27ec": 8350, "\u27ed": 8351, "\u27ee": 8352, "\u27ef": 8353, "\u27f0": 8354, "\u27f1": 8355, "\u27f2": 8356, "\u27f3": 8357, "\u27f4": 8358, "\u27f5": 8359, "\u27f6": 8360, "\u27f7": 8361, "\u27f8": 8362, "\u27f9": 8363, "\u27fa": 8364, "\u27fb": 8365, "\u27fc": 8366, "\u27fd": 8367, "\u27fe": 8368, "\u27ff": 8369, "\u2800": 8370, "\u2801": 8371, "\u2802": 8372, "\u2803": 8373, "\u2804": 8374, "\u2805": 8375, "\u2806": 8376, "\u2807": 8377, "\u2808": 8378, "\u2809": 8379, "\u280a": 8380, "\u280b": 8381, "\u280c": 8382, "\u280d": 8383, "\u280e": 8384, "\u280f": 8385, "\u2810": 8386, "\u2811": 8387, "\u2812": 8388, "\u2813": 8389, "\u2814": 8390, "\u2815": 8391, "\u2816": 8392, "\u2817": 8393, "\u2818": 8394, "\u2819": 8395, "\u281a": 8396, "\u281b": 8397, "\u281c": 8398, "\u281d": 8399, "\u281e": 8400, "\u281f": 8401, "\u2820": 8402, "\u2821": 8403, "\u2822": 8404, "\u2823": 8405, "\u2824": 8406, "\u2825": 8407, "\u2826": 8408, "\u2827": 8409, "\u2828": 8410, "\u2829": 8411, "\u282a": 8412, "\u282b": 8413, "\u282c": 8414, "\u282d": 8415, "\u282e": 8416, "\u282f": 8417, "\u2830": 8418, "\u2831": 8419, "\u2832": 8420, "\u2833": 8421, "\u2834": 8422, "\u2835": 8423, "\u2836": 8424, "\u2837": 8425, "\u2838": 8426, "\u2839": 8427, "\u283a": 8428, "\u283b": 8429, "\u283c": 8430, "\u283d": 8431, "\u283e": 8432, "\u283f": 8433, "\u2840": 8434, "\u2841": 8435, "\u2842": 8436, "\u2843": 8437, "\u2844": 8438, "\u2845": 8439, "\u2846": 8440, "\u2847": 8441, "\u2848": 8442, "\u2849": 8443, "\u284a": 8444, "\u284b": 8445, "\u284c": 8446, "\u284d": 8447, "\u284e": 8448, "\u284f": 8449, "\u2850": 8450, "\u2851": 8451, "\u2852": 8452, "\u2853": 8453, "\u2854": 8454, "\u2855": 8455, "\u2856": 8456, "\u2857": 8457, "\u2858": 8458, "\u2859": 8459, "\u285a": 8460, "\u285b": 8461, "\u285c": 8462, "\u285d": 8463, "\u285e": 8464, "\u285f": 8465, "\u2860": 8466, "\u2861": 8467, "\u2862": 8468, "\u2863": 8469, "\u2864": 8470, "\u2865": 8471, "\u2866": 8472, "\u2867": 8473, "\u2868": 8474, "\u2869": 8475, "\u286a": 8476, "\u286b": 8477, "\u286c": 8478, "\u286d": 8479, "\u286e": 8480, "\u286f": 8481, "\u2870": 8482, "\u2871": 8483, "\u2872": 8484, "\u2873": 8485, "\u2874": 8486, "\u2875": 8487, "\u2876": 8488, "\u2877": 8489, "\u2878": 8490, "\u2879": 8491, "\u287a": 8492, "\u287b": 8493, "\u287c": 8494, "\u287d": 8495, "\u287e": 8496, "\u287f": 8497, "\u2880": 8498, "\u2881": 8499, "\u2882": 8500, "\u2883": 8501, "\u2884": 8502, "\u2885": 8503, "\u2886": 8504, "\u2887": 8505, "\u2888": 8506, "\u2889": 8507, "\u288a": 8508, "\u288b": 8509, "\u288c": 8510, "\u288d": 8511, "\u288e": 8512, "\u288f": 8513, "\u2890": 8514, "\u2891": 8515, "\u2892": 8516, "\u2893": 8517, "\u2894": 8518, "\u2895": 8519, "\u2896": 8520, "\u2897": 8521, "\u2898": 8522, "\u2899": 8523, "\u289a": 8524, "\u289b": 8525, "\u289c": 8526, "\u289d": 8527, "\u289e": 8528, "\u289f": 8529, "\u28a0": 8530, "\u28a1": 8531, "\u28a2": 8532, "\u28a3": 8533, "\u28a4": 8534, "\u28a5": 8535, "\u28a6": 8536, "\u28a7": 8537, "\u28a8": 8538, "\u28a9": 8539, "\u28aa": 8540, "\u28ab": 8541, "\u28ac": 8542, "\u28ad": 8543, "\u28ae": 8544, "\u28af": 8545, "\u28b0": 8546, "\u28b1": 8547, "\u28b2": 8548, "\u28b3": 8549, "\u28b4": 8550, "\u28b5": 8551, "\u28b6": 8552, "\u28b7": 8553, "\u28b8": 8554, "\u28b9": 8555, "\u28ba": 8556, "\u28bb": 8557, "\u28bc": 8558, "\u28bd": 8559, "\u28be": 8560, "\u28bf": 8561, "\u28c0": 8562, "\u28c1": 8563, "\u28c2": 8564, "\u28c3": 8565, "\u28c4": 8566, "\u28c5": 8567, "\u28c6": 8568, "\u28c7": 8569, "\u28c8": 8570, "\u28c9": 8571, "\u28ca": 8572, "\u28cb": 8573, "\u28cc": 8574, "\u28cd": 8575, "\u28ce": 8576, "\u28cf": 8577, "\u28d0": 8578, "\u28d1": 8579, "\u28d2": 8580, "\u28d3": 8581, "\u28d4": 8582, "\u28d5": 8583, "\u28d6": 8584, "\u28d7": 8585, "\u28d8": 8586, "\u28d9": 8587, "\u28da": 8588, "\u28db": 8589, "\u28dc": 8590, "\u28dd": 8591, "\u28de": 8592, "\u28df": 8593, "\u28e0": 8594, "\u28e1": 8595, "\u28e2": 8596, "\u28e3": 8597, "\u28e4": 8598, "\u28e5": 8599, "\u28e6": 8600, "\u28e7": 8601, "\u28e8": 8602, "\u28e9": 8603, "\u28ea": 8604, "\u28eb": 8605, "\u28ec": 8606, "\u28ed": 8607, "\u28ee": 8608, "\u28ef": 8609, "\u28f0": 8610, "\u28f1": 8611, "\u28f2": 8612, "\u28f3": 8613, "\u28f4": 8614, "\u28f5": 8615, "\u28f6": 8616, "\u28f7": 8617, "\u28f8": 8618, "\u28f9": 8619, "\u28fa": 8620, "\u28fb": 8621, "\u28fc": 8622, "\u28fd": 8623, "\u28fe": 8624, "\u28ff": 8625, "\u2900": 8626, "\u2901": 8627, "\u2902": 8628, "\u2903": 8629, "\u2904": 8630, "\u2905": 8631, "\u2906": 8632, "\u2907": 8633, "\u2908": 8634, "\u2909": 8635, "\u290a": 8636, "\u290b": 8637, "\u290c": 8638, "\u290d": 8639, "\u290e": 8640, "\u290f": 8641, "\u2910": 8642, "\u2911": 8643, "\u2912": 8644, "\u2913": 8645, "\u2914": 8646, "\u2915": 8647, "\u2916": 8648, "\u2917": 8649, "\u2918": 8650, "\u2919": 8651, "\u291a": 8652, "\u291b": 8653, "\u291c": 8654, "\u291d": 8655, "\u291e": 8656, "\u291f": 8657, "\u2920": 8658, "\u2921": 8659, "\u2922": 8660, "\u2923": 8661, "\u2924": 8662, "\u2925": 8663, "\u2926": 8664, "\u2927": 8665, "\u2928": 8666, "\u2929": 8667, "\u292a": 8668, "\u292b": 8669, "\u292c": 8670, "\u292d": 8671, "\u292e": 8672, "\u292f": 8673, "\u2930": 8674, "\u2931": 8675, "\u2932": 8676, "\u2933": 8677, "\u2934": 8678, "\u2935": 8679, "\u2936": 8680, "\u2937": 8681, "\u2938": 8682, "\u2939": 8683, "\u293a": 8684, "\u293b": 8685, "\u293c": 8686, "\u293d": 8687, "\u293e": 8688, "\u293f": 8689, "\u2940": 8690, "\u2941": 8691, "\u2942": 8692, "\u2943": 8693, "\u2944": 8694, "\u2945": 8695, "\u2946": 8696, "\u2947": 8697, "\u2948": 8698, "\u2949": 8699, "\u294a": 8700, "\u294b": 8701, "\u294c": 8702, "\u294d": 8703, "\u294e": 8704, "\u294f": 8705, "\u2950": 8706, "\u2951": 8707, "\u2952": 8708, "\u2953": 8709, "\u2954": 8710, "\u2955": 8711, "\u2956": 8712, "\u2957": 8713, "\u2958": 8714, "\u2959": 8715, "\u295a": 8716, "\u295b": 8717, "\u295c": 8718, "\u295d": 8719, "\u295e": 8720, "\u295f": 8721, "\u2960": 8722, "\u2961": 8723, "\u2962": 8724, "\u2963": 8725, "\u2964": 8726, "\u2965": 8727, "\u2966": 8728, "\u2967": 8729, "\u2968": 8730, "\u2969": 8731, "\u296a": 8732, "\u296b": 8733, "\u296c": 8734, "\u296d": 8735, "\u296e": 8736, "\u296f": 8737, "\u2970": 8738, "\u2971": 8739, "\u2972": 8740, "\u2973": 8741, "\u2974": 8742, "\u2975": 8743, "\u2976": 8744, "\u2977": 8745, "\u2978": 8746, "\u2979": 8747, "\u297a": 8748, "\u297b": 8749, "\u297c": 8750, "\u297d": 8751, "\u297e": 8752, "\u297f": 8753, "\u2980": 8754, "\u2981": 8755, "\u2982": 8756, "\u2983": 8757, "\u2984": 8758, "\u2985": 8759, "\u2986": 8760, "\u2987": 8761, "\u2988": 8762, "\u2989": 8763, "\u298a": 8764, "\u298b": 8765, "\u298c": 8766, "\u298d": 8767, "\u298e": 8768, "\u298f": 8769, "\u2990": 8770, "\u2991": 8771, "\u2992": 8772, "\u2993": 8773, "\u2994": 8774, "\u2995": 8775, "\u2996": 8776, "\u2997": 8777, "\u2998": 8778, "\u2999": 8779, "\u299a": 8780, "\u299b": 8781, "\u299c": 8782, "\u299d": 8783, "\u299e": 8784, "\u299f": 8785, "\u29a0": 8786, "\u29a1": 8787, "\u29a2": 8788, "\u29a3": 8789, "\u29a4": 8790, "\u29a5": 8791, "\u29a6": 8792, "\u29a7": 8793, "\u29a8": 8794, "\u29a9": 8795, "\u29aa": 8796, "\u29ab": 8797, "\u29ac": 8798, "\u29ad": 8799, "\u29ae": 8800, "\u29af": 8801, "\u29b0": 8802, "\u29b1": 8803, "\u29b2": 8804, "\u29b3": 8805, "\u29b4": 8806, "\u29b5": 8807, "\u29b6": 8808, "\u29b7": 8809, "\u29b8": 8810, "\u29b9": 8811, "\u29ba": 8812, "\u29bb": 8813, "\u29bc": 8814, "\u29bd": 8815, "\u29be": 8816, "\u29bf": 8817, "\u29c0": 8818, "\u29c1": 8819, "\u29c2": 8820, "\u29c3": 8821, "\u29c4": 8822, "\u29c5": 8823, "\u29c6": 8824, "\u29c7": 8825, "\u29c8": 8826, "\u29c9": 8827, "\u29ca": 8828, "\u29cb": 8829, "\u29cc": 8830, "\u29cd": 8831, "\u29ce": 8832, "\u29cf": 8833, "\u29d0": 8834, "\u29d1": 8835, "\u29d2": 8836, "\u29d3": 8837, "\u29d4": 8838, "\u29d5": 8839, "\u29d6": 8840, "\u29d7": 8841, "\u29d8": 8842, "\u29d9": 8843, "\u29da": 8844, "\u29db": 8845, "\u29dc": 8846, "\u29dd": 8847, "\u29de": 8848, "\u29df": 8849, "\u29e0": 8850, "\u29e1": 8851, "\u29e2": 8852, "\u29e3": 8853, "\u29e4": 8854, "\u29e5": 8855, "\u29e6": 8856, "\u29e7": 8857, "\u29e8": 8858, "\u29e9": 8859, "\u29ea": 8860, "\u29eb": 8861, "\u29ec": 8862, "\u29ed": 8863, "\u29ee": 8864, "\u29ef": 8865, "\u29f0": 8866, "\u29f1": 8867, "\u29f2": 8868, "\u29f3": 8869, "\u29f4": 8870, "\u29f5": 8871, "\u29f6": 8872, "\u29f7": 8873, "\u29f8": 8874, "\u29f9": 8875, "\u29fa": 8876, "\u29fb": 8877, "\u29fc": 8878, "\u29fd": 8879, "\u29fe": 8880, "\u29ff": 8881, "\u2a00": 8882, "\u2a01": 8883, "\u2a02": 8884, "\u2a03": 8885, "\u2a04": 8886, "\u2a05": 8887, "\u2a06": 8888, "\u2a07": 8889, "\u2a08": 8890, "\u2a09": 8891, "\u2a0a": 8892, "\u2a0b": 8893, "\u2a0c": 8894, "\u2a0d": 8895, "\u2a0e": 8896, "\u2a0f": 8897, "\u2a10": 8898, "\u2a11": 8899, "\u2a12": 8900, "\u2a13": 8901, "\u2a14": 8902, "\u2a15": 8903, "\u2a16": 8904, "\u2a17": 8905, "\u2a18": 8906, "\u2a19": 8907, "\u2a1a": 8908, "\u2a1b": 8909, "\u2a1c": 8910, "\u2a1d": 8911, "\u2a1e": 8912, "\u2a1f": 8913, "\u2a20": 8914, "\u2a21": 8915, "\u2a22": 8916, "\u2a23": 8917, "\u2a24": 8918, "\u2a25": 8919, "\u2a26": 8920, "\u2a27": 8921, "\u2a28": 8922, "\u2a29": 8923, "\u2a2a": 8924, "\u2a2b": 8925, "\u2a2c": 8926, "\u2a2d": 8927, "\u2a2e": 8928, "\u2a2f": 8929, "\u2a30": 8930, "\u2a31": 8931, "\u2a32": 8932, "\u2a33": 8933, "\u2a34": 8934, "\u2a35": 8935, "\u2a36": 8936, "\u2a37": 8937, "\u2a38": 8938, "\u2a39": 8939, "\u2a3a": 8940, "\u2a3b": 8941, "\u2a3c": 8942, "\u2a3d": 8943, "\u2a3e": 8944, "\u2a3f": 8945, "\u2a40": 8946, "\u2a41": 8947, "\u2a42": 8948, "\u2a43": 8949, "\u2a44": 8950, "\u2a45": 8951, "\u2a46": 8952, "\u2a47": 8953, "\u2a48": 8954, "\u2a49": 8955, "\u2a4a": 8956, "\u2a4b": 8957, "\u2a4c": 8958, "\u2a4d": 8959, "\u2a4e": 8960, "\u2a4f": 8961, "\u2a50": 8962, "\u2a51": 8963, "\u2a52": 8964, "\u2a53": 8965, "\u2a54": 8966, "\u2a55": 8967, "\u2a56": 8968, "\u2a57": 8969, "\u2a58": 8970, "\u2a59": 8971, "\u2a5a": 8972, "\u2a5b": 8973, "\u2a5c": 8974, "\u2a5d": 8975, "\u2a5e": 8976, "\u2a5f": 8977, "\u2a60": 8978, "\u2a61": 8979, "\u2a62": 8980, "\u2a63": 8981, "\u2a64": 8982, "\u2a65": 8983, "\u2a66": 8984, "\u2a67": 8985, "\u2a68": 8986, "\u2a69": 8987, "\u2a6a": 8988, "\u2a6b": 8989, "\u2a6c": 8990, "\u2a6d": 8991, "\u2a6e": 8992, "\u2a6f": 8993, "\u2a70": 8994, "\u2a71": 8995, "\u2a72": 8996, "\u2a73": 8997, "\u2a74": 8998, "\u2a75": 8999, "\u2a76": 9000, "\u2a77": 9001, "\u2a78": 9002, "\u2a79": 9003, "\u2a7a": 9004, "\u2a7b": 9005, "\u2a7c": 9006, "\u2a7d": 9007, "\u2a7e": 9008, "\u2a7f": 9009, "\u2a80": 9010, "\u2a81": 9011, "\u2a82": 9012, "\u2a83": 9013, "\u2a84": 9014, "\u2a85": 9015, "\u2a86": 9016, "\u2a87": 9017, "\u2a88": 9018, "\u2a89": 9019, "\u2a8a": 9020, "\u2a8b": 9021, "\u2a8c": 9022, "\u2a8d": 9023, "\u2a8e": 9024, "\u2a8f": 9025, "\u2a90": 9026, "\u2a91": 9027, "\u2a92": 9028, "\u2a93": 9029, "\u2a94": 9030, "\u2a95": 9031, "\u2a96": 9032, "\u2a97": 9033, "\u2a98": 9034, "\u2a99": 9035, "\u2a9a": 9036, "\u2a9b": 9037, "\u2a9c": 9038, "\u2a9d": 9039, "\u2a9e": 9040, "\u2a9f": 9041, "\u2aa0": 9042, "\u2aa1": 9043, "\u2aa2": 9044, "\u2aa3": 9045, "\u2aa4": 9046, "\u2aa5": 9047, "\u2aa6": 9048, "\u2aa7": 9049, "\u2aa8": 9050, "\u2aa9": 9051, "\u2aaa": 9052, "\u2aab": 9053, "\u2aac": 9054, "\u2aad": 9055, "\u2aae": 9056, "\u2aaf": 9057, "\u2ab0": 9058, "\u2ab1": 9059, "\u2ab2": 9060, "\u2ab3": 9061, "\u2ab4": 9062, "\u2ab5": 9063, "\u2ab6": 9064, "\u2ab7": 9065, "\u2ab8": 9066, "\u2ab9": 9067, "\u2aba": 9068, "\u2abb": 9069, "\u2abc": 9070, "\u2abd": 9071, "\u2abe": 9072, "\u2abf": 9073, "\u2ac0": 9074, "\u2ac1": 9075, "\u2ac2": 9076, "\u2ac3": 9077, "\u2ac4": 9078, "\u2ac5": 9079, "\u2ac6": 9080, "\u2ac7": 9081, "\u2ac8": 9082, "\u2ac9": 9083, "\u2aca": 9084, "\u2acb": 9085, "\u2acc": 9086, "\u2acd": 9087, "\u2ace": 9088, "\u2acf": 9089, "\u2ad0": 9090, "\u2ad1": 9091, "\u2ad2": 9092, "\u2ad3": 9093, "\u2ad4": 9094, "\u2ad5": 9095, "\u2ad6": 9096, "\u2ad7": 9097, "\u2ad8": 9098, "\u2ad9": 9099, "\u2ada": 9100, "\u2adb": 9101, "\u2adc": 9102, "\u2add": 9103, "\u2ade": 9104, "\u2adf": 9105, "\u2ae0": 9106, "\u2ae1": 9107, "\u2ae2": 9108, "\u2ae3": 9109, "\u2ae4": 9110, "\u2ae5": 9111, "\u2ae6": 9112, "\u2ae7": 9113, "\u2ae8": 9114, "\u2ae9": 9115, "\u2aea": 9116, "\u2aeb": 9117, "\u2aec": 9118, "\u2aed": 9119, "\u2aee": 9120, "\u2aef": 9121, "\u2af0": 9122, "\u2af1": 9123, "\u2af2": 9124, "\u2af3": 9125, "\u2af4": 9126, "\u2af5": 9127, "\u2af6": 9128, "\u2af7": 9129, "\u2af8": 9130, "\u2af9": 9131, "\u2afa": 9132, "\u2afb": 9133, "\u2afc": 9134, "\u2afd": 9135, "\u2afe": 9136, "\u2aff": 9137, "\u2b00": 9138, "\u2b01": 9139, "\u2b02": 9140, "\u2b03": 9141, "\u2b04": 9142, "\u2b05": 9143, "\u2b06": 9144, "\u2b07": 9145, "\u2b08": 9146, "\u2b09": 9147, "\u2b0a": 9148, "\u2b0b": 9149, "\u2b0c": 9150, "\u2b0d": 9151, "\u2b0e": 9152, "\u2b0f": 9153, "\u2b10": 9154, "\u2b11": 9155, "\u2b12": 9156, "\u2b13": 9157, "\u2b14": 9158, "\u2b15": 9159, "\u2b16": 9160, "\u2b17": 9161, "\u2b18": 9162, "\u2b19": 9163, "\u2b1a": 9164, "\u2b1b": 9165, "\u2b1c": 9166, "\u2b1d": 9167, "\u2b1e": 9168, "\u2b1f": 9169, "\u2b20": 9170, "\u2b21": 9171, "\u2b22": 9172, "\u2b23": 9173, "\u2b24": 9174, "\u2b25": 9175, "\u2b26": 9176, "\u2b27": 9177, "\u2b28": 9178, "\u2b29": 9179, "\u2b2a": 9180, "\u2b2b": 9181, "\u2b2c": 9182, "\u2b2d": 9183, "\u2b2e": 9184, "\u2b2f": 9185, "\u2b30": 9186, "\u2b31": 9187, "\u2b32": 9188, "\u2b33": 9189, "\u2b34": 9190, "\u2b35": 9191, "\u2b36": 9192, "\u2b37": 9193, "\u2b38": 9194, "\u2b39": 9195, "\u2b3a": 9196, "\u2b3b": 9197, "\u2b3c": 9198, "\u2b3d": 9199, "\u2b3e": 9200, "\u2b3f": 9201, "\u2b40": 9202, "\u2b41": 9203, "\u2b42": 9204, "\u2b43": 9205, "\u2b44": 9206, "\u2b45": 9207, "\u2b46": 9208, "\u2b47": 9209, "\u2b48": 9210, "\u2b49": 9211, "\u2b4a": 9212, "\u2b4b": 9213, "\u2b4c": 9214, "\u2b4d": 9215, "\u2b4e": 9216, "\u2b4f": 9217, "\u2b50": 9218, "\u2b51": 9219, "\u2b52": 9220, "\u2b53": 9221, "\u2b54": 9222, "\u2b55": 9223, "\u2b56": 9224, "\u2b57": 9225, "\u2b58": 9226, "\u2b59": 9227, "\u2b5a": 9228, "\u2b5b": 9229, "\u2b5c": 9230, "\u2b5d": 9231, "\u2b5e": 9232, "\u2b5f": 9233, "\u2b60": 9234, "\u2b61": 9235, "\u2b62": 9236, "\u2b63": 9237, "\u2b64": 9238, "\u2b65": 9239, "\u2b66": 9240, "\u2b67": 9241, "\u2b68": 9242, "\u2b69": 9243, "\u2b6a": 9244, "\u2b6b": 9245, "\u2b6c": 9246, "\u2b6d": 9247, "\u2b6e": 9248, "\u2b6f": 9249, "\u2b70": 9250, "\u2b71": 9251, "\u2b72": 9252, "\u2b73": 9253, "\u2b74": 9254, "\u2b75": 9255, "\u2b76": 9256, "\u2b77": 9257, "\u2b78": 9258, "\u2b79": 9259, "\u2b7a": 9260, "\u2b7b": 9261, "\u2b7c": 9262, "\u2b7d": 9263, "\u2b7e": 9264, "\u2b7f": 9265, "\u2b80": 9266, "\u2b81": 9267, "\u2b82": 9268, "\u2b83": 9269, "\u2b84": 9270, "\u2b85": 9271, "\u2b86": 9272, "\u2b87": 9273, "\u2b88": 9274, "\u2b89": 9275, "\u2b8a": 9276, "\u2b8b": 9277, "\u2b8c": 9278, "\u2b8d": 9279, "\u2b8e": 9280, "\u2b8f": 9281, "\u2b90": 9282, "\u2b91": 9283, "\u2b92": 9284, "\u2b93": 9285, "\u2b94": 9286, "\u2b95": 9287, "\u2b96": 9288, "\u2b97": 9289, "\u2b98": 9290, "\u2b99": 9291, "\u2b9a": 9292, "\u2b9b": 9293, "\u2b9c": 9294, "\u2b9d": 9295, "\u2b9e": 9296, "\u2b9f": 9297, "\u2ba0": 9298, "\u2ba1": 9299, "\u2ba2": 9300, "\u2ba3": 9301, "\u2ba4": 9302, "\u2ba5": 9303, "\u2ba6": 9304, "\u2ba7": 9305, "\u2ba8": 9306, "\u2ba9": 9307, "\u2baa": 9308, "\u2bab": 9309, "\u2bac": 9310, "\u2bad": 9311, "\u2bae": 9312, "\u2baf": 9313, "\u2bb0": 9314, "\u2bb1": 9315, "\u2bb2": 9316, "\u2bb3": 9317, "\u2bb4": 9318, "\u2bb5": 9319, "\u2bb6": 9320, "\u2bb7": 9321, "\u2bb8": 9322, "\u2bb9": 9323, "\u2bba": 9324, "\u2bbb": 9325, "\u2bbc": 9326, "\u2bbd": 9327, "\u2bbe": 9328, "\u2bbf": 9329, "\u2bc0": 9330, "\u2bc1": 9331, "\u2bc2": 9332, "\u2bc3": 9333, "\u2bc4": 9334, "\u2bc5": 9335, "\u2bc6": 9336, "\u2bc7": 9337, "\u2bc8": 9338, "\u2bc9": 9339, "\u2bca": 9340, "\u2bcb": 9341, "\u2bcc": 9342, "\u2bcd": 9343, "\u2bce": 9344, "\u2bcf": 9345, "\u2bd0": 9346, "\u2bd1": 9347, "\u2bd2": 9348, "\u2bd3": 9349, "\u2bd4": 9350, "\u2bd5": 9351, "\u2bd6": 9352, "\u2bd7": 9353, "\u2bd8": 9354, "\u2bd9": 9355, "\u2bda": 9356, "\u2bdb": 9357, "\u2bdc": 9358, "\u2bdd": 9359, "\u2bde": 9360, "\u2bdf": 9361, "\u2be0": 9362, "\u2be1": 9363, "\u2be2": 9364, "\u2be3": 9365, "\u2be4": 9366, "\u2be5": 9367, "\u2be6": 9368, "\u2be7": 9369, "\u2be8": 9370, "\u2be9": 9371, "\u2bea": 9372, "\u2beb": 9373, "\u2bec": 9374, "\u2bed": 9375, "\u2bee": 9376, "\u2bef": 9377, "\u2bf0": 9378, "\u2bf1": 9379, "\u2bf2": 9380, "\u2bf3": 9381, "\u2bf4": 9382, "\u2bf5": 9383, "\u2bf6": 9384, "\u2bf7": 9385, "\u2bf8": 9386, "\u2bf9": 9387, "\u2bfa": 9388, "\u2bfb": 9389, "\u2bfc": 9390, "\u2bfd": 9391, "\u2bfe": 9392, "\u2bff": 9393, "\u3000": 9394, "\u3001": 9395, "\u3002": 9396, "\u3003": 9397, "\u3004": 9398, "\u3005": 9399, "\u3006": 9400, "\u3007": 9401, "\u3008": 9402, "\u3009": 9403, "\u300a": 9404, "\u300b": 9405, "\u300c": 9406, "\u300d": 9407, "\u300e": 9408, "\u300f": 9409, "\u3010": 9410, "\u3011": 9411, "\u3012": 9412, "\u3013": 9413, "\u3014": 9414, "\u3015": 9415, "\u3016": 9416, "\u3017": 9417, "\u3018": 9418, "\u3019": 9419, "\u301a": 9420, "\u301b": 9421, "\u301c": 9422, "\u301d": 9423, "\u301e": 9424, "\u301f": 9425, "\u3020": 9426, "\u3021": 9427, "\u3022": 9428, "\u3023": 9429, "\u3024": 9430, "\u3025": 9431, "\u3026": 9432, "\u3027": 9433, "\u3028": 9434, "\u3029": 9435, "\u302a": 9436, "\u302b": 9437, "\u302c": 9438, "\u302d": 9439, "\u302e": 9440, "\u302f": 9441, "\u3030": 9442, "\u3031": 9443, "\u3032": 9444, "\u3033": 9445, "\u3034": 9446, "\u3035": 9447, "\u3036": 9448, "\u3037": 9449, "\u3038": 9450, "\u3039": 9451, "\u303a": 9452, "\u303b": 9453, "\u303c": 9454, "\u303d": 9455, "\u303e": 9456, "\u303f": 9457, "\u3040": 9458, "\u3041": 9459, "\u3042": 9460, "\u3043": 9461, "\u3044": 9462, "\u3045": 9463, "\u3046": 9464, "\u3047": 9465, "\u3048": 9466, "\u3049": 9467, "\u304a": 9468, "\u304b": 9469, "\u304c": 9470, "\u304d": 9471, "\u304e": 9472, "\u304f": 9473, "\u3050": 9474, "\u3051": 9475, "\u3052": 9476, "\u3053": 9477, "\u3054": 9478, "\u3055": 9479, "\u3056": 9480, "\u3057": 9481, "\u3058": 9482, "\u3059": 9483, "\u305a": 9484, "\u305b": 9485, "\u305c": 9486, "\u305d": 9487, "\u305e": 9488, "\u305f": 9489, "\u3060": 9490, "\u3061": 9491, "\u3062": 9492, "\u3063": 9493, "\u3064": 9494, "\u3065": 9495, "\u3066": 9496, "\u3067": 9497, "\u3068": 9498, "\u3069": 9499, "\u306a": 9500, "\u306b": 9501, "\u306c": 9502, "\u306d": 9503, "\u306e": 9504, "\u306f": 9505, "\u3070": 9506, "\u3071": 9507, "\u3072": 9508, "\u3073": 9509, "\u3074": 9510, "\u3075": 9511, "\u3076": 9512, "\u3077": 9513, "\u3078": 9514, "\u3079": 9515, "\u307a": 9516, "\u307b": 9517, "\u307c": 9518, "\u307d": 9519, "\u307e": 9520, "\u307f": 9521, "\u3080": 9522, "\u3081": 9523, "\u3082": 9524, "\u3083": 9525, "\u3084": 9526, "\u3085": 9527, "\u3086": 9528, "\u3087": 9529, "\u3088": 9530, "\u3089": 9531, "\u308a": 9532, "\u308b": 9533, "\u308c": 9534, "\u308d": 9535, "\u308e": 9536, "\u308f": 9537, "\u3090": 9538, "\u3091": 9539, "\u3092": 9540, "\u3093": 9541, "\u3094": 9542, "\u3095": 9543, "\u3096": 9544, "\u3097": 9545, "\u3098": 9546, "\u3099": 9547, "\u309a": 9548, "\u309b": 9549, "\u309c": 9550, "\u309d": 9551, "\u309e": 9552, "\u309f": 9553, "\u30a0": 9554, "\u30a1": 9555, "\u30a2": 9556, "\u30a3": 9557, "\u30a4": 9558, "\u30a5": 9559, "\u30a6": 9560, "\u30a7": 9561, "\u30a8": 9562, "\u30a9": 9563, "\u30aa": 9564, "\u30ab": 9565, "\u30ac": 9566, "\u30ad": 9567, "\u30ae": 9568, "\u30af": 9569, "\u30b0": 9570, "\u30b1": 9571, "\u30b2": 9572, "\u30b3": 9573, "\u30b4": 9574, "\u30b5": 9575, "\u30b6": 9576, "\u30b7": 9577, "\u30b8": 9578, "\u30b9": 9579, "\u30ba": 9580, "\u30bb": 9581, "\u30bc": 9582, "\u30bd": 9583, "\u30be": 9584, "\u30bf": 9585, "\u30c0": 9586, "\u30c1": 9587, "\u30c2": 9588, "\u30c3": 9589, "\u30c4": 9590, "\u30c5": 9591, "\u30c6": 9592, "\u30c7": 9593, "\u30c8": 9594, "\u30c9": 9595, "\u30ca": 9596, "\u30cb": 9597, "\u30cc": 9598, "\u30cd": 9599, "\u30ce": 9600, "\u30cf": 9601, "\u30d0": 9602, "\u30d1": 9603, "\u30d2": 9604, "\u30d3": 9605, "\u30d4": 9606, "\u30d5": 9607, "\u30d6": 9608, "\u30d7": 9609, "\u30d8": 9610, "\u30d9": 9611, "\u30da": 9612, "\u30db": 9613, "\u30dc": 9614, "\u30dd": 9615, "\u30de": 9616, "\u30df": 9617, "\u30e0": 9618, "\u30e1": 9619, "\u30e2": 9620, "\u30e3": 9621, "\u30e4": 9622, "\u30e5": 9623, "\u30e6": 9624, "\u30e7": 9625, "\u30e8": 9626, "\u30e9": 9627, "\u30ea": 9628, "\u30eb": 9629, "\u30ec": 9630, "\u30ed": 9631, "\u30ee": 9632, "\u30ef": 9633, "\u30f0": 9634, "\u30f1": 9635, "\u30f2": 9636, "\u30f3": 9637, "\u30f4": 9638, "\u30f5": 9639, "\u30f6": 9640, "\u30f7": 9641, "\u30f8": 9642, "\u30f9": 9643, "\u30fa": 9644, "\u30fb": 9645, "\u30fc": 9646, "\u30fd": 9647, "\u30fe": 9648, "\u30ff": 9649, "\u3100": 9650, "\u3101": 9651, "\u3102": 9652, "\u3103": 9653, "\u3104": 9654, "\u3105": 9655, "\u3106": 9656, "\u3107": 9657, "\u3108": 9658, "\u3109": 9659, "\u310a": 9660, "\u310b": 9661, "\u310c": 9662, "\u310d": 9663, "\u310e": 9664, "\u310f": 9665, "\u3110": 9666, "\u3111": 9667, "\u3112": 9668, "\u3113": 9669, "\u3114": 9670, "\u3115": 9671, "\u3116": 9672, "\u3117": 9673, "\u3118": 9674, "\u3119": 9675, "\u311a": 9676, "\u311b": 9677, "\u311c": 9678, "\u311d": 9679, "\u311e": 9680, "\u311f": 9681, "\u3120": 9682, "\u3121": 9683, "\u3122": 9684, "\u3123": 9685, "\u3124": 9686, "\u3125": 9687, "\u3126": 9688, "\u3127": 9689, "\u3128": 9690, "\u3129": 9691, "\u312a": 9692, "\u312b": 9693, "\u312c": 9694, "\u312d": 9695, "\u312e": 9696, "\u312f": 9697, "\u4e00": 9698, "\u4e01": 9699, "\u4e02": 9700, "\u4e03": 9701, "\u4e04": 9702, "\u4e05": 9703, "\u4e06": 9704, "\u4e07": 9705, "\u4e08": 9706, "\u4e09": 9707, "\u4e0a": 9708, "\u4e0b": 9709, "\u4e0c": 9710, "\u4e0d": 9711, "\u4e0e": 9712, "\u4e0f": 9713, "\u4e10": 9714, "\u4e11": 9715, "\u4e12": 9716, "\u4e13": 9717, "\u4e14": 9718, "\u4e15": 9719, "\u4e16": 9720, "\u4e17": 9721, "\u4e18": 9722, "\u4e19": 9723, "\u4e1a": 9724, "\u4e1b": 9725, "\u4e1c": 9726, "\u4e1d": 9727, "\u4e1e": 9728, "\u4e1f": 9729, "\u4e20": 9730, "\u4e21": 9731, "\u4e22": 9732, "\u4e23": 9733, "\u4e24": 9734, "\u4e25": 9735, "\u4e26": 9736, "\u4e27": 9737, "\u4e28": 9738, "\u4e29": 9739, "\u4e2a": 9740, "\u4e2b": 9741, "\u4e2c": 9742, "\u4e2d": 9743, "\u4e2e": 9744, "\u4e2f": 9745, "\u4e30": 9746, "\u4e31": 9747, "\u4e32": 9748, "\u4e33": 9749, "\u4e34": 9750, "\u4e35": 9751, "\u4e36": 9752, "\u4e37": 9753, "\u4e38": 9754, "\u4e39": 9755, "\u4e3a": 9756, "\u4e3b": 9757, "\u4e3c": 9758, "\u4e3d": 9759, "\u4e3e": 9760, "\u4e3f": 9761, "\u4e40": 9762, "\u4e41": 9763, "\u4e42": 9764, "\u4e43": 9765, "\u4e44": 9766, "\u4e45": 9767, "\u4e46": 9768, "\u4e47": 9769, "\u4e48": 9770, "\u4e49": 9771, "\u4e4a": 9772, "\u4e4b": 9773, "\u4e4c": 9774, "\u4e4d": 9775, "\u4e4e": 9776, "\u4e4f": 9777, "\u4e50": 9778, "\u4e51": 9779, "\u4e52": 9780, "\u4e53": 9781, "\u4e54": 9782, "\u4e55": 9783, "\u4e56": 9784, "\u4e57": 9785, "\u4e58": 9786, "\u4e59": 9787, "\u4e5a": 9788, "\u4e5b": 9789, "\u4e5c": 9790, "\u4e5d": 9791, "\u4e5e": 9792, "\u4e5f": 9793, "\u4e60": 9794, "\u4e61": 9795, "\u4e62": 9796, "\u4e63": 9797, "\u4e64": 9798, "\u4e65": 9799, "\u4e66": 9800, "\u4e67": 9801, "\u4e68": 9802, "\u4e69": 9803, "\u4e6a": 9804, "\u4e6b": 9805, "\u4e6c": 9806, "\u4e6d": 9807, "\u4e6e": 9808, "\u4e6f": 9809, "\u4e70": 9810, "\u4e71": 9811, "\u4e72": 9812, "\u4e73": 9813, "\u4e74": 9814, "\u4e75": 9815, "\u4e76": 9816, "\u4e77": 9817, "\u4e78": 9818, "\u4e79": 9819, "\u4e7a": 9820, "\u4e7b": 9821, "\u4e7c": 9822, "\u4e7d": 9823, "\u4e7e": 9824, "\u4e7f": 9825, "\u4e80": 9826, "\u4e81": 9827, "\u4e82": 9828, "\u4e83": 9829, "\u4e84": 9830, "\u4e85": 9831, "\u4e86": 9832, "\u4e87": 9833, "\u4e88": 9834, "\u4e89": 9835, "\u4e8a": 9836, "\u4e8b": 9837, "\u4e8c": 9838, "\u4e8d": 9839, "\u4e8e": 9840, "\u4e8f": 9841, "\u4e90": 9842, "\u4e91": 9843, "\u4e92": 9844, "\u4e93": 9845, "\u4e94": 9846, "\u4e95": 9847, "\u4e96": 9848, "\u4e97": 9849, "\u4e98": 9850, "\u4e99": 9851, "\u4e9a": 9852, "\u4e9b": 9853, "\u4e9c": 9854, "\u4e9d": 9855, "\u4e9e": 9856, "\u4e9f": 9857, "\u4ea0": 9858, "\u4ea1": 9859, "\u4ea2": 9860, "\u4ea3": 9861, "\u4ea4": 9862, "\u4ea5": 9863, "\u4ea6": 9864, "\u4ea7": 9865, "\u4ea8": 9866, "\u4ea9": 9867, "\u4eaa": 9868, "\u4eab": 9869, "\u4eac": 9870, "\u4ead": 9871, "\u4eae": 9872, "\u4eaf": 9873, "\u4eb0": 9874, "\u4eb1": 9875, "\u4eb2": 9876, "\u4eb3": 9877, "\u4eb4": 9878, "\u4eb5": 9879, "\u4eb6": 9880, "\u4eb7": 9881, "\u4eb8": 9882, "\u4eb9": 9883, "\u4eba": 9884, "\u4ebb": 9885, "\u4ebc": 9886, "\u4ebd": 9887, "\u4ebe": 9888, "\u4ebf": 9889, "\u4ec0": 9890, "\u4ec1": 9891, "\u4ec2": 9892, "\u4ec3": 9893, "\u4ec4": 9894, "\u4ec5": 9895, "\u4ec6": 9896, "\u4ec7": 9897, "\u4ec8": 9898, "\u4ec9": 9899, "\u4eca": 9900, "\u4ecb": 9901, "\u4ecc": 9902, "\u4ecd": 9903, "\u4ece": 9904, "\u4ecf": 9905, "\u4ed0": 9906, "\u4ed1": 9907, "\u4ed2": 9908, "\u4ed3": 9909, "\u4ed4": 9910, "\u4ed5": 9911, "\u4ed6": 9912, "\u4ed7": 9913, "\u4ed8": 9914, "\u4ed9": 9915, "\u4eda": 9916, "\u4edb": 9917, "\u4edc": 9918, "\u4edd": 9919, "\u4ede": 9920, "\u4edf": 9921, "\u4ee0": 9922, "\u4ee1": 9923, "\u4ee2": 9924, "\u4ee3": 9925, "\u4ee4": 9926, "\u4ee5": 9927, "\u4ee6": 9928, "\u4ee7": 9929, "\u4ee8": 9930, "\u4ee9": 9931, "\u4eea": 9932, "\u4eeb": 9933, "\u4eec": 9934, "\u4eed": 9935, "\u4eee": 9936, "\u4eef": 9937, "\u4ef0": 9938, "\u4ef1": 9939, "\u4ef2": 9940, "\u4ef3": 9941, "\u4ef4": 9942, "\u4ef5": 9943, "\u4ef6": 9944, "\u4ef7": 9945, "\u4ef8": 9946, "\u4ef9": 9947, "\u4efa": 9948, "\u4efb": 9949, "\u4efc": 9950, "\u4efd": 9951, "\u4efe": 9952, "\u4eff": 9953, "\u4f00": 9954, "\u4f01": 9955, "\u4f02": 9956, "\u4f03": 9957, "\u4f04": 9958, "\u4f05": 9959, "\u4f06": 9960, "\u4f07": 9961, "\u4f08": 9962, "\u4f09": 9963, "\u4f0a": 9964, "\u4f0b": 9965, "\u4f0c": 9966, "\u4f0d": 9967, "\u4f0e": 9968, "\u4f0f": 9969, "\u4f10": 9970, "\u4f11": 9971, "\u4f12": 9972, "\u4f13": 9973, "\u4f14": 9974, "\u4f15": 9975, "\u4f16": 9976, "\u4f17": 9977, "\u4f18": 9978, "\u4f19": 9979, "\u4f1a": 9980, "\u4f1b": 9981, "\u4f1c": 9982, "\u4f1d": 9983, "\u4f1e": 9984, "\u4f1f": 9985, "\u4f20": 9986, "\u4f21": 9987, "\u4f22": 9988, "\u4f23": 9989, "\u4f24": 9990, "\u4f25": 9991, "\u4f26": 9992, "\u4f27": 9993, "\u4f28": 9994, "\u4f29": 9995, "\u4f2a": 9996, "\u4f2b": 9997, "\u4f2c": 9998, "\u4f2d": 9999, "\u4f2e": 10000, "\u4f2f": 10001, "\u4f30": 10002, "\u4f31": 10003, "\u4f32": 10004, "\u4f33": 10005, "\u4f34": 10006, "\u4f35": 10007, "\u4f36": 10008, "\u4f37": 10009, "\u4f38": 10010, "\u4f39": 10011, "\u4f3a": 10012, "\u4f3b": 10013, "\u4f3c": 10014, "\u4f3d": 10015, "\u4f3e": 10016, "\u4f3f": 10017, "\u4f40": 10018, "\u4f41": 10019, "\u4f42": 10020, "\u4f43": 10021, "\u4f44": 10022, "\u4f45": 10023, "\u4f46": 10024, "\u4f47": 10025, "\u4f48": 10026, "\u4f49": 10027, "\u4f4a": 10028, "\u4f4b": 10029, "\u4f4c": 10030, "\u4f4d": 10031, "\u4f4e": 10032, "\u4f4f": 10033, "\u4f50": 10034, "\u4f51": 10035, "\u4f52": 10036, "\u4f53": 10037, "\u4f54": 10038, "\u4f55": 10039, "\u4f56": 10040, "\u4f57": 10041, "\u4f58": 10042, "\u4f59": 10043, "\u4f5a": 10044, "\u4f5b": 10045, "\u4f5c": 10046, "\u4f5d": 10047, "\u4f5e": 10048, "\u4f5f": 10049, "\u4f60": 10050, "\u4f61": 10051, "\u4f62": 10052, "\u4f63": 10053, "\u4f64": 10054, "\u4f65": 10055, "\u4f66": 10056, "\u4f67": 10057, "\u4f68": 10058, "\u4f69": 10059, "\u4f6a": 10060, "\u4f6b": 10061, "\u4f6c": 10062, "\u4f6d": 10063, "\u4f6e": 10064, "\u4f6f": 10065, "\u4f70": 10066, "\u4f71": 10067, "\u4f72": 10068, "\u4f73": 10069, "\u4f74": 10070, "\u4f75": 10071, "\u4f76": 10072, "\u4f77": 10073, "\u4f78": 10074, "\u4f79": 10075, "\u4f7a": 10076, "\u4f7b": 10077, "\u4f7c": 10078, "\u4f7d": 10079, "\u4f7e": 10080, "\u4f7f": 10081, "\u4f80": 10082, "\u4f81": 10083, "\u4f82": 10084, "\u4f83": 10085, "\u4f84": 10086, "\u4f85": 10087, "\u4f86": 10088, "\u4f87": 10089, "\u4f88": 10090, "\u4f89": 10091, "\u4f8a": 10092, "\u4f8b": 10093, "\u4f8c": 10094, "\u4f8d": 10095, "\u4f8e": 10096, "\u4f8f": 10097, "\u4f90": 10098, "\u4f91": 10099, "\u4f92": 10100, "\u4f93": 10101, "\u4f94": 10102, "\u4f95": 10103, "\u4f96": 10104, "\u4f97": 10105, "\u4f98": 10106, "\u4f99": 10107, "\u4f9a": 10108, "\u4f9b": 10109, "\u4f9c": 10110, "\u4f9d": 10111, "\u4f9e": 10112, "\u4f9f": 10113, "\u4fa0": 10114, "\u4fa1": 10115, "\u4fa2": 10116, "\u4fa3": 10117, "\u4fa4": 10118, "\u4fa5": 10119, "\u4fa6": 10120, "\u4fa7": 10121, "\u4fa8": 10122, "\u4fa9": 10123, "\u4faa": 10124, "\u4fab": 10125, "\u4fac": 10126, "\u4fad": 10127, "\u4fae": 10128, "\u4faf": 10129, "\u4fb0": 10130, "\u4fb1": 10131, "\u4fb2": 10132, "\u4fb3": 10133, "\u4fb4": 10134, "\u4fb5": 10135, "\u4fb6": 10136, "\u4fb7": 10137, "\u4fb8": 10138, "\u4fb9": 10139, "\u4fba": 10140, "\u4fbb": 10141, "\u4fbc": 10142, "\u4fbd": 10143, "\u4fbe": 10144, "\u4fbf": 10145, "\u4fc0": 10146, "\u4fc1": 10147, "\u4fc2": 10148, "\u4fc3": 10149, "\u4fc4": 10150, "\u4fc5": 10151, "\u4fc6": 10152, "\u4fc7": 10153, "\u4fc8": 10154, "\u4fc9": 10155, "\u4fca": 10156, "\u4fcb": 10157, "\u4fcc": 10158, "\u4fcd": 10159, "\u4fce": 10160, "\u4fcf": 10161, "\u4fd0": 10162, "\u4fd1": 10163, "\u4fd2": 10164, "\u4fd3": 10165, "\u4fd4": 10166, "\u4fd5": 10167, "\u4fd6": 10168, "\u4fd7": 10169, "\u4fd8": 10170, "\u4fd9": 10171, "\u4fda": 10172, "\u4fdb": 10173, "\u4fdc": 10174, "\u4fdd": 10175, "\u4fde": 10176, "\u4fdf": 10177, "\u4fe0": 10178, "\u4fe1": 10179, "\u4fe2": 10180, "\u4fe3": 10181, "\u4fe4": 10182, "\u4fe5": 10183, "\u4fe6": 10184, "\u4fe7": 10185, "\u4fe8": 10186, "\u4fe9": 10187, "\u4fea": 10188, "\u4feb": 10189, "\u4fec": 10190, "\u4fed": 10191, "\u4fee": 10192, "\u4fef": 10193, "\u4ff0": 10194, "\u4ff1": 10195, "\u4ff2": 10196, "\u4ff3": 10197, "\u4ff4": 10198, "\u4ff5": 10199, "\u4ff6": 10200, "\u4ff7": 10201, "\u4ff8": 10202, "\u4ff9": 10203, "\u4ffa": 10204, "\u4ffb": 10205, "\u4ffc": 10206, "\u4ffd": 10207, "\u4ffe": 10208, "\u4fff": 10209, "\u5000": 10210, "\u5001": 10211, "\u5002": 10212, "\u5003": 10213, "\u5004": 10214, "\u5005": 10215, "\u5006": 10216, "\u5007": 10217, "\u5008": 10218, "\u5009": 10219, "\u500a": 10220, "\u500b": 10221, "\u500c": 10222, "\u500d": 10223, "\u500e": 10224, "\u500f": 10225, "\u5010": 10226, "\u5011": 10227, "\u5012": 10228, "\u5013": 10229, "\u5014": 10230, "\u5015": 10231, "\u5016": 10232, "\u5017": 10233, "\u5018": 10234, "\u5019": 10235, "\u501a": 10236, "\u501b": 10237, "\u501c": 10238, "\u501d": 10239, "\u501e": 10240, "\u501f": 10241, "\u5020": 10242, "\u5021": 10243, "\u5022": 10244, "\u5023": 10245, "\u5024": 10246, "\u5025": 10247, "\u5026": 10248, "\u5027": 10249, "\u5028": 10250, "\u5029": 10251, "\u502a": 10252, "\u502b": 10253, "\u502c": 10254, "\u502d": 10255, "\u502e": 10256, "\u502f": 10257, "\u5030": 10258, "\u5031": 10259, "\u5032": 10260, "\u5033": 10261, "\u5034": 10262, "\u5035": 10263, "\u5036": 10264, "\u5037": 10265, "\u5038": 10266, "\u5039": 10267, "\u503a": 10268, "\u503b": 10269, "\u503c": 10270, "\u503d": 10271, "\u503e": 10272, "\u503f": 10273, "\u5040": 10274, "\u5041": 10275, "\u5042": 10276, "\u5043": 10277, "\u5044": 10278, "\u5045": 10279, "\u5046": 10280, "\u5047": 10281, "\u5048": 10282, "\u5049": 10283, "\u504a": 10284, "\u504b": 10285, "\u504c": 10286, "\u504d": 10287, "\u504e": 10288, "\u504f": 10289, "\u5050": 10290, "\u5051": 10291, "\u5052": 10292, "\u5053": 10293, "\u5054": 10294, "\u5055": 10295, "\u5056": 10296, "\u5057": 10297, "\u5058": 10298, "\u5059": 10299, "\u505a": 10300, "\u505b": 10301, "\u505c": 10302, "\u505d": 10303, "\u505e": 10304, "\u505f": 10305, "\u5060": 10306, "\u5061": 10307, "\u5062": 10308, "\u5063": 10309, "\u5064": 10310, "\u5065": 10311, "\u5066": 10312, "\u5067": 10313, "\u5068": 10314, "\u5069": 10315, "\u506a": 10316, "\u506b": 10317, "\u506c": 10318, "\u506d": 10319, "\u506e": 10320, "\u506f": 10321, "\u5070": 10322, "\u5071": 10323, "\u5072": 10324, "\u5073": 10325, "\u5074": 10326, "\u5075": 10327, "\u5076": 10328, "\u5077": 10329, "\u5078": 10330, "\u5079": 10331, "\u507a": 10332, "\u507b": 10333, "\u507c": 10334, "\u507d": 10335, "\u507e": 10336, "\u507f": 10337, "\u5080": 10338, "\u5081": 10339, "\u5082": 10340, "\u5083": 10341, "\u5084": 10342, "\u5085": 10343, "\u5086": 10344, "\u5087": 10345, "\u5088": 10346, "\u5089": 10347, "\u508a": 10348, "\u508b": 10349, "\u508c": 10350, "\u508d": 10351, "\u508e": 10352, "\u508f": 10353, "\u5090": 10354, "\u5091": 10355, "\u5092": 10356, "\u5093": 10357, "\u5094": 10358, "\u5095": 10359, "\u5096": 10360, "\u5097": 10361, "\u5098": 10362, "\u5099": 10363, "\u509a": 10364, "\u509b": 10365, "\u509c": 10366, "\u509d": 10367, "\u509e": 10368, "\u509f": 10369, "\u50a0": 10370, "\u50a1": 10371, "\u50a2": 10372, "\u50a3": 10373, "\u50a4": 10374, "\u50a5": 10375, "\u50a6": 10376, "\u50a7": 10377, "\u50a8": 10378, "\u50a9": 10379, "\u50aa": 10380, "\u50ab": 10381, "\u50ac": 10382, "\u50ad": 10383, "\u50ae": 10384, "\u50af": 10385, "\u50b0": 10386, "\u50b1": 10387, "\u50b2": 10388, "\u50b3": 10389, "\u50b4": 10390, "\u50b5": 10391, "\u50b6": 10392, "\u50b7": 10393, "\u50b8": 10394, "\u50b9": 10395, "\u50ba": 10396, "\u50bb": 10397, "\u50bc": 10398, "\u50bd": 10399, "\u50be": 10400, "\u50bf": 10401, "\u50c0": 10402, "\u50c1": 10403, "\u50c2": 10404, "\u50c3": 10405, "\u50c4": 10406, "\u50c5": 10407, "\u50c6": 10408, "\u50c7": 10409, "\u50c8": 10410, "\u50c9": 10411, "\u50ca": 10412, "\u50cb": 10413, "\u50cc": 10414, "\u50cd": 10415, "\u50ce": 10416, "\u50cf": 10417, "\u50d0": 10418, "\u50d1": 10419, "\u50d2": 10420, "\u50d3": 10421, "\u50d4": 10422, "\u50d5": 10423, "\u50d6": 10424, "\u50d7": 10425, "\u50d8": 10426, "\u50d9": 10427, "\u50da": 10428, "\u50db": 10429, "\u50dc": 10430, "\u50dd": 10431, "\u50de": 10432, "\u50df": 10433, "\u50e0": 10434, "\u50e1": 10435, "\u50e2": 10436, "\u50e3": 10437, "\u50e4": 10438, "\u50e5": 10439, "\u50e6": 10440, "\u50e7": 10441, "\u50e8": 10442, "\u50e9": 10443, "\u50ea": 10444, "\u50eb": 10445, "\u50ec": 10446, "\u50ed": 10447, "\u50ee": 10448, "\u50ef": 10449, "\u50f0": 10450, "\u50f1": 10451, "\u50f2": 10452, "\u50f3": 10453, "\u50f4": 10454, "\u50f5": 10455, "\u50f6": 10456, "\u50f7": 10457, "\u50f8": 10458, "\u50f9": 10459, "\u50fa": 10460, "\u50fb": 10461, "\u50fc": 10462, "\u50fd": 10463, "\u50fe": 10464, "\u50ff": 10465, "\u5100": 10466, "\u5101": 10467, "\u5102": 10468, "\u5103": 10469, "\u5104": 10470, "\u5105": 10471, "\u5106": 10472, "\u5107": 10473, "\u5108": 10474, "\u5109": 10475, "\u510a": 10476, "\u510b": 10477, "\u510c": 10478, "\u510d": 10479, "\u510e": 10480, "\u510f": 10481, "\u5110": 10482, "\u5111": 10483, "\u5112": 10484, "\u5113": 10485, "\u5114": 10486, "\u5115": 10487, "\u5116": 10488, "\u5117": 10489, "\u5118": 10490, "\u5119": 10491, "\u511a": 10492, "\u511b": 10493, "\u511c": 10494, "\u511d": 10495, "\u511e": 10496, "\u511f": 10497, "\u5120": 10498, "\u5121": 10499, "\u5122": 10500, "\u5123": 10501, "\u5124": 10502, "\u5125": 10503, "\u5126": 10504, "\u5127": 10505, "\u5128": 10506, "\u5129": 10507, "\u512a": 10508, "\u512b": 10509, "\u512c": 10510, "\u512d": 10511, "\u512e": 10512, "\u512f": 10513, "\u5130": 10514, "\u5131": 10515, "\u5132": 10516, "\u5133": 10517, "\u5134": 10518, "\u5135": 10519, "\u5136": 10520, "\u5137": 10521, "\u5138": 10522, "\u5139": 10523, "\u513a": 10524, "\u513b": 10525, "\u513c": 10526, "\u513d": 10527, "\u513e": 10528, "\u513f": 10529, "\u5140": 10530, "\u5141": 10531, "\u5142": 10532, "\u5143": 10533, "\u5144": 10534, "\u5145": 10535, "\u5146": 10536, "\u5147": 10537, "\u5148": 10538, "\u5149": 10539, "\u514a": 10540, "\u514b": 10541, "\u514c": 10542, "\u514d": 10543, "\u514e": 10544, "\u514f": 10545, "\u5150": 10546, "\u5151": 10547, "\u5152": 10548, "\u5153": 10549, "\u5154": 10550, "\u5155": 10551, "\u5156": 10552, "\u5157": 10553, "\u5158": 10554, "\u5159": 10555, "\u515a": 10556, "\u515b": 10557, "\u515c": 10558, "\u515d": 10559, "\u515e": 10560, "\u515f": 10561, "\u5160": 10562, "\u5161": 10563, "\u5162": 10564, "\u5163": 10565, "\u5164": 10566, "\u5165": 10567, "\u5166": 10568, "\u5167": 10569, "\u5168": 10570, "\u5169": 10571, "\u516a": 10572, "\u516b": 10573, "\u516c": 10574, "\u516d": 10575, "\u516e": 10576, "\u516f": 10577, "\u5170": 10578, "\u5171": 10579, "\u5172": 10580, "\u5173": 10581, "\u5174": 10582, "\u5175": 10583, "\u5176": 10584, "\u5177": 10585, "\u5178": 10586, "\u5179": 10587, "\u517a": 10588, "\u517b": 10589, "\u517c": 10590, "\u517d": 10591, "\u517e": 10592, "\u517f": 10593, "\u5180": 10594, "\u5181": 10595, "\u5182": 10596, "\u5183": 10597, "\u5184": 10598, "\u5185": 10599, "\u5186": 10600, "\u5187": 10601, "\u5188": 10602, "\u5189": 10603, "\u518a": 10604, "\u518b": 10605, "\u518c": 10606, "\u518d": 10607, "\u518e": 10608, "\u518f": 10609, "\u5190": 10610, "\u5191": 10611, "\u5192": 10612, "\u5193": 10613, "\u5194": 10614, "\u5195": 10615, "\u5196": 10616, "\u5197": 10617, "\u5198": 10618, "\u5199": 10619, "\u519a": 10620, "\u519b": 10621, "\u519c": 10622, "\u519d": 10623, "\u519e": 10624, "\u519f": 10625, "\u51a0": 10626, "\u51a1": 10627, "\u51a2": 10628, "\u51a3": 10629, "\u51a4": 10630, "\u51a5": 10631, "\u51a6": 10632, "\u51a7": 10633, "\u51a8": 10634, "\u51a9": 10635, "\u51aa": 10636, "\u51ab": 10637, "\u51ac": 10638, "\u51ad": 10639, "\u51ae": 10640, "\u51af": 10641, "\u51b0": 10642, "\u51b1": 10643, "\u51b2": 10644, "\u51b3": 10645, "\u51b4": 10646, "\u51b5": 10647, "\u51b6": 10648, "\u51b7": 10649, "\u51b8": 10650, "\u51b9": 10651, "\u51ba": 10652, "\u51bb": 10653, "\u51bc": 10654, "\u51bd": 10655, "\u51be": 10656, "\u51bf": 10657, "\u51c0": 10658, "\u51c1": 10659, "\u51c2": 10660, "\u51c3": 10661, "\u51c4": 10662, "\u51c5": 10663, "\u51c6": 10664, "\u51c7": 10665, "\u51c8": 10666, "\u51c9": 10667, "\u51ca": 10668, "\u51cb": 10669, "\u51cc": 10670, "\u51cd": 10671, "\u51ce": 10672, "\u51cf": 10673, "\u51d0": 10674, "\u51d1": 10675, "\u51d2": 10676, "\u51d3": 10677, "\u51d4": 10678, "\u51d5": 10679, "\u51d6": 10680, "\u51d7": 10681, "\u51d8": 10682, "\u51d9": 10683, "\u51da": 10684, "\u51db": 10685, "\u51dc": 10686, "\u51dd": 10687, "\u51de": 10688, "\u51df": 10689, "\u51e0": 10690, "\u51e1": 10691, "\u51e2": 10692, "\u51e3": 10693, "\u51e4": 10694, "\u51e5": 10695, "\u51e6": 10696, "\u51e7": 10697, "\u51e8": 10698, "\u51e9": 10699, "\u51ea": 10700, "\u51eb": 10701, "\u51ec": 10702, "\u51ed": 10703, "\u51ee": 10704, "\u51ef": 10705, "\u51f0": 10706, "\u51f1": 10707, "\u51f2": 10708, "\u51f3": 10709, "\u51f4": 10710, "\u51f5": 10711, "\u51f6": 10712, "\u51f7": 10713, "\u51f8": 10714, "\u51f9": 10715, "\u51fa": 10716, "\u51fb": 10717, "\u51fc": 10718, "\u51fd": 10719, "\u51fe": 10720, "\u51ff": 10721, "\u5200": 10722, "\u5201": 10723, "\u5202": 10724, "\u5203": 10725, "\u5204": 10726, "\u5205": 10727, "\u5206": 10728, "\u5207": 10729, "\u5208": 10730, "\u5209": 10731, "\u520a": 10732, "\u520b": 10733, "\u520c": 10734, "\u520d": 10735, "\u520e": 10736, "\u520f": 10737, "\u5210": 10738, "\u5211": 10739, "\u5212": 10740, "\u5213": 10741, "\u5214": 10742, "\u5215": 10743, "\u5216": 10744, "\u5217": 10745, "\u5218": 10746, "\u5219": 10747, "\u521a": 10748, "\u521b": 10749, "\u521c": 10750, "\u521d": 10751, "\u521e": 10752, "\u521f": 10753, "\u5220": 10754, "\u5221": 10755, "\u5222": 10756, "\u5223": 10757, "\u5224": 10758, "\u5225": 10759, "\u5226": 10760, "\u5227": 10761, "\u5228": 10762, "\u5229": 10763, "\u522a": 10764, "\u522b": 10765, "\u522c": 10766, "\u522d": 10767, "\u522e": 10768, "\u522f": 10769, "\u5230": 10770, "\u5231": 10771, "\u5232": 10772, "\u5233": 10773, "\u5234": 10774, "\u5235": 10775, "\u5236": 10776, "\u5237": 10777, "\u5238": 10778, "\u5239": 10779, "\u523a": 10780, "\u523b": 10781, "\u523c": 10782, "\u523d": 10783, "\u523e": 10784, "\u523f": 10785, "\u5240": 10786, "\u5241": 10787, "\u5242": 10788, "\u5243": 10789, "\u5244": 10790, "\u5245": 10791, "\u5246": 10792, "\u5247": 10793, "\u5248": 10794, "\u5249": 10795, "\u524a": 10796, "\u524b": 10797, "\u524c": 10798, "\u524d": 10799, "\u524e": 10800, "\u524f": 10801, "\u5250": 10802, "\u5251": 10803, "\u5252": 10804, "\u5253": 10805, "\u5254": 10806, "\u5255": 10807, "\u5256": 10808, "\u5257": 10809, "\u5258": 10810, "\u5259": 10811, "\u525a": 10812, "\u525b": 10813, "\u525c": 10814, "\u525d": 10815, "\u525e": 10816, "\u525f": 10817, "\u5260": 10818, "\u5261": 10819, "\u5262": 10820, "\u5263": 10821, "\u5264": 10822, "\u5265": 10823, "\u5266": 10824, "\u5267": 10825, "\u5268": 10826, "\u5269": 10827, "\u526a": 10828, "\u526b": 10829, "\u526c": 10830, "\u526d": 10831, "\u526e": 10832, "\u526f": 10833, "\u5270": 10834, "\u5271": 10835, "\u5272": 10836, "\u5273": 10837, "\u5274": 10838, "\u5275": 10839, "\u5276": 10840, "\u5277": 10841, "\u5278": 10842, "\u5279": 10843, "\u527a": 10844, "\u527b": 10845, "\u527c": 10846, "\u527d": 10847, "\u527e": 10848, "\u527f": 10849, "\u5280": 10850, "\u5281": 10851, "\u5282": 10852, "\u5283": 10853, "\u5284": 10854, "\u5285": 10855, "\u5286": 10856, "\u5287": 10857, "\u5288": 10858, "\u5289": 10859, "\u528a": 10860, "\u528b": 10861, "\u528c": 10862, "\u528d": 10863, "\u528e": 10864, "\u528f": 10865, "\u5290": 10866, "\u5291": 10867, "\u5292": 10868, "\u5293": 10869, "\u5294": 10870, "\u5295": 10871, "\u5296": 10872, "\u5297": 10873, "\u5298": 10874, "\u5299": 10875, "\u529a": 10876, "\u529b": 10877, "\u529c": 10878, "\u529d": 10879, "\u529e": 10880, "\u529f": 10881, "\u52a0": 10882, "\u52a1": 10883, "\u52a2": 10884, "\u52a3": 10885, "\u52a4": 10886, "\u52a5": 10887, "\u52a6": 10888, "\u52a7": 10889, "\u52a8": 10890, "\u52a9": 10891, "\u52aa": 10892, "\u52ab": 10893, "\u52ac": 10894, "\u52ad": 10895, "\u52ae": 10896, "\u52af": 10897, "\u52b0": 10898, "\u52b1": 10899, "\u52b2": 10900, "\u52b3": 10901, "\u52b4": 10902, "\u52b5": 10903, "\u52b6": 10904, "\u52b7": 10905, "\u52b8": 10906, "\u52b9": 10907, "\u52ba": 10908, "\u52bb": 10909, "\u52bc": 10910, "\u52bd": 10911, "\u52be": 10912, "\u52bf": 10913, "\u52c0": 10914, "\u52c1": 10915, "\u52c2": 10916, "\u52c3": 10917, "\u52c4": 10918, "\u52c5": 10919, "\u52c6": 10920, "\u52c7": 10921, "\u52c8": 10922, "\u52c9": 10923, "\u52ca": 10924, "\u52cb": 10925, "\u52cc": 10926, "\u52cd": 10927, "\u52ce": 10928, "\u52cf": 10929, "\u52d0": 10930, "\u52d1": 10931, "\u52d2": 10932, "\u52d3": 10933, "\u52d4": 10934, "\u52d5": 10935, "\u52d6": 10936, "\u52d7": 10937, "\u52d8": 10938, "\u52d9": 10939, "\u52da": 10940, "\u52db": 10941, "\u52dc": 10942, "\u52dd": 10943, "\u52de": 10944, "\u52df": 10945, "\u52e0": 10946, "\u52e1": 10947, "\u52e2": 10948, "\u52e3": 10949, "\u52e4": 10950, "\u52e5": 10951, "\u52e6": 10952, "\u52e7": 10953, "\u52e8": 10954, "\u52e9": 10955, "\u52ea": 10956, "\u52eb": 10957, "\u52ec": 10958, "\u52ed": 10959, "\u52ee": 10960, "\u52ef": 10961, "\u52f0": 10962, "\u52f1": 10963, "\u52f2": 10964, "\u52f3": 10965, "\u52f4": 10966, "\u52f5": 10967, "\u52f6": 10968, "\u52f7": 10969, "\u52f8": 10970, "\u52f9": 10971, "\u52fa": 10972, "\u52fb": 10973, "\u52fc": 10974, "\u52fd": 10975, "\u52fe": 10976, "\u52ff": 10977, "\u5300": 10978, "\u5301": 10979, "\u5302": 10980, "\u5303": 10981, "\u5304": 10982, "\u5305": 10983, "\u5306": 10984, "\u5307": 10985, "\u5308": 10986, "\u5309": 10987, "\u530a": 10988, "\u530b": 10989, "\u530c": 10990, "\u530d": 10991, "\u530e": 10992, "\u530f": 10993, "\u5310": 10994, "\u5311": 10995, "\u5312": 10996, "\u5313": 10997, "\u5314": 10998, "\u5315": 10999, "\u5316": 11000, "\u5317": 11001, "\u5318": 11002, "\u5319": 11003, "\u531a": 11004, "\u531b": 11005, "\u531c": 11006, "\u531d": 11007, "\u531e": 11008, "\u531f": 11009, "\u5320": 11010, "\u5321": 11011, "\u5322": 11012, "\u5323": 11013, "\u5324": 11014, "\u5325": 11015, "\u5326": 11016, "\u5327": 11017, "\u5328": 11018, "\u5329": 11019, "\u532a": 11020, "\u532b": 11021, "\u532c": 11022, "\u532d": 11023, "\u532e": 11024, "\u532f": 11025, "\u5330": 11026, "\u5331": 11027, "\u5332": 11028, "\u5333": 11029, "\u5334": 11030, "\u5335": 11031, "\u5336": 11032, "\u5337": 11033, "\u5338": 11034, "\u5339": 11035, "\u533a": 11036, "\u533b": 11037, "\u533c": 11038, "\u533d": 11039, "\u533e": 11040, "\u533f": 11041, "\u5340": 11042, "\u5341": 11043, "\u5342": 11044, "\u5343": 11045, "\u5344": 11046, "\u5345": 11047, "\u5346": 11048, "\u5347": 11049, "\u5348": 11050, "\u5349": 11051, "\u534a": 11052, "\u534b": 11053, "\u534c": 11054, "\u534d": 11055, "\u534e": 11056, "\u534f": 11057, "\u5350": 11058, "\u5351": 11059, "\u5352": 11060, "\u5353": 11061, "\u5354": 11062, "\u5355": 11063, "\u5356": 11064, "\u5357": 11065, "\u5358": 11066, "\u5359": 11067, "\u535a": 11068, "\u535b": 11069, "\u535c": 11070, "\u535d": 11071, "\u535e": 11072, "\u535f": 11073, "\u5360": 11074, "\u5361": 11075, "\u5362": 11076, "\u5363": 11077, "\u5364": 11078, "\u5365": 11079, "\u5366": 11080, "\u5367": 11081, "\u5368": 11082, "\u5369": 11083, "\u536a": 11084, "\u536b": 11085, "\u536c": 11086, "\u536d": 11087, "\u536e": 11088, "\u536f": 11089, "\u5370": 11090, "\u5371": 11091, "\u5372": 11092, "\u5373": 11093, "\u5374": 11094, "\u5375": 11095, "\u5376": 11096, "\u5377": 11097, "\u5378": 11098, "\u5379": 11099, "\u537a": 11100, "\u537b": 11101, "\u537c": 11102, "\u537d": 11103, "\u537e": 11104, "\u537f": 11105, "\u5380": 11106, "\u5381": 11107, "\u5382": 11108, "\u5383": 11109, "\u5384": 11110, "\u5385": 11111, "\u5386": 11112, "\u5387": 11113, "\u5388": 11114, "\u5389": 11115, "\u538a": 11116, "\u538b": 11117, "\u538c": 11118, "\u538d": 11119, "\u538e": 11120, "\u538f": 11121, "\u5390": 11122, "\u5391": 11123, "\u5392": 11124, "\u5393": 11125, "\u5394": 11126, "\u5395": 11127, "\u5396": 11128, "\u5397": 11129, "\u5398": 11130, "\u5399": 11131, "\u539a": 11132, "\u539b": 11133, "\u539c": 11134, "\u539d": 11135, "\u539e": 11136, "\u539f": 11137, "\u53a0": 11138, "\u53a1": 11139, "\u53a2": 11140, "\u53a3": 11141, "\u53a4": 11142, "\u53a5": 11143, "\u53a6": 11144, "\u53a7": 11145, "\u53a8": 11146, "\u53a9": 11147, "\u53aa": 11148, "\u53ab": 11149, "\u53ac": 11150, "\u53ad": 11151, "\u53ae": 11152, "\u53af": 11153, "\u53b0": 11154, "\u53b1": 11155, "\u53b2": 11156, "\u53b3": 11157, "\u53b4": 11158, "\u53b5": 11159, "\u53b6": 11160, "\u53b7": 11161, "\u53b8": 11162, "\u53b9": 11163, "\u53ba": 11164, "\u53bb": 11165, "\u53bc": 11166, "\u53bd": 11167, "\u53be": 11168, "\u53bf": 11169, "\u53c0": 11170, "\u53c1": 11171, "\u53c2": 11172, "\u53c3": 11173, "\u53c4": 11174, "\u53c5": 11175, "\u53c6": 11176, "\u53c7": 11177, "\u53c8": 11178, "\u53c9": 11179, "\u53ca": 11180, "\u53cb": 11181, "\u53cc": 11182, "\u53cd": 11183, "\u53ce": 11184, "\u53cf": 11185, "\u53d0": 11186, "\u53d1": 11187, "\u53d2": 11188, "\u53d3": 11189, "\u53d4": 11190, "\u53d5": 11191, "\u53d6": 11192, "\u53d7": 11193, "\u53d8": 11194, "\u53d9": 11195, "\u53da": 11196, "\u53db": 11197, "\u53dc": 11198, "\u53dd": 11199, "\u53de": 11200, "\u53df": 11201, "\u53e0": 11202, "\u53e1": 11203, "\u53e2": 11204, "\u53e3": 11205, "\u53e4": 11206, "\u53e5": 11207, "\u53e6": 11208, "\u53e7": 11209, "\u53e8": 11210, "\u53e9": 11211, "\u53ea": 11212, "\u53eb": 11213, "\u53ec": 11214, "\u53ed": 11215, "\u53ee": 11216, "\u53ef": 11217, "\u53f0": 11218, "\u53f1": 11219, "\u53f2": 11220, "\u53f3": 11221, "\u53f4": 11222, "\u53f5": 11223, "\u53f6": 11224, "\u53f7": 11225, "\u53f8": 11226, "\u53f9": 11227, "\u53fa": 11228, "\u53fb": 11229, "\u53fc": 11230, "\u53fd": 11231, "\u53fe": 11232, "\u53ff": 11233, "\u5400": 11234, "\u5401": 11235, "\u5402": 11236, "\u5403": 11237, "\u5404": 11238, "\u5405": 11239, "\u5406": 11240, "\u5407": 11241, "\u5408": 11242, "\u5409": 11243, "\u540a": 11244, "\u540b": 11245, "\u540c": 11246, "\u540d": 11247, "\u540e": 11248, "\u540f": 11249, "\u5410": 11250, "\u5411": 11251, "\u5412": 11252, "\u5413": 11253, "\u5414": 11254, "\u5415": 11255, "\u5416": 11256, "\u5417": 11257, "\u5418": 11258, "\u5419": 11259, "\u541a": 11260, "\u541b": 11261, "\u541c": 11262, "\u541d": 11263, "\u541e": 11264, "\u541f": 11265, "\u5420": 11266, "\u5421": 11267, "\u5422": 11268, "\u5423": 11269, "\u5424": 11270, "\u5425": 11271, "\u5426": 11272, "\u5427": 11273, "\u5428": 11274, "\u5429": 11275, "\u542a": 11276, "\u542b": 11277, "\u542c": 11278, "\u542d": 11279, "\u542e": 11280, "\u542f": 11281, "\u5430": 11282, "\u5431": 11283, "\u5432": 11284, "\u5433": 11285, "\u5434": 11286, "\u5435": 11287, "\u5436": 11288, "\u5437": 11289, "\u5438": 11290, "\u5439": 11291, "\u543a": 11292, "\u543b": 11293, "\u543c": 11294, "\u543d": 11295, "\u543e": 11296, "\u543f": 11297, "\u5440": 11298, "\u5441": 11299, "\u5442": 11300, "\u5443": 11301, "\u5444": 11302, "\u5445": 11303, "\u5446": 11304, "\u5447": 11305, "\u5448": 11306, "\u5449": 11307, "\u544a": 11308, "\u544b": 11309, "\u544c": 11310, "\u544d": 11311, "\u544e": 11312, "\u544f": 11313, "\u5450": 11314, "\u5451": 11315, "\u5452": 11316, "\u5453": 11317, "\u5454": 11318, "\u5455": 11319, "\u5456": 11320, "\u5457": 11321, "\u5458": 11322, "\u5459": 11323, "\u545a": 11324, "\u545b": 11325, "\u545c": 11326, "\u545d": 11327, "\u545e": 11328, "\u545f": 11329, "\u5460": 11330, "\u5461": 11331, "\u5462": 11332, "\u5463": 11333, "\u5464": 11334, "\u5465": 11335, "\u5466": 11336, "\u5467": 11337, "\u5468": 11338, "\u5469": 11339, "\u546a": 11340, "\u546b": 11341, "\u546c": 11342, "\u546d": 11343, "\u546e": 11344, "\u546f": 11345, "\u5470": 11346, "\u5471": 11347, "\u5472": 11348, "\u5473": 11349, "\u5474": 11350, "\u5475": 11351, "\u5476": 11352, "\u5477": 11353, "\u5478": 11354, "\u5479": 11355, "\u547a": 11356, "\u547b": 11357, "\u547c": 11358, "\u547d": 11359, "\u547e": 11360, "\u547f": 11361, "\u5480": 11362, "\u5481": 11363, "\u5482": 11364, "\u5483": 11365, "\u5484": 11366, "\u5485": 11367, "\u5486": 11368, "\u5487": 11369, "\u5488": 11370, "\u5489": 11371, "\u548a": 11372, "\u548b": 11373, "\u548c": 11374, "\u548d": 11375, "\u548e": 11376, "\u548f": 11377, "\u5490": 11378, "\u5491": 11379, "\u5492": 11380, "\u5493": 11381, "\u5494": 11382, "\u5495": 11383, "\u5496": 11384, "\u5497": 11385, "\u5498": 11386, "\u5499": 11387, "\u549a": 11388, "\u549b": 11389, "\u549c": 11390, "\u549d": 11391, "\u549e": 11392, "\u549f": 11393, "\u54a0": 11394, "\u54a1": 11395, "\u54a2": 11396, "\u54a3": 11397, "\u54a4": 11398, "\u54a5": 11399, "\u54a6": 11400, "\u54a7": 11401, "\u54a8": 11402, "\u54a9": 11403, "\u54aa": 11404, "\u54ab": 11405, "\u54ac": 11406, "\u54ad": 11407, "\u54ae": 11408, "\u54af": 11409, "\u54b0": 11410, "\u54b1": 11411, "\u54b2": 11412, "\u54b3": 11413, "\u54b4": 11414, "\u54b5": 11415, "\u54b6": 11416, "\u54b7": 11417, "\u54b8": 11418, "\u54b9": 11419, "\u54ba": 11420, "\u54bb": 11421, "\u54bc": 11422, "\u54bd": 11423, "\u54be": 11424, "\u54bf": 11425, "\u54c0": 11426, "\u54c1": 11427, "\u54c2": 11428, "\u54c3": 11429, "\u54c4": 11430, "\u54c5": 11431, "\u54c6": 11432, "\u54c7": 11433, "\u54c8": 11434, "\u54c9": 11435, "\u54ca": 11436, "\u54cb": 11437, "\u54cc": 11438, "\u54cd": 11439, "\u54ce": 11440, "\u54cf": 11441, "\u54d0": 11442, "\u54d1": 11443, "\u54d2": 11444, "\u54d3": 11445, "\u54d4": 11446, "\u54d5": 11447, "\u54d6": 11448, "\u54d7": 11449, "\u54d8": 11450, "\u54d9": 11451, "\u54da": 11452, "\u54db": 11453, "\u54dc": 11454, "\u54dd": 11455, "\u54de": 11456, "\u54df": 11457, "\u54e0": 11458, "\u54e1": 11459, "\u54e2": 11460, "\u54e3": 11461, "\u54e4": 11462, "\u54e5": 11463, "\u54e6": 11464, "\u54e7": 11465, "\u54e8": 11466, "\u54e9": 11467, "\u54ea": 11468, "\u54eb": 11469, "\u54ec": 11470, "\u54ed": 11471, "\u54ee": 11472, "\u54ef": 11473, "\u54f0": 11474, "\u54f1": 11475, "\u54f2": 11476, "\u54f3": 11477, "\u54f4": 11478, "\u54f5": 11479, "\u54f6": 11480, "\u54f7": 11481, "\u54f8": 11482, "\u54f9": 11483, "\u54fa": 11484, "\u54fb": 11485, "\u54fc": 11486, "\u54fd": 11487, "\u54fe": 11488, "\u54ff": 11489, "\u5500": 11490, "\u5501": 11491, "\u5502": 11492, "\u5503": 11493, "\u5504": 11494, "\u5505": 11495, "\u5506": 11496, "\u5507": 11497, "\u5508": 11498, "\u5509": 11499, "\u550a": 11500, "\u550b": 11501, "\u550c": 11502, "\u550d": 11503, "\u550e": 11504, "\u550f": 11505, "\u5510": 11506, "\u5511": 11507, "\u5512": 11508, "\u5513": 11509, "\u5514": 11510, "\u5515": 11511, "\u5516": 11512, "\u5517": 11513, "\u5518": 11514, "\u5519": 11515, "\u551a": 11516, "\u551b": 11517, "\u551c": 11518, "\u551d": 11519, "\u551e": 11520, "\u551f": 11521, "\u5520": 11522, "\u5521": 11523, "\u5522": 11524, "\u5523": 11525, "\u5524": 11526, "\u5525": 11527, "\u5526": 11528, "\u5527": 11529, "\u5528": 11530, "\u5529": 11531, "\u552a": 11532, "\u552b": 11533, "\u552c": 11534, "\u552d": 11535, "\u552e": 11536, "\u552f": 11537, "\u5530": 11538, "\u5531": 11539, "\u5532": 11540, "\u5533": 11541, "\u5534": 11542, "\u5535": 11543, "\u5536": 11544, "\u5537": 11545, "\u5538": 11546, "\u5539": 11547, "\u553a": 11548, "\u553b": 11549, "\u553c": 11550, "\u553d": 11551, "\u553e": 11552, "\u553f": 11553, "\u5540": 11554, "\u5541": 11555, "\u5542": 11556, "\u5543": 11557, "\u5544": 11558, "\u5545": 11559, "\u5546": 11560, "\u5547": 11561, "\u5548": 11562, "\u5549": 11563, "\u554a": 11564, "\u554b": 11565, "\u554c": 11566, "\u554d": 11567, "\u554e": 11568, "\u554f": 11569, "\u5550": 11570, "\u5551": 11571, "\u5552": 11572, "\u5553": 11573, "\u5554": 11574, "\u5555": 11575, "\u5556": 11576, "\u5557": 11577, "\u5558": 11578, "\u5559": 11579, "\u555a": 11580, "\u555b": 11581, "\u555c": 11582, "\u555d": 11583, "\u555e": 11584, "\u555f": 11585, "\u5560": 11586, "\u5561": 11587, "\u5562": 11588, "\u5563": 11589, "\u5564": 11590, "\u5565": 11591, "\u5566": 11592, "\u5567": 11593, "\u5568": 11594, "\u5569": 11595, "\u556a": 11596, "\u556b": 11597, "\u556c": 11598, "\u556d": 11599, "\u556e": 11600, "\u556f": 11601, "\u5570": 11602, "\u5571": 11603, "\u5572": 11604, "\u5573": 11605, "\u5574": 11606, "\u5575": 11607, "\u5576": 11608, "\u5577": 11609, "\u5578": 11610, "\u5579": 11611, "\u557a": 11612, "\u557b": 11613, "\u557c": 11614, "\u557d": 11615, "\u557e": 11616, "\u557f": 11617, "\u5580": 11618, "\u5581": 11619, "\u5582": 11620, "\u5583": 11621, "\u5584": 11622, "\u5585": 11623, "\u5586": 11624, "\u5587": 11625, "\u5588": 11626, "\u5589": 11627, "\u558a": 11628, "\u558b": 11629, "\u558c": 11630, "\u558d": 11631, "\u558e": 11632, "\u558f": 11633, "\u5590": 11634, "\u5591": 11635, "\u5592": 11636, "\u5593": 11637, "\u5594": 11638, "\u5595": 11639, "\u5596": 11640, "\u5597": 11641, "\u5598": 11642, "\u5599": 11643, "\u559a": 11644, "\u559b": 11645, "\u559c": 11646, "\u559d": 11647, "\u559e": 11648, "\u559f": 11649, "\u55a0": 11650, "\u55a1": 11651, "\u55a2": 11652, "\u55a3": 11653, "\u55a4": 11654, "\u55a5": 11655, "\u55a6": 11656, "\u55a7": 11657, "\u55a8": 11658, "\u55a9": 11659, "\u55aa": 11660, "\u55ab": 11661, "\u55ac": 11662, "\u55ad": 11663, "\u55ae": 11664, "\u55af": 11665, "\u55b0": 11666, "\u55b1": 11667, "\u55b2": 11668, "\u55b3": 11669, "\u55b4": 11670, "\u55b5": 11671, "\u55b6": 11672, "\u55b7": 11673, "\u55b8": 11674, "\u55b9": 11675, "\u55ba": 11676, "\u55bb": 11677, "\u55bc": 11678, "\u55bd": 11679, "\u55be": 11680, "\u55bf": 11681, "\u55c0": 11682, "\u55c1": 11683, "\u55c2": 11684, "\u55c3": 11685, "\u55c4": 11686, "\u55c5": 11687, "\u55c6": 11688, "\u55c7": 11689, "\u55c8": 11690, "\u55c9": 11691, "\u55ca": 11692, "\u55cb": 11693, "\u55cc": 11694, "\u55cd": 11695, "\u55ce": 11696, "\u55cf": 11697, "\u55d0": 11698, "\u55d1": 11699, "\u55d2": 11700, "\u55d3": 11701, "\u55d4": 11702, "\u55d5": 11703, "\u55d6": 11704, "\u55d7": 11705, "\u55d8": 11706, "\u55d9": 11707, "\u55da": 11708, "\u55db": 11709, "\u55dc": 11710, "\u55dd": 11711, "\u55de": 11712, "\u55df": 11713, "\u55e0": 11714, "\u55e1": 11715, "\u55e2": 11716, "\u55e3": 11717, "\u55e4": 11718, "\u55e5": 11719, "\u55e6": 11720, "\u55e7": 11721, "\u55e8": 11722, "\u55e9": 11723, "\u55ea": 11724, "\u55eb": 11725, "\u55ec": 11726, "\u55ed": 11727, "\u55ee": 11728, "\u55ef": 11729, "\u55f0": 11730, "\u55f1": 11731, "\u55f2": 11732, "\u55f3": 11733, "\u55f4": 11734, "\u55f5": 11735, "\u55f6": 11736, "\u55f7": 11737, "\u55f8": 11738, "\u55f9": 11739, "\u55fa": 11740, "\u55fb": 11741, "\u55fc": 11742, "\u55fd": 11743, "\u55fe": 11744, "\u55ff": 11745, "\u5600": 11746, "\u5601": 11747, "\u5602": 11748, "\u5603": 11749, "\u5604": 11750, "\u5605": 11751, "\u5606": 11752, "\u5607": 11753, "\u5608": 11754, "\u5609": 11755, "\u560a": 11756, "\u560b": 11757, "\u560c": 11758, "\u560d": 11759, "\u560e": 11760, "\u560f": 11761, "\u5610": 11762, "\u5611": 11763, "\u5612": 11764, "\u5613": 11765, "\u5614": 11766, "\u5615": 11767, "\u5616": 11768, "\u5617": 11769, "\u5618": 11770, "\u5619": 11771, "\u561a": 11772, "\u561b": 11773, "\u561c": 11774, "\u561d": 11775, "\u561e": 11776, "\u561f": 11777, "\u5620": 11778, "\u5621": 11779, "\u5622": 11780, "\u5623": 11781, "\u5624": 11782, "\u5625": 11783, "\u5626": 11784, "\u5627": 11785, "\u5628": 11786, "\u5629": 11787, "\u562a": 11788, "\u562b": 11789, "\u562c": 11790, "\u562d": 11791, "\u562e": 11792, "\u562f": 11793, "\u5630": 11794, "\u5631": 11795, "\u5632": 11796, "\u5633": 11797, "\u5634": 11798, "\u5635": 11799, "\u5636": 11800, "\u5637": 11801, "\u5638": 11802, "\u5639": 11803, "\u563a": 11804, "\u563b": 11805, "\u563c": 11806, "\u563d": 11807, "\u563e": 11808, "\u563f": 11809, "\u5640": 11810, "\u5641": 11811, "\u5642": 11812, "\u5643": 11813, "\u5644": 11814, "\u5645": 11815, "\u5646": 11816, "\u5647": 11817, "\u5648": 11818, "\u5649": 11819, "\u564a": 11820, "\u564b": 11821, "\u564c": 11822, "\u564d": 11823, "\u564e": 11824, "\u564f": 11825, "\u5650": 11826, "\u5651": 11827, "\u5652": 11828, "\u5653": 11829, "\u5654": 11830, "\u5655": 11831, "\u5656": 11832, "\u5657": 11833, "\u5658": 11834, "\u5659": 11835, "\u565a": 11836, "\u565b": 11837, "\u565c": 11838, "\u565d": 11839, "\u565e": 11840, "\u565f": 11841, "\u5660": 11842, "\u5661": 11843, "\u5662": 11844, "\u5663": 11845, "\u5664": 11846, "\u5665": 11847, "\u5666": 11848, "\u5667": 11849, "\u5668": 11850, "\u5669": 11851, "\u566a": 11852, "\u566b": 11853, "\u566c": 11854, "\u566d": 11855, "\u566e": 11856, "\u566f": 11857, "\u5670": 11858, "\u5671": 11859, "\u5672": 11860, "\u5673": 11861, "\u5674": 11862, "\u5675": 11863, "\u5676": 11864, "\u5677": 11865, "\u5678": 11866, "\u5679": 11867, "\u567a": 11868, "\u567b": 11869, "\u567c": 11870, "\u567d": 11871, "\u567e": 11872, "\u567f": 11873, "\u5680": 11874, "\u5681": 11875, "\u5682": 11876, "\u5683": 11877, "\u5684": 11878, "\u5685": 11879, "\u5686": 11880, "\u5687": 11881, "\u5688": 11882, "\u5689": 11883, "\u568a": 11884, "\u568b": 11885, "\u568c": 11886, "\u568d": 11887, "\u568e": 11888, "\u568f": 11889, "\u5690": 11890, "\u5691": 11891, "\u5692": 11892, "\u5693": 11893, "\u5694": 11894, "\u5695": 11895, "\u5696": 11896, "\u5697": 11897, "\u5698": 11898, "\u5699": 11899, "\u569a": 11900, "\u569b": 11901, "\u569c": 11902, "\u569d": 11903, "\u569e": 11904, "\u569f": 11905, "\u56a0": 11906, "\u56a1": 11907, "\u56a2": 11908, "\u56a3": 11909, "\u56a4": 11910, "\u56a5": 11911, "\u56a6": 11912, "\u56a7": 11913, "\u56a8": 11914, "\u56a9": 11915, "\u56aa": 11916, "\u56ab": 11917, "\u56ac": 11918, "\u56ad": 11919, "\u56ae": 11920, "\u56af": 11921, "\u56b0": 11922, "\u56b1": 11923, "\u56b2": 11924, "\u56b3": 11925, "\u56b4": 11926, "\u56b5": 11927, "\u56b6": 11928, "\u56b7": 11929, "\u56b8": 11930, "\u56b9": 11931, "\u56ba": 11932, "\u56bb": 11933, "\u56bc": 11934, "\u56bd": 11935, "\u56be": 11936, "\u56bf": 11937, "\u56c0": 11938, "\u56c1": 11939, "\u56c2": 11940, "\u56c3": 11941, "\u56c4": 11942, "\u56c5": 11943, "\u56c6": 11944, "\u56c7": 11945, "\u56c8": 11946, "\u56c9": 11947, "\u56ca": 11948, "\u56cb": 11949, "\u56cc": 11950, "\u56cd": 11951, "\u56ce": 11952, "\u56cf": 11953, "\u56d0": 11954, "\u56d1": 11955, "\u56d2": 11956, "\u56d3": 11957, "\u56d4": 11958, "\u56d5": 11959, "\u56d6": 11960, "\u56d7": 11961, "\u56d8": 11962, "\u56d9": 11963, "\u56da": 11964, "\u56db": 11965, "\u56dc": 11966, "\u56dd": 11967, "\u56de": 11968, "\u56df": 11969, "\u56e0": 11970, "\u56e1": 11971, "\u56e2": 11972, "\u56e3": 11973, "\u56e4": 11974, "\u56e5": 11975, "\u56e6": 11976, "\u56e7": 11977, "\u56e8": 11978, "\u56e9": 11979, "\u56ea": 11980, "\u56eb": 11981, "\u56ec": 11982, "\u56ed": 11983, "\u56ee": 11984, "\u56ef": 11985, "\u56f0": 11986, "\u56f1": 11987, "\u56f2": 11988, "\u56f3": 11989, "\u56f4": 11990, "\u56f5": 11991, "\u56f6": 11992, "\u56f7": 11993, "\u56f8": 11994, "\u56f9": 11995, "\u56fa": 11996, "\u56fb": 11997, "\u56fc": 11998, "\u56fd": 11999, "\u56fe": 12000, "\u56ff": 12001, "\u5700": 12002, "\u5701": 12003, "\u5702": 12004, "\u5703": 12005, "\u5704": 12006, "\u5705": 12007, "\u5706": 12008, "\u5707": 12009, "\u5708": 12010, "\u5709": 12011, "\u570a": 12012, "\u570b": 12013, "\u570c": 12014, "\u570d": 12015, "\u570e": 12016, "\u570f": 12017, "\u5710": 12018, "\u5711": 12019, "\u5712": 12020, "\u5713": 12021, "\u5714": 12022, "\u5715": 12023, "\u5716": 12024, "\u5717": 12025, "\u5718": 12026, "\u5719": 12027, "\u571a": 12028, "\u571b": 12029, "\u571c": 12030, "\u571d": 12031, "\u571e": 12032, "\u571f": 12033, "\u5720": 12034, "\u5721": 12035, "\u5722": 12036, "\u5723": 12037, "\u5724": 12038, "\u5725": 12039, "\u5726": 12040, "\u5727": 12041, "\u5728": 12042, "\u5729": 12043, "\u572a": 12044, "\u572b": 12045, "\u572c": 12046, "\u572d": 12047, "\u572e": 12048, "\u572f": 12049, "\u5730": 12050, "\u5731": 12051, "\u5732": 12052, "\u5733": 12053, "\u5734": 12054, "\u5735": 12055, "\u5736": 12056, "\u5737": 12057, "\u5738": 12058, "\u5739": 12059, "\u573a": 12060, "\u573b": 12061, "\u573c": 12062, "\u573d": 12063, "\u573e": 12064, "\u573f": 12065, "\u5740": 12066, "\u5741": 12067, "\u5742": 12068, "\u5743": 12069, "\u5744": 12070, "\u5745": 12071, "\u5746": 12072, "\u5747": 12073, "\u5748": 12074, "\u5749": 12075, "\u574a": 12076, "\u574b": 12077, "\u574c": 12078, "\u574d": 12079, "\u574e": 12080, "\u574f": 12081, "\u5750": 12082, "\u5751": 12083, "\u5752": 12084, "\u5753": 12085, "\u5754": 12086, "\u5755": 12087, "\u5756": 12088, "\u5757": 12089, "\u5758": 12090, "\u5759": 12091, "\u575a": 12092, "\u575b": 12093, "\u575c": 12094, "\u575d": 12095, "\u575e": 12096, "\u575f": 12097, "\u5760": 12098, "\u5761": 12099, "\u5762": 12100, "\u5763": 12101, "\u5764": 12102, "\u5765": 12103, "\u5766": 12104, "\u5767": 12105, "\u5768": 12106, "\u5769": 12107, "\u576a": 12108, "\u576b": 12109, "\u576c": 12110, "\u576d": 12111, "\u576e": 12112, "\u576f": 12113, "\u5770": 12114, "\u5771": 12115, "\u5772": 12116, "\u5773": 12117, "\u5774": 12118, "\u5775": 12119, "\u5776": 12120, "\u5777": 12121, "\u5778": 12122, "\u5779": 12123, "\u577a": 12124, "\u577b": 12125, "\u577c": 12126, "\u577d": 12127, "\u577e": 12128, "\u577f": 12129, "\u5780": 12130, "\u5781": 12131, "\u5782": 12132, "\u5783": 12133, "\u5784": 12134, "\u5785": 12135, "\u5786": 12136, "\u5787": 12137, "\u5788": 12138, "\u5789": 12139, "\u578a": 12140, "\u578b": 12141, "\u578c": 12142, "\u578d": 12143, "\u578e": 12144, "\u578f": 12145, "\u5790": 12146, "\u5791": 12147, "\u5792": 12148, "\u5793": 12149, "\u5794": 12150, "\u5795": 12151, "\u5796": 12152, "\u5797": 12153, "\u5798": 12154, "\u5799": 12155, "\u579a": 12156, "\u579b": 12157, "\u579c": 12158, "\u579d": 12159, "\u579e": 12160, "\u579f": 12161, "\u57a0": 12162, "\u57a1": 12163, "\u57a2": 12164, "\u57a3": 12165, "\u57a4": 12166, "\u57a5": 12167, "\u57a6": 12168, "\u57a7": 12169, "\u57a8": 12170, "\u57a9": 12171, "\u57aa": 12172, "\u57ab": 12173, "\u57ac": 12174, "\u57ad": 12175, "\u57ae": 12176, "\u57af": 12177, "\u57b0": 12178, "\u57b1": 12179, "\u57b2": 12180, "\u57b3": 12181, "\u57b4": 12182, "\u57b5": 12183, "\u57b6": 12184, "\u57b7": 12185, "\u57b8": 12186, "\u57b9": 12187, "\u57ba": 12188, "\u57bb": 12189, "\u57bc": 12190, "\u57bd": 12191, "\u57be": 12192, "\u57bf": 12193, "\u57c0": 12194, "\u57c1": 12195, "\u57c2": 12196, "\u57c3": 12197, "\u57c4": 12198, "\u57c5": 12199, "\u57c6": 12200, "\u57c7": 12201, "\u57c8": 12202, "\u57c9": 12203, "\u57ca": 12204, "\u57cb": 12205, "\u57cc": 12206, "\u57cd": 12207, "\u57ce": 12208, "\u57cf": 12209, "\u57d0": 12210, "\u57d1": 12211, "\u57d2": 12212, "\u57d3": 12213, "\u57d4": 12214, "\u57d5": 12215, "\u57d6": 12216, "\u57d7": 12217, "\u57d8": 12218, "\u57d9": 12219, "\u57da": 12220, "\u57db": 12221, "\u57dc": 12222, "\u57dd": 12223, "\u57de": 12224, "\u57df": 12225, "\u57e0": 12226, "\u57e1": 12227, "\u57e2": 12228, "\u57e3": 12229, "\u57e4": 12230, "\u57e5": 12231, "\u57e6": 12232, "\u57e7": 12233, "\u57e8": 12234, "\u57e9": 12235, "\u57ea": 12236, "\u57eb": 12237, "\u57ec": 12238, "\u57ed": 12239, "\u57ee": 12240, "\u57ef": 12241, "\u57f0": 12242, "\u57f1": 12243, "\u57f2": 12244, "\u57f3": 12245, "\u57f4": 12246, "\u57f5": 12247, "\u57f6": 12248, "\u57f7": 12249, "\u57f8": 12250, "\u57f9": 12251, "\u57fa": 12252, "\u57fb": 12253, "\u57fc": 12254, "\u57fd": 12255, "\u57fe": 12256, "\u57ff": 12257, "\u5800": 12258, "\u5801": 12259, "\u5802": 12260, "\u5803": 12261, "\u5804": 12262, "\u5805": 12263, "\u5806": 12264, "\u5807": 12265, "\u5808": 12266, "\u5809": 12267, "\u580a": 12268, "\u580b": 12269, "\u580c": 12270, "\u580d": 12271, "\u580e": 12272, "\u580f": 12273, "\u5810": 12274, "\u5811": 12275, "\u5812": 12276, "\u5813": 12277, "\u5814": 12278, "\u5815": 12279, "\u5816": 12280, "\u5817": 12281, "\u5818": 12282, "\u5819": 12283, "\u581a": 12284, "\u581b": 12285, "\u581c": 12286, "\u581d": 12287, "\u581e": 12288, "\u581f": 12289, "\u5820": 12290, "\u5821": 12291, "\u5822": 12292, "\u5823": 12293, "\u5824": 12294, "\u5825": 12295, "\u5826": 12296, "\u5827": 12297, "\u5828": 12298, "\u5829": 12299, "\u582a": 12300, "\u582b": 12301, "\u582c": 12302, "\u582d": 12303, "\u582e": 12304, "\u582f": 12305, "\u5830": 12306, "\u5831": 12307, "\u5832": 12308, "\u5833": 12309, "\u5834": 12310, "\u5835": 12311, "\u5836": 12312, "\u5837": 12313, "\u5838": 12314, "\u5839": 12315, "\u583a": 12316, "\u583b": 12317, "\u583c": 12318, "\u583d": 12319, "\u583e": 12320, "\u583f": 12321, "\u5840": 12322, "\u5841": 12323, "\u5842": 12324, "\u5843": 12325, "\u5844": 12326, "\u5845": 12327, "\u5846": 12328, "\u5847": 12329, "\u5848": 12330, "\u5849": 12331, "\u584a": 12332, "\u584b": 12333, "\u584c": 12334, "\u584d": 12335, "\u584e": 12336, "\u584f": 12337, "\u5850": 12338, "\u5851": 12339, "\u5852": 12340, "\u5853": 12341, "\u5854": 12342, "\u5855": 12343, "\u5856": 12344, "\u5857": 12345, "\u5858": 12346, "\u5859": 12347, "\u585a": 12348, "\u585b": 12349, "\u585c": 12350, "\u585d": 12351, "\u585e": 12352, "\u585f": 12353, "\u5860": 12354, "\u5861": 12355, "\u5862": 12356, "\u5863": 12357, "\u5864": 12358, "\u5865": 12359, "\u5866": 12360, "\u5867": 12361, "\u5868": 12362, "\u5869": 12363, "\u586a": 12364, "\u586b": 12365, "\u586c": 12366, "\u586d": 12367, "\u586e": 12368, "\u586f": 12369, "\u5870": 12370, "\u5871": 12371, "\u5872": 12372, "\u5873": 12373, "\u5874": 12374, "\u5875": 12375, "\u5876": 12376, "\u5877": 12377, "\u5878": 12378, "\u5879": 12379, "\u587a": 12380, "\u587b": 12381, "\u587c": 12382, "\u587d": 12383, "\u587e": 12384, "\u587f": 12385, "\u5880": 12386, "\u5881": 12387, "\u5882": 12388, "\u5883": 12389, "\u5884": 12390, "\u5885": 12391, "\u5886": 12392, "\u5887": 12393, "\u5888": 12394, "\u5889": 12395, "\u588a": 12396, "\u588b": 12397, "\u588c": 12398, "\u588d": 12399, "\u588e": 12400, "\u588f": 12401, "\u5890": 12402, "\u5891": 12403, "\u5892": 12404, "\u5893": 12405, "\u5894": 12406, "\u5895": 12407, "\u5896": 12408, "\u5897": 12409, "\u5898": 12410, "\u5899": 12411, "\u589a": 12412, "\u589b": 12413, "\u589c": 12414, "\u589d": 12415, "\u589e": 12416, "\u589f": 12417, "\u58a0": 12418, "\u58a1": 12419, "\u58a2": 12420, "\u58a3": 12421, "\u58a4": 12422, "\u58a5": 12423, "\u58a6": 12424, "\u58a7": 12425, "\u58a8": 12426, "\u58a9": 12427, "\u58aa": 12428, "\u58ab": 12429, "\u58ac": 12430, "\u58ad": 12431, "\u58ae": 12432, "\u58af": 12433, "\u58b0": 12434, "\u58b1": 12435, "\u58b2": 12436, "\u58b3": 12437, "\u58b4": 12438, "\u58b5": 12439, "\u58b6": 12440, "\u58b7": 12441, "\u58b8": 12442, "\u58b9": 12443, "\u58ba": 12444, "\u58bb": 12445, "\u58bc": 12446, "\u58bd": 12447, "\u58be": 12448, "\u58bf": 12449, "\u58c0": 12450, "\u58c1": 12451, "\u58c2": 12452, "\u58c3": 12453, "\u58c4": 12454, "\u58c5": 12455, "\u58c6": 12456, "\u58c7": 12457, "\u58c8": 12458, "\u58c9": 12459, "\u58ca": 12460, "\u58cb": 12461, "\u58cc": 12462, "\u58cd": 12463, "\u58ce": 12464, "\u58cf": 12465, "\u58d0": 12466, "\u58d1": 12467, "\u58d2": 12468, "\u58d3": 12469, "\u58d4": 12470, "\u58d5": 12471, "\u58d6": 12472, "\u58d7": 12473, "\u58d8": 12474, "\u58d9": 12475, "\u58da": 12476, "\u58db": 12477, "\u58dc": 12478, "\u58dd": 12479, "\u58de": 12480, "\u58df": 12481, "\u58e0": 12482, "\u58e1": 12483, "\u58e2": 12484, "\u58e3": 12485, "\u58e4": 12486, "\u58e5": 12487, "\u58e6": 12488, "\u58e7": 12489, "\u58e8": 12490, "\u58e9": 12491, "\u58ea": 12492, "\u58eb": 12493, "\u58ec": 12494, "\u58ed": 12495, "\u58ee": 12496, "\u58ef": 12497, "\u58f0": 12498, "\u58f1": 12499, "\u58f2": 12500, "\u58f3": 12501, "\u58f4": 12502, "\u58f5": 12503, "\u58f6": 12504, "\u58f7": 12505, "\u58f8": 12506, "\u58f9": 12507, "\u58fa": 12508, "\u58fb": 12509, "\u58fc": 12510, "\u58fd": 12511, "\u58fe": 12512, "\u58ff": 12513, "\u5900": 12514, "\u5901": 12515, "\u5902": 12516, "\u5903": 12517, "\u5904": 12518, "\u5905": 12519, "\u5906": 12520, "\u5907": 12521, "\u5908": 12522, "\u5909": 12523, "\u590a": 12524, "\u590b": 12525, "\u590c": 12526, "\u590d": 12527, "\u590e": 12528, "\u590f": 12529, "\u5910": 12530, "\u5911": 12531, "\u5912": 12532, "\u5913": 12533, "\u5914": 12534, "\u5915": 12535, "\u5916": 12536, "\u5917": 12537, "\u5918": 12538, "\u5919": 12539, "\u591a": 12540, "\u591b": 12541, "\u591c": 12542, "\u591d": 12543, "\u591e": 12544, "\u591f": 12545, "\u5920": 12546, "\u5921": 12547, "\u5922": 12548, "\u5923": 12549, "\u5924": 12550, "\u5925": 12551, "\u5926": 12552, "\u5927": 12553, "\u5928": 12554, "\u5929": 12555, "\u592a": 12556, "\u592b": 12557, "\u592c": 12558, "\u592d": 12559, "\u592e": 12560, "\u592f": 12561, "\u5930": 12562, "\u5931": 12563, "\u5932": 12564, "\u5933": 12565, "\u5934": 12566, "\u5935": 12567, "\u5936": 12568, "\u5937": 12569, "\u5938": 12570, "\u5939": 12571, "\u593a": 12572, "\u593b": 12573, "\u593c": 12574, "\u593d": 12575, "\u593e": 12576, "\u593f": 12577, "\u5940": 12578, "\u5941": 12579, "\u5942": 12580, "\u5943": 12581, "\u5944": 12582, "\u5945": 12583, "\u5946": 12584, "\u5947": 12585, "\u5948": 12586, "\u5949": 12587, "\u594a": 12588, "\u594b": 12589, "\u594c": 12590, "\u594d": 12591, "\u594e": 12592, "\u594f": 12593, "\u5950": 12594, "\u5951": 12595, "\u5952": 12596, "\u5953": 12597, "\u5954": 12598, "\u5955": 12599, "\u5956": 12600, "\u5957": 12601, "\u5958": 12602, "\u5959": 12603, "\u595a": 12604, "\u595b": 12605, "\u595c": 12606, "\u595d": 12607, "\u595e": 12608, "\u595f": 12609, "\u5960": 12610, "\u5961": 12611, "\u5962": 12612, "\u5963": 12613, "\u5964": 12614, "\u5965": 12615, "\u5966": 12616, "\u5967": 12617, "\u5968": 12618, "\u5969": 12619, "\u596a": 12620, "\u596b": 12621, "\u596c": 12622, "\u596d": 12623, "\u596e": 12624, "\u596f": 12625, "\u5970": 12626, "\u5971": 12627, "\u5972": 12628, "\u5973": 12629, "\u5974": 12630, "\u5975": 12631, "\u5976": 12632, "\u5977": 12633, "\u5978": 12634, "\u5979": 12635, "\u597a": 12636, "\u597b": 12637, "\u597c": 12638, "\u597d": 12639, "\u597e": 12640, "\u597f": 12641, "\u5980": 12642, "\u5981": 12643, "\u5982": 12644, "\u5983": 12645, "\u5984": 12646, "\u5985": 12647, "\u5986": 12648, "\u5987": 12649, "\u5988": 12650, "\u5989": 12651, "\u598a": 12652, "\u598b": 12653, "\u598c": 12654, "\u598d": 12655, "\u598e": 12656, "\u598f": 12657, "\u5990": 12658, "\u5991": 12659, "\u5992": 12660, "\u5993": 12661, "\u5994": 12662, "\u5995": 12663, "\u5996": 12664, "\u5997": 12665, "\u5998": 12666, "\u5999": 12667, "\u599a": 12668, "\u599b": 12669, "\u599c": 12670, "\u599d": 12671, "\u599e": 12672, "\u599f": 12673, "\u59a0": 12674, "\u59a1": 12675, "\u59a2": 12676, "\u59a3": 12677, "\u59a4": 12678, "\u59a5": 12679, "\u59a6": 12680, "\u59a7": 12681, "\u59a8": 12682, "\u59a9": 12683, "\u59aa": 12684, "\u59ab": 12685, "\u59ac": 12686, "\u59ad": 12687, "\u59ae": 12688, "\u59af": 12689, "\u59b0": 12690, "\u59b1": 12691, "\u59b2": 12692, "\u59b3": 12693, "\u59b4": 12694, "\u59b5": 12695, "\u59b6": 12696, "\u59b7": 12697, "\u59b8": 12698, "\u59b9": 12699, "\u59ba": 12700, "\u59bb": 12701, "\u59bc": 12702, "\u59bd": 12703, "\u59be": 12704, "\u59bf": 12705, "\u59c0": 12706, "\u59c1": 12707, "\u59c2": 12708, "\u59c3": 12709, "\u59c4": 12710, "\u59c5": 12711, "\u59c6": 12712, "\u59c7": 12713, "\u59c8": 12714, "\u59c9": 12715, "\u59ca": 12716, "\u59cb": 12717, "\u59cc": 12718, "\u59cd": 12719, "\u59ce": 12720, "\u59cf": 12721, "\u59d0": 12722, "\u59d1": 12723, "\u59d2": 12724, "\u59d3": 12725, "\u59d4": 12726, "\u59d5": 12727, "\u59d6": 12728, "\u59d7": 12729, "\u59d8": 12730, "\u59d9": 12731, "\u59da": 12732, "\u59db": 12733, "\u59dc": 12734, "\u59dd": 12735, "\u59de": 12736, "\u59df": 12737, "\u59e0": 12738, "\u59e1": 12739, "\u59e2": 12740, "\u59e3": 12741, "\u59e4": 12742, "\u59e5": 12743, "\u59e6": 12744, "\u59e7": 12745, "\u59e8": 12746, "\u59e9": 12747, "\u59ea": 12748, "\u59eb": 12749, "\u59ec": 12750, "\u59ed": 12751, "\u59ee": 12752, "\u59ef": 12753, "\u59f0": 12754, "\u59f1": 12755, "\u59f2": 12756, "\u59f3": 12757, "\u59f4": 12758, "\u59f5": 12759, "\u59f6": 12760, "\u59f7": 12761, "\u59f8": 12762, "\u59f9": 12763, "\u59fa": 12764, "\u59fb": 12765, "\u59fc": 12766, "\u59fd": 12767, "\u59fe": 12768, "\u59ff": 12769, "\u5a00": 12770, "\u5a01": 12771, "\u5a02": 12772, "\u5a03": 12773, "\u5a04": 12774, "\u5a05": 12775, "\u5a06": 12776, "\u5a07": 12777, "\u5a08": 12778, "\u5a09": 12779, "\u5a0a": 12780, "\u5a0b": 12781, "\u5a0c": 12782, "\u5a0d": 12783, "\u5a0e": 12784, "\u5a0f": 12785, "\u5a10": 12786, "\u5a11": 12787, "\u5a12": 12788, "\u5a13": 12789, "\u5a14": 12790, "\u5a15": 12791, "\u5a16": 12792, "\u5a17": 12793, "\u5a18": 12794, "\u5a19": 12795, "\u5a1a": 12796, "\u5a1b": 12797, "\u5a1c": 12798, "\u5a1d": 12799, "\u5a1e": 12800, "\u5a1f": 12801, "\u5a20": 12802, "\u5a21": 12803, "\u5a22": 12804, "\u5a23": 12805, "\u5a24": 12806, "\u5a25": 12807, "\u5a26": 12808, "\u5a27": 12809, "\u5a28": 12810, "\u5a29": 12811, "\u5a2a": 12812, "\u5a2b": 12813, "\u5a2c": 12814, "\u5a2d": 12815, "\u5a2e": 12816, "\u5a2f": 12817, "\u5a30": 12818, "\u5a31": 12819, "\u5a32": 12820, "\u5a33": 12821, "\u5a34": 12822, "\u5a35": 12823, "\u5a36": 12824, "\u5a37": 12825, "\u5a38": 12826, "\u5a39": 12827, "\u5a3a": 12828, "\u5a3b": 12829, "\u5a3c": 12830, "\u5a3d": 12831, "\u5a3e": 12832, "\u5a3f": 12833, "\u5a40": 12834, "\u5a41": 12835, "\u5a42": 12836, "\u5a43": 12837, "\u5a44": 12838, "\u5a45": 12839, "\u5a46": 12840, "\u5a47": 12841, "\u5a48": 12842, "\u5a49": 12843, "\u5a4a": 12844, "\u5a4b": 12845, "\u5a4c": 12846, "\u5a4d": 12847, "\u5a4e": 12848, "\u5a4f": 12849, "\u5a50": 12850, "\u5a51": 12851, "\u5a52": 12852, "\u5a53": 12853, "\u5a54": 12854, "\u5a55": 12855, "\u5a56": 12856, "\u5a57": 12857, "\u5a58": 12858, "\u5a59": 12859, "\u5a5a": 12860, "\u5a5b": 12861, "\u5a5c": 12862, "\u5a5d": 12863, "\u5a5e": 12864, "\u5a5f": 12865, "\u5a60": 12866, "\u5a61": 12867, "\u5a62": 12868, "\u5a63": 12869, "\u5a64": 12870, "\u5a65": 12871, "\u5a66": 12872, "\u5a67": 12873, "\u5a68": 12874, "\u5a69": 12875, "\u5a6a": 12876, "\u5a6b": 12877, "\u5a6c": 12878, "\u5a6d": 12879, "\u5a6e": 12880, "\u5a6f": 12881, "\u5a70": 12882, "\u5a71": 12883, "\u5a72": 12884, "\u5a73": 12885, "\u5a74": 12886, "\u5a75": 12887, "\u5a76": 12888, "\u5a77": 12889, "\u5a78": 12890, "\u5a79": 12891, "\u5a7a": 12892, "\u5a7b": 12893, "\u5a7c": 12894, "\u5a7d": 12895, "\u5a7e": 12896, "\u5a7f": 12897, "\u5a80": 12898, "\u5a81": 12899, "\u5a82": 12900, "\u5a83": 12901, "\u5a84": 12902, "\u5a85": 12903, "\u5a86": 12904, "\u5a87": 12905, "\u5a88": 12906, "\u5a89": 12907, "\u5a8a": 12908, "\u5a8b": 12909, "\u5a8c": 12910, "\u5a8d": 12911, "\u5a8e": 12912, "\u5a8f": 12913, "\u5a90": 12914, "\u5a91": 12915, "\u5a92": 12916, "\u5a93": 12917, "\u5a94": 12918, "\u5a95": 12919, "\u5a96": 12920, "\u5a97": 12921, "\u5a98": 12922, "\u5a99": 12923, "\u5a9a": 12924, "\u5a9b": 12925, "\u5a9c": 12926, "\u5a9d": 12927, "\u5a9e": 12928, "\u5a9f": 12929, "\u5aa0": 12930, "\u5aa1": 12931, "\u5aa2": 12932, "\u5aa3": 12933, "\u5aa4": 12934, "\u5aa5": 12935, "\u5aa6": 12936, "\u5aa7": 12937, "\u5aa8": 12938, "\u5aa9": 12939, "\u5aaa": 12940, "\u5aab": 12941, "\u5aac": 12942, "\u5aad": 12943, "\u5aae": 12944, "\u5aaf": 12945, "\u5ab0": 12946, "\u5ab1": 12947, "\u5ab2": 12948, "\u5ab3": 12949, "\u5ab4": 12950, "\u5ab5": 12951, "\u5ab6": 12952, "\u5ab7": 12953, "\u5ab8": 12954, "\u5ab9": 12955, "\u5aba": 12956, "\u5abb": 12957, "\u5abc": 12958, "\u5abd": 12959, "\u5abe": 12960, "\u5abf": 12961, "\u5ac0": 12962, "\u5ac1": 12963, "\u5ac2": 12964, "\u5ac3": 12965, "\u5ac4": 12966, "\u5ac5": 12967, "\u5ac6": 12968, "\u5ac7": 12969, "\u5ac8": 12970, "\u5ac9": 12971, "\u5aca": 12972, "\u5acb": 12973, "\u5acc": 12974, "\u5acd": 12975, "\u5ace": 12976, "\u5acf": 12977, "\u5ad0": 12978, "\u5ad1": 12979, "\u5ad2": 12980,
[...]
